#version: 0.2
à ¥
¤ ķ
à ¤ķ
¤ °
à ¤°
à¥ ĩ
à¥ į
Ġ à¤ķ
¤ ¨
à ¤¨
¤ ¸
à ¤¸
à¥ Ģ
¤ ¿
à ¤¿
à ¤
à¤ Ĥ
à¤ ¹
à¤ ®
à¤ ¤
à¤ ²
à¥ ĭ
à¤ ª
à¤ ¯
Ġ à¤¸
Ġ à¤¹
à¤ µ
à¤ ¦
Ġ à¤
Ġ à¤®
Ġ à¤ª
à¥ Ī
à¥ ģ
à¥ĩ à¤Ĥ
Ġà¤ ¬
à¤ Ĺ
Ġ à¤¨
Ġà¤ ľ
à¤ Ł
à¤ ľ
Ġà¤ ħ
Ġ à¤¦
Ġ à¤µ
Ġ à¤²
Ġ à¤°
à¥ Ĥ
à¥ĭ à¤Ĥ
à¤ ¬
à¤ ¶
Ġà¤ Ĩ
à¤ ı
à¤ ¡
Ġ à¤¤
à¤ ļ
Ġà¤ķ à¤°
Ġà¤ Ĺ
Ġà¤ ī
Ġà¤ Ń
Ġà¤ ĩ
à¤ §
Ġà¤ Ķ
à¤ ·
Ġ à¤¯
Ġà¤Ķ à¤°
Ġà¤ª à¤°
à¥Ī à¤Ĥ
Ġà¤ ı
à¤ ¥
à¤ Ī
Ġà¤ ļ
à¤ ¼
Ġà¤ ¶
à¤ ĸ
à¤ £
Ġà¤ĩ à¤¸
à¤ Ń
¾ à¤Ĥ
à¤ ¾à¤Ĥ
Ġà¤ «
Ġà¤ ¥
à¤ «
Ġà¤ ĸ
Ġà¤ı à¤ķ
Ġà¤° à¤¹
à¥Ģ à¤Ĥ
à¥ Į
à¤ª à¤¨
à¤ķ à¤°
à¥ ī
à¤° à¤¤
Ġà¤¨ à¤¹
Ġà¤¸ à¤®
Ġà¤ Ł
à¤¿ à¤Ĥ
Ġà¤ ¡
à¤ ĩ
Ġà¤ī à¤¨
Ġà¤¯ à¤¹
Ġà¤Ĩ à¤ª
Ġà¤ķà¤° à¤¨
Ġà¤ħ à¤ªà¤¨
à¤ Ľ
Ġà¤ķ à¤¹
à¤° à¤ķ
à¤ķ à¤¤
Ġà¤ī à¤¸
Ġà¤Ĺ à¤¯
à¤ ł
Ġà¤ª à¤¹
Ġà¤¹ à¤®
Ġà¤¬ à¤¨
Ġà¤ħ à¤¨
Ġà¤ ĺ
à¥ ĥ
Ġà¤² à¤Ĺ
à¤ ģ
à¤¤ à¤°
Ġà¤® à¤¹
à¤µ à¤°
à¤ Ĩ
Ġà¤¸ à¤ķà¤¤
à¤ ĵ
à¤ľ à¤¨
à¤Ł à¤°
Ġà¤ §
Ġà¤ķà¤° à¤¤
Ġà¤ Ľ
à¥ ľ
Ġà¤µ à¤¹
Ġà¤ħ à¤§
à¤¯ à¤ķ
à¤¶ à¤¨
à¤¹ à¤°
Ġà¤Ĩà¤ª à¤ķ
à¤¼ à¤
à¤¼à¤ ¾
à¤Ĺ à¤°
à¤¸ à¤°
Ġà¤¤ à¤ķ
à¤° à¤¦
à¤ ¢
à¤¯ à¤°
Ġà¤ķ à¤®
Ġà¤ªà¤¹ à¤²
Ġà¤īà¤¨ à¤ķ
Ġà¤¤ à¤°
Ġà¤ī à¤ª
à¤° à¤£
à¤° à¤®
Ġà¤ Ĳ
à¤² à¤¨
Ġà¤¸ à¤¬
Ġà¤ĩà¤¸ à¤ķ
à¤ Ŀ
Ġà¤ĩ à¤¨
à¤² à¤¤
Ġà¤¬ à¤¹
à¤¬ à¤°
à¤¤ à¤¨
Ġà¤µ à¤°
¾ à¤ģ
à¤ ¾à¤ģ
Ġà¤ī à¤¤
Ġà¤ľ à¤¬
à¥ģ à¤Ĥ
à¤ª à¤°
Ġà¤Ĳ à¤¸
Ġà¤ª à¤¤
à¤¯ à¤®
Ġà¤¸ à¤°à¤ķ
Ġà¤¬ à¤¤
à¤µ à¤¨
Ġà¤ħ à¤¬
Ġà¤Ĺ à¤Ī
à¤° à¤¸
Ġà¤īà¤¸ à¤ķ
à¤¼ à¥Ģ
Ġà¤ħ à¤²
Ġà¤¬ à¤ļ
Ġà¤Ĩ à¤¯
Ġà¤Ĩ à¤°
à¤® à¤¨
à¤ ī
Ġà¤¸ à¤¹
Ġà¤ľ à¤¨
à¤° à¤µ
Ġà¤ ĳ
Ġà¤° à¤ĸ
Ġà¤Ĩ à¤ľ
Ġ à¥
à¤Ł à¤¨
Ġà¤¸ à¤Ń
Ġà¤¸à¤® à¤¯
Ġà¤ ĵ
Ġà¤¹ à¤°
Ġà¤ħ à¤Ń
Ġà¤¦ à¤°
Ġà¤¤à¤° à¤¹
Ġà¤® à¤¨
à¤® à¤¤
à¤¹ à¤¤
Ġà¤Ĺ à¤ı
à¤¼ à¥ĩ
à¤® à¤²
à¤¨ à¤ķ
à¤ľ à¤°
à¤· à¤£
à¤ķ à¤²
Ġà¤¸ à¤°
à¤µ à¤¸
à¤¯ à¤¨
à¤¦ à¤°
Ġà¤¸à¤¬ à¤¸
à¤ ĺ
à¤¯ à¤¤
à¤¸ à¤ķ
à¤¸ à¤²
à¤ļ à¤¨
Ġà¤ļ à¤²
Ġà¤ķ à¤Ī
Ġà¤Ĩ à¤¤
Ġà¤ħ à¤®
Ġà¤Ĩ à¤µ
à¤Ĺ à¤²
Ġà¤ħ à¤ļ
à¤ª à¤¤
à¤¦ à¤¨
Ġà¤¬ à¤¡
à¤¸ à¤¨
Ġà¤ĺ à¤°
Ġà¤Ĩ à¤¦
à¤ı à¤Ĺ
à¤ĩ à¤¨
à¤µ à¤¤
à¤² à¤¯
à¤ı à¤¸
à¤ ŀ
à¥Ĥ à¤Ĥ
à¤¸ à¤®
Ġà¤ľ à¤°
Ġà¤¬ à¤¢
Ġà¤Ń à¤°
à¤¨ à¤¤
Ġà¤¶ à¤°
Ġà¤Ĩ à¤Ī
à¤Ĺ à¤¤
Ġà¤ħ à¤°
Ġà¤ Ŀ
à¤µ à¤²
Ġà¤ ł
Ġà¤ı à¤µ
Ġà¤ Ī
à¤ı à¤®
Ġà¤ħ à¤ª
à¤ĸ à¤¨
Ġà¤ķ à¤²
Ġà¤¸ à¤ķ
à¤¨ à¤²
à¥ Ŀ
à¤® à¤ķ
Ġà¤ħ à¤µ
Ġà¤ħ à¤Ĺà¤°
Ġà¤Ĩ à¤¨
Ġà¤Ĩ à¤Ĺ
Ġà¤ħ à¤¸
Ġà¤¬ à¤¦
à¤² à¤°
Ġà¤Ĩ à¤§
Ġà¤¤ à¤¥
Ġà¤ħ à¤ķ
à¤§ à¤¨
à¤ĩ à¤Ł
à¤¬ à¤²
à¤° à¤Ń
Ġà¤¬ à¤²
Ġà¤ľ à¤²
à¤° à¤¹
Ġà¤ı à¤¸
Ġà¤ķ à¤ª
Ġà¤ī à¤®
à¤² à¤¬
à¤° à¤¶
Ġà¤ī à¤¦
à¤Ĩ à¤Ī
à¤¨ à¤¸
à¤ª à¤¯
Ġà¤ľ à¤®
à¥ Ľ
à¤¯ à¤²
Ġà¤ĸ à¤°
Ġà¤ª à¤¡
Ġà¤Ĺ à¤°
à¤Ł à¤²
à¤ ħ
Ġà¤ª à¤¦
à¤ĩ à¤²
à¤° à¤¯
Ġà¤īà¤ª à¤¯
à¤ķ à¤¸
à¤¨ à¤®
à¤¤ à¤ķ
à¤ľ à¤ª
Ġà¤ Ĭ
à¤® à¤°
Ġà¤¸à¤® à¤Ŀ
à¤¡ à¤°
à¤ķà¤° à¤£
à¤Ł à¤ķ
Ġà¤² à¤¡
à¤¹ à¤¨
Ġà¤ħà¤² à¤Ĺ
Ġà¤Ĩ à¤¸
à¤° à¤¨
Ġà¤ĩ à¤²
Ġà¤¬ à¤ľ
à¤¼ à¤¿
Ġà¤ľ à¤¹
Ġà¤ķ à¤Ń
à¤° à¤§
Ġà¤¸ à¤¤
à¤¸ à¤¦
à¤² à¤ķ
Ġà¤°à¤¹ à¤¤
Ġà¤ī à¤ł
Ġà¤¯ à¤¦
Ġà¤¬ à¤¸
Ġà¤® à¤ľ
Ġà¤ĵ à¤°
à¤ķ à¤¨
à¥Ĥ à¤ģ
Ġà¤¸ à¤«
à¤ķ à¤¡
Ġà¤ħ à¤¤
Ġà¤¤ à¤¬
à¤¨ à¤¨
à¤¡ à¤²
à¤¶ à¤ķ
Ġà¤¬ à¤°
Ġà¤® à¤¤
à¤ª à¤ķ
Ġà¤ĩà¤¸ à¤²
Ġà¤ľ à¤Ĺ
à¤¦ à¤µ
à¤Ľ à¤²
à¤¯ à¤¦
Ġà¤¨ à¤Ī
à¤ľ à¤²
Ġà¤® à¤¦
Ġà¤ĩà¤¸ à¤¸
Ġà¤¨ à¤µ
à¤¤ à¤®
Ġà¤ª à¤¢
à¤ļ à¤°
Ġà¤ī à¤ļ
Ġà¤ı à¤®
à¤ ĥ
Ġà¤¸ à¤¦
Ġà¤¨ à¤¯
Ġà¤¸ à¤ļ
Ġà¤ħ à¤Ĺ
Ġà¤¸ à¤µ
à¤® à¤¦
Ġà¤ĳ à¤«
Ġà¤¬à¤¦ à¤²
à¤¨ à¤°
Ġà¤¶ à¤¹à¤°
Ġà¤ ¢
à¤· à¤ķ
Ġà¤ĩ à¤¤à¤¨
Ġà¤²à¤Ĺ à¤¤
Ġà¤« à¤°
à¤¯ à¤µà¤¸
Ġà¤® à¤§
Ġà¤ķà¤¹ à¤¤
Ġà¤ĩà¤¸ à¤®
à¤¨ à¤µ
Ġà¤ľ à¤µ
Ġà¤¹ à¤ľ
à¤°à¤¦ à¤°
Ġà¤¸à¤® à¤¸
Ġà¤Ĩà¤µ à¤¶
à¤¯ à¤ª
Ġà¤Ĩ à¤®
Ġà¤°à¤¹ à¤¨
à¤¤ à¤µ
Ġà¤¸ à¤²
Ġà¤®à¤¹ à¤¤
Ġà¤®à¤¦ à¤¦
Ġà¤§ à¤°
à¤ª à¤¸
à¤ľ à¤¹
Ġà¤ľà¤Ĺ à¤¹
à¤µ à¤ķ
à¤ Ĭ
à¤ĸ à¤¤
à¤¶ à¤²
à¤² à¤µ
Ġà¤® à¤°
Ġà¤Ĩ à¤¶
à¤Ń à¤µ
Ġà¤ª à¤ķ
Ġà¤¬ à¥ľ
Ġà¤ķà¤° à¤ķ
à¤µ à¤ª
Ġà¤¦ à¤²
à¤ľ à¤¯
Ġà¤ı à¤¨
Ġà¤ĺ à¤Łà¤¨
à¤¯ à¤µ
à¤¦ à¤®
Ġà¤² à¤ķ
Ġà¤ķ à¤¬
Ġà¤Ĩ à¤ı
Ġà¤°à¤ĸ à¤¨
Ġà¤ķà¤¹ à¤¨
Ġà¤¨ à¤°
Ġà¤ļ à¤°
à¥ ¦
à¤ķ à¤Ł
à¤¬ à¤¸
Ġà¤µ à¤ľà¤¹
Ġà¤Ĩ à¤ķ
à¤Ł à¤®
à¤° à¤ª
Ġà¤ĸ à¤¬à¤°
Ġà¤¸à¤® à¤°
à¤ł à¤¨
Ġà¤¨ à¤ı
à¤¸ à¤¸
à¤¬ à¤¨
à¤¥ à¤¨
Ġà¤ĩà¤¨ à¤ķ
Ġà¤ľà¤¬ à¤ķ
Ġà¤ļ à¤²à¤¤
Ġà¤° à¤µ
à¤Ĺ à¤¨
à¤ľ à¤¸
Ġà¤° à¤ķ
Ġà¤ħ à¤¦
à¤ł à¤ķ
Ġà¤īà¤¸ à¤¨
à¤¹ à¤¤à¤°
Ġà¤§ à¤¨
Ġà¤µ à¤ķ
à¤° à¤ĸ
Ġà¤¨ à¤ľà¤°
Ġà¤¸ à¤ª
à¤ĩ à¤ķ
à¤¹ à¤®
à¤§ à¤°
à¤° à¤«
Ġà¤ı à¤²
à¤¨ à¤¦
Ġà¤¹à¤® à¤²
à¤® à¤ļ
Ġà¤¶ à¤ķ
Ġà¤ķ à¤¨
à¤° à¤²
Ġà¤īà¤ª à¤²à¤¬
Ġà¤ħ à¤«
Ġà¤® à¤¸
à¤Ĺ à¤µ
à¤° à¤¬
Ġà¤® à¤¶
Ġà¤¶ à¤¬
Ġà¤ľà¤¨ à¤¤
Ġà¤ª à¥ľ
à¤ĩ à¤¡
Ġà¤¸à¤¦ à¤¸
à¤¦ à¤Ĺ
Ġà¤ª à¤¸
à¤¬ à¤Ī
Ġà¤¤à¤° à¤«
Ġà¤ª à¤¶
à¤¥ à¤®
à¤Ń à¤Ĺ
Ġà¤ī à¤²
Ġà¤¤ à¤¹à¤¤
Ġà¤Ĩ à¤²
à¤¶ à¤¤
à¤¬ à¤¹
Ġà¤¬ à¥Ŀ
Ġà¤²à¤Ĺ à¤Ńà¤Ĺ
à¤ı à¤«
Ġà¤¤ à¤¸
Ġà¤µ à¤¸
à¤ª à¤ı
à¤¯ à¤¸
à¤ı à¤²
à¤Ĩ à¤°
Ġà¤ķ à¤µ
Ġà¤¹ à¤¤
Ġà¤° à¤¨
à¤· à¤¯
à¤ĩ à¤¸
à¤Ĩ à¤¤
à¤² à¤ķà¤°
Ġà¤¹ à¤µ
à¤ª à¤£
Ġà¤ķ à¤¶
à¤¸ à¤¤
à¤¸ à¤ª
à¤¹ à¤²
Ġà¤Ĭ à¤ªà¤°
Ġà¤¨ à¤Ĺà¤°
à¤µà¤° à¤£
à¤° à¤ľ
Ġà¤ĩ à¤¤
Ġà¤Ĺ à¤¤
à¤¼ à¥ĭ
Ġà¤ħ à¤Ĺà¤²
à¥ľ à¤ķ
à¤® à¤Ĺ
Ġà¤¦ à¤¸
à¤° à¤ªà¤¤
à¤¯ à¤ķà¤¤
à¥ ŀ
à¤ļ à¤²
à¤ı à¤¨
à¥Į à¤Ĥ
Ġà¤®à¤ľ à¤¬
Ġà¤ķ à¤Ł
Ġà¤¹ à¤²
Ġà¤Ĩ à¤ĸ
Ġà¤ħ à¤ĸ
Ġà¤Ń à¤Ĺà¤µ
à¤¹ à¤¦
Ġà¤ªà¤° à¤®
Ġà¤¸ à¤¨
à¤§ à¤µ
Ġà¤¬ à¤¯
Ġà¤ħ à¤ľ
Ġà¤¤ à¤¤
Ġà¥ §
Ġà¤ª à¥Ŀ
à¤¼ à¥ĩà¤Ĥ
Ġà¤¹ à¤Ł
à¤· à¤¤
Ġà¤Ĺ à¤²à¤¤
Ġà¤¨ à¤ķ
Ġà¤ħ à¤ªà¤°
à¤® à¤µ
Ġà¤¦ à¤¬
Ġà¤¤ à¤²
Ġà¤ħ à¤¶
Ġà¤ı à¤¡
à¤µ à¤ľ
à¤¼ à¥ĭà¤Ĥ
à¤¹ à¤¸
à¤ª à¤²
à¤¹ à¤ķ
à¤¨à¤¸ à¤Ń
Ġà¤ķà¤° à¤µ
Ġà¤¦ à¤ķ
à¤Ĺ à¤®
à¤£ à¤¨
à¤Ń à¤°
à¤ľ à¤Ĺ
à¤² à¤¸
à¤µ à¤ļ
à¤¼ à¥į
Ġà¤° à¤¸
Ġà¤°à¤ĸ à¤¤
à¤¨ à¤Ł
Ġà¤¹à¤® à¤¨
Ġà¤µ à¤¨
Ġà¤ªà¤¹ à¤ļ
à¤Ĺ à¤łà¤¨
Ġà¤¸ à¤ľ
Ġà¤ı à¤«
Ġà¤¶ à¤¨
à¤® à¤¸
Ġà¤ĳ à¤¨à¤²
Ġà¤ı à¤ľ
à¤Ł à¤«
Ġà¤Ń à¤µ
à¤ķà¤¸ à¤Ń
Ġà¤Ĩ à¤ķà¤°
Ġà¤¬à¤¨ à¤¨
Ġà¤® à¤²
Ġà¤¤ à¤®
Ġà¤® à¤Ī
Ġà¥ Ľ
à¤ī à¤¨
à¤µ à¤¯
Ġà¤ª à¤Ł
à¤¥ à¤²
Ġà¤ª à¤²
à¤ĺ à¤°
Ġà¥ ŀ
à¤¸ à¤µ
à¥ģ à¤ģ
à¤ĸ à¤°
Ġà¤¨ à¤¦
Ġà¤ĸ à¤¡
à¤µ à¤µ
Ġà¤ħà¤µ à¤¸à¤°
à¤ķ à¤µ
à¤¶à¤¨ à¤²
à¤ĩ à¤¯
à¤ĩ à¤µ
Ġà¤ ĭ
Ġà¤¤ à¤¨
Ġà¤¸ à¤¸
à¤ĩ à¤®
Ġà¤ľà¤¨ à¤µà¤°
Ġà¤ĸ à¤¤
à¤Ĺ à¤¢
Ġà¤Ĩà¤¦ à¤®
à¤ķ à¤ª
Ġà¤¸à¤¬ à¤ķ
à¤² à¤®
Ġà¤¸ à¤¡
à¥ ħ
à¤ļ à¤ķ
Ġà¤¦ à¤µ
Ġà¤ķ à¤¦à¤®
Ġà¤ĸ à¤¤à¤°
Ġà¤ħà¤Ĺ à¤¸
à¤°à¤® à¤£
Ġà¤ı à¤¯à¤°
Ġà¥ ¨
à¤ī à¤¨à¤²
Ġà¤Ĩ à¤ªà¤¨
Ġ à¤Ĥ
Ġà¤ĩ à¤ķ
Ġà¤¸à¤¹ à¤¯
Ġà¤ķà¤® à¤°
Ġà¤¤ à¤¯
Ġà¤Ľ à¤¤
à¤¦ à¤²
à¤¦ à¤ķ
à¤° à¤¥à¤®
à¤Łà¤° à¤¨
à¤° à¤ļ
Ġà¤¹ à¤¸
à¤¥ à¤µ
Ġà¤īà¤¸ à¤¸
à¤® à¤¯
à¤¨ à¤ª
à¤ĩ à¤ľ
Ġà¤ķ à¤¸
Ġà¤ı à¤ļ
à¤¡ à¤¨
à¤ľ à¤ķ
à¤· à¤¦
Ġà¤ľ à¤¯
à¤· à¤®à¤¤
Ġà¤Ĺ à¤£
à¤£ à¤µà¤¤
à¤¯à¤° à¤¸
à¤¹à¤° à¤£
à¤· à¤®
Ġà¤ħà¤µ à¤§
Ġà¤ļ à¤ķ
Ġà¤° à¤ļà¤¨
à¤¤ à¤²
Ġà¤®à¤¤ à¤²à¤¬
Ġà¤¨ à¤®
à¤« à¤²
à¤µ à¤§
Ġà¤ķ à¤¥
Ġà¤¤à¤ķ à¤¨
Ġà¤ı à¤ª
Ġà¤Ĺ à¤²
à¤µ à¤Ł
Ġà¤ļ à¤°à¤£
à¤Ĺà¤² à¤µ
à¤ª à¤·
Ġà¤ħ à¤¹
Ġà¤ķ à¤ł
à¤¥ à¤°
Ġà¤®à¤¤ à¤¦
à¤ļ à¤¤
à¤µ à¤¶
à¤¯ à¤ķà¤°
à¤ı à¤ļ
à¤§ à¤ķ
à¤« à¤°
Ġà¤ª à¤ķà¤¡
Ġà¤¸à¤« à¤²à¤¤
à¤¸ à¤¬
Ġà¤® à¤Ĺà¤°
à¤ī à¤Ł
Ġà¤ħà¤® à¤°
Ġà¤®à¤¹ à¤¸
à¤ľ à¤µ
Ġà¤ī à¤¡
Ġà¤ļ à¤¯à¤¨
Ġà¤īà¤ª à¤ķà¤°à¤£
Ġà¤² à¥ľà¤ķ
à¤ª à¤Ł
Ġà¤« à¤²
à¤¤ à¤ļ
Ġà¤ĩ à¤®
Ġà¤ĳ à¤¸
Ġà¤¸ à¤ªà¤¨
Ġà¤¡ à¤°
à¤ĸ à¤ķà¤°
à¤Ĺ à¤¦
Ġà¥§ à¥
à¤£ à¤¯
à¤Ľ à¤¤
à¤ĸ à¤ķ
Ġà¤Ń à¤²
Ġà¤«à¤° à¤µà¤°
Ġà¤² à¤ĸà¤¨
Ġà¤īà¤ª à¤ļ
à¤¨ à¤ķà¤°
à¤ª à¤®
Ġà¤ķ à¤ķ
Ġà¤īà¤¸ à¤®
à¤ĸ à¤²
à¤¤ à¤ľ
à¤¦ à¤¸
Ġà¤® à¤ķ
Ġà¤īà¤¨ à¤¸
Ġà¤¬à¤¹ à¤¨
à¤¯à¤° à¤²
Ġà¤ı à¤¶
à¤¬ à¤¤
Ġà¤ĺ à¤Ł
Ġà¥ Ļ
Ġà¤Ĺ à¤¹à¤°
Ġà¤ī à¤°
Ġà¤¨ à¤ľ
Ġà¤ķà¤ª à¤¡
Ġà¤īà¤ª à¤¸
Ġà¤ħ à¤¸à¤°
à¤§ à¤¤
Ġà¤²à¤ĸà¤¨ à¤Ĭ
à¤¦ à¤¯
Ġà¤ļ à¤²à¤¨
Ġà¤¸à¤« à¤²
à¤¹ à¤¬
à¤¤à¤° à¤£
Ġà¤ĩ à¤ļ
Ġà¤ħà¤° à¤¬
Ġà¤Ľ à¤¹
à¤¯ à¤¯à¤¨
Ġà¤Ĭ à¤°
à¤Ĺ à¤¡
à¤¡ à¤ķ
Ġà¤Ĺ à¤ł
Ġà¤® à¤ļ
à¤ı à¤ķ
à¤Ł à¤¬
Ġà¤Ĩ à¤¹
à¤² à¤¹
à¤ľ à¤®
Ġà¤Ĩ à¤ł
à¤ª à¤¦
Ġà¤ª à¤¨
Ġà¤¸à¤² à¤®
à¤¨à¤¤ à¤®
Ġà¤¤ à¤Ń
Ġà¤ī à¤¤à¤°
à¤¥ à¤ķ
à¤¦ à¤¬
Ġ à¤¿
à¤Ł à¤µ
à¤° à¤Ĺ
à¤Ĺ à¤ľ
à¤² à¤Ĺ
à¤® à¤ª
à¥ ĺ
Ġà¤ĵ à¤µà¤°
Ġà¤ķ à¤¡
Ġà¤ĩà¤¨ à¤®
Ġà¤¬à¤ľ à¤Ł
Ġà¤ľ à¤¤
Ġà¤¬à¤¨ à¤¤
à¤ħ à¤¸à¤²
Ġà¤ī à¤ľ
à¤¬ à¤¦
à¤® à¤£
Ġà¤° à¤ľ
à¤° à¤·
Ġà¤¦à¤° à¤ħà¤¸à¤²
à¤ħ à¤²
à¤ħ à¤ª
Ġà¤¶ à¤¹
à¥ľ à¤¨
Ġà¤¹ à¤¥
à¤Ń à¤ķ
à¤² à¤ļ
à¤ī à¤¸
à¤ľ à¤§
à¤°à¤¹ à¤£
Ġà¤Ń à¤ķ
à¤¡ à¤®
à¤ĩ à¤ª
Ġà¤Ĩà¤Ī à¤¸
Ġà¤ļ à¤®
Ġà¤ļ à¤¢
Ġà¤Ĩà¤ª à¤¸
à¤¸ à¤ķà¤°
à¤¯ à¤£
Ġà¤ħ à¤¸à¤²
Ġà¤µ à¤ľà¤¨
Ġà¤ķà¤® à¤ľ
à¤µ à¤ľà¤¨
à¤¡ à¤µ
à¤¨ à¤Ĺà¤°
à¤¶ à¤°
Ġà¤¹ à¤¡
à¤¯à¤µ à¤¹
à¤¡ à¤¸
Ġà¤Ī à¤®
à¤¤ à¤¤
Ġà¤ħ à¤¹à¤®
Ġà¤Ĩà¤Ī à¤ª
Ġà¤¬à¤¦ à¤²à¤¨
Ġà¤¶ à¤µ
Ġà¤īà¤¨ à¤®
Ġà¤ħà¤ª à¤¡
à¤¯ à¤¡
Ġà¤Ĩ à¤īà¤Ł
à¤¶ à¤µ
Ġà¤ª à¤Łà¤¨
Ġà¤Ń à¤¯
à¤¤à¤° à¤°
Ġà¤®à¤ľ à¤¦
Ġà¤ļ à¤¨
à¤¸à¤² à¤®
à¤ľ à¤¤
à¤Ł à¤¤
Ġà¤° à¤£
Ġà¤Ī à¤¶
à¤¦ à¤¶
Ġà¤ħ à¤¯
à¤ľà¤¨ à¤ķ
à¤ĩà¤¨ à¤²
Ġà¤Ĳ à¤ª
Ġà¤²à¤Ĺ à¤¨
Ġà¤Ł à¤°
Ġà¤¨ à¤¤
Ġà¤¶ à¤¤
à¥ĥ à¤Ĥ
Ġà¤¯ à¤ķ
à¤ĩ à¤«
Ġà¤ªà¤¹ à¤¨
à¤· à¤ľ
Ġà¤Ĩ à¤°à¤ķ
Ġà¤ª à¤µ
Ġà¤¦ à¤®
Ġà¤ĩ à¤ľ
¾ à¥ħ
Ġà¤Ĩ à¤ıà¤Ĺ
à¤ ¾à¥ħ
Ġà¤« à¤¸à¤²
Ġà¤¸à¤®à¤Ŀ à¤¨
à¤¡ à¤¬
Ġà¤¬ à¤§
Ġà¤Ĩ à¤¬
Ġà¤¹ à¤¨
à¤ĩ à¤ı
Ġà¤ī à¤¤à¤¨
à¤ķ à¤®
Ġà¤ĳ à¤ªà¤°
Ġà¤ħ à¤¸à¤®
à¤¯ à¤¬
à¤² à¤ª
Ġà¤Ń à¤µà¤¨
Ġà¤Ĩà¤¸ à¤ª
à¤ļ à¤¯
Ġà¤ħ à¤µà¤¸
Ġà¤Ĩ à¤Ń
à¤Ł à¤µà¤°
à¤ķ à¤²à¤¨
Ġà¤īà¤ª à¤°
à¤¼ à¥ģ
Ġà¤¹ à¤«
Ġà¤² à¤®
à¥ §
Ġà¤ľà¤¨ à¤¸
Ġà¤¦ à¤°à¤µ
Ġà¤° à¤£à¤¨
Ġà¤ħ à¤¥à¤µ
Ġà¤¹ à¤ķ
à¤· à¤°
Ġà¤Ĩ à¤ļ
Ġà¤Ī à¤¸
Ġà¤Ĩ à¤¦à¤°
à¤¬ à¤¡
Ġà¤ľà¤¨ à¤°à¤²
Ġà¤¬ à¤°à¤¸
à¤Ī à¤ķ
Ġà¤ĩ à¤°
Ġà¤ĸ à¥ľ
Ġà¤ĳ à¤Ł
à¤¹ à¤¨à¤¤
Ġà¤ıà¤ķ à¤¤
à¤Ĩà¤Ī à¤¸
à¤ª à¤¹à¤°
Ġà¤¦ à¤¹
Ġà¤ħà¤¹ à¤®à¤¦
Ġà¤¸ à¤ĸ
Ġà¤Ĺà¤ł à¤¬
Ġà¤ľ à¤¯à¤ª
à¤Ĺ à¤ķà¤°
Ġà¤Ľ à¤µ
Ġà¤Ī à¤°
Ġà¤¦ à¤¶à¤ķ
Ġà¤§ à¤®à¤ķ
Ġà¤ĩ à¤¶
Ġà¤Ŀ à¤Łà¤ķ
à¤ª à¤¡
à¤° à¤µà¤°
Ġà¤Ĺ à¤¡
Ġà¤ľ à¤¡
à¤² à¤¦
Ġà¤¬à¤ļ à¤¨
Ġà¤ľ à¤¸
à¤ĺ à¤¨
Ġà¤ħà¤µ à¤¶
Ġà¤ªà¥ľ à¤¤
à¤ľ à¤¬
Ġà¤ļ à¤®à¤ķ
Ġà¤° à¤®
Ġà¥ ©
à¤ł à¤Ń
à¤¸ à¤ļ
à¤¦ à¤¤
Ġà¤ķ à¤ļ
à¤ĺ à¤Łà¤¨
Ġà¤¸à¤¹ à¤®à¤¤
Ġà¤ĵ à¤²
à¤¸ à¤Ĺà¤¢
à¤² à¤Ń
Ġà¤Ĺ à¤łà¤¨
à¤Ĺ à¥Ŀ
Ġà¤ī à¤ªà¤¨
Ġà¤¸à¤° à¤²
Ġà¤ħ à¤Ł
Ġà¤ ·
Ġà¤¬ à¤Ĺ
Ġà¤ł à¤¹à¤°
Ġà¤¸ à¤Ł
à¤ª à¤¥
Ġà¤ı à¤Ĺ
à¤ı à¤¡
à¤¨ à¤¯
Ġà¤īà¤ª à¤Ń
Ġà¤¸ à¥ľà¤ķ
Ġà¤ķ à¤µà¤°
à¤¨ à¤¬
Ġà¤ªà¤° à¤¨
Ġà¤ĵ à¤ªà¤¨
à¤ķà¤¤ à¤®
Ġà¤ľà¤® à¤ķà¤°
à¤¨ à¤µà¤°
Ġà¤ħ à¤ľà¤¯
à¤ıà¤¸ à¤ª
Ġà¤° à¤¤
Ġà¤¶ à¤ĸ
Ġà¤ľ à¤Ĺà¤¤
Ġà¥¨ à¥¦
Ġà¤ķà¤® à¤²
à¤¹ à¤Ł
Ġà¤ĳ à¤°
Ġà¤Ń à¤Ł
à¤°à¤µ à¤ķ
Ġà¤¨ à¤¶
Ġà¤Ĳ à¤²
Ġà¤§ à¤®
à¤ľ à¤¦
Ġà¤ħ à¤¡
Ġà¤° à¤¦
à¤°à¤¤ à¤²à¤¬
à¤° à¤ķà¤°
Ġà¤ĭ à¤£
Ġà¤ĭ à¤·
Ġà¤ħ à¤°à¤µ
à¤¨ à¤Ī
à¤µ à¤¹
à¤¦ à¤¦
Ġà¤¬ à¤®
Ġà¤Ńà¤° à¤¨
à¤ıà¤¸ à¤Ł
Ġà¤¹ à¤¦
Ġà¤ħà¤« à¤¸à¤°
Ġà¤¤ à¤Ł
Ġà¤ĩ à¤®à¤°
à¤µ à¤¹à¤¨
à¤ķ à¤¦à¤®
Ġà¤Ĳ à¤¤
à¥Ľ à¤°
Ġà¤¨ à¤¸
à¤ª à¤ļ
à¤ķ à¥ľ
Ġà¤¸à¤®à¤Ŀ à¤¤
Ġà¤¬à¤ļ à¤¤
Ġà¤ľ à¤ľ
Ġà¤¬à¤ļ à¤ªà¤¨
Ġà¤ħà¤ĸ à¤¬
à¤Ł à¤ķà¤°
Ġà¤ı à¤Ł
à¤Ń à¤µà¤¤
à¤ı à¤¶à¤¨
à¤¯ à¤¶
Ġà¤® à¤®à¤¤
Ġà¤¸à¤® à¤ķ
Ġà¤ī à¤§à¤°
Ġà¤®à¤¨ à¤®
Ġà¤ı à¤°
à¤²à¤ļ à¤¸
à¤°à¤¸ à¤¨
à¤ı à¤Ł
à¤°à¤¦ à¤¸
Ġà¤® à¤£
à¤¶ à¤®
Ġà¤Ĩ à¤®à¤¤
à¤ĩ à¤¬à¤°
Ġà¤² à¤¹à¤°
Ġà¤¬ à¤ķ
à¤µ à¤Ń
Ġà¤Ķà¤° à¤¤
à¤° à¤Ĺà¤¤
Ġà¥Ľ à¤°
Ġà¤ıà¤¸ à¤ª
à¤Ŀ à¤¸
à¤ķ à¤ħà¤ª
à¤ĸ à¤Ń
à¤¤ à¤ķà¤°
Ġà¤Ł à¤ķ
à¤ħ à¤°
Ġà¤ıà¤ļ à¤¡
Ġà¤Ķ à¤¸à¤¤
à¤° à¤ļà¤¨
à¤Ī à¤Ł
Ġà¤ļ à¤¤
Ġà¤¯ à¤®
Ġà¤®à¤¶ à¤¹
Ġà¤µà¤¨ à¤¡
Ġà¤Ĩà¤¦ à¤¤
Ġà¤§ à¤°à¤¤
à¥ «
à¤°à¤ķ à¤¤
Ġà¤Ńà¤° à¤ª
à¤¯à¤¸ à¤Ń
Ġà¤¬à¤¦ à¤®
Ġà¤¦ à¤¯
à¤£ à¤¸
Ġà¤² à¥ľ
Ġà¤ī à¤ķ
à¤ī à¤¡à¤°
Ġà¤¶ à¤ªà¤¥
à¤ıà¤® à¤ª
Ġà¤ĸà¤¤à¤° à¤¨
à¤¤ à¤ª
à¤ķ à¤¥
Ġà¤ıà¤¨ à¤¡
Ġà¤¨ à¤®à¤ķ
à¤µ à¤£
Ġà¤¨à¤µ à¤®
Ġà¤ķ à¤¤
Ġà¤¦ à¤«
Ġà¤¸ à¤°à¤¸
Ġà¤ľà¤¬ à¤°à¤¦à¤¸
Ġà¤Ĺ à¤¨
à¤® à¤¶
à¤ļ à¤ķà¤°
Ġà¤Ĩà¤ľ à¤ķà¤²
Ġà¤¬à¤¸ à¤ª
à¤° à¤°
Ġà¤¥ à¤ķ
à¤¯ à¤ľ
Ġà¤¦ à¤¤
Ġà¤¬ à¤Ł
à¤ĸ à¤¦
Ġà¥ ª
à¤ıà¤¸ à¤ıà¤¸
Ġà¤ķà¤¹ à¤²
à¤ ĳ
Ġà¤ıà¤¡ à¤®
Ġà¤ĳ à¤ķ
à¤ļ à¤µ
Ġà¤ª à¤¬
Ġà¤¬à¤¹ à¤¸
à¤° à¤¥
Ġà¤° à¤«
à¤µ à¤¦
à¤® à¤¹à¤¤
Ġà¤¡ à¤¬
Ġà¤ĳ à¤¡
Ġà¤ķà¤° à¤£
Ġà¤¬à¤¨ à¤µ
Ġà¤¸à¤« à¤°
Ġà¤® à¤Ľà¤²
Ġà¤¬à¥Ŀ à¤¤
à¤Ł à¤¸
à¤Łà¤° à¤µ
à¤Ī à¤¡
à¤ª à¤Łà¤¨
Ġà¤¸ à¤¦à¤¨
Ġà¤ªà¤ķ à¥ľ
à¥ ¨
Ġà¤Ķ à¤¦
Ġà¤ı à¤¨à¤¸
à¤Ī à¤¸
Ġà¤Ń à¤Ĺ
à¤Ľ à¤¨
Ġà¤ĸ à¤¨
Ġà¤ıà¤ķ à¤®
à¥ ©
Ġà¥ «
à¥ °
Ġà¤ļ à¤ª
Ġà¤° à¤ļ
à¤ĩà¤¨ à¤°
à¤ĩ à¤¬
à¤¯ à¤¹
Ġà¤ī à¤Ĺ
Ġà¤¨ à¤·
Ġà¥ ĺ
Ġà¤ĳ à¤ª
Ġà¤ª à¤ļ
à¤ıà¤¸ à¤¸
à¤¶ à¤¯
Ġà¤² à¤ĺ
à¤°à¤ķ à¤Ł
Ġà¤¬ à¤Łà¤¨
Ġà¤ªà¤¦ à¤ķ
Ġà¤ĩ à¤§à¤°
Ġà¤ĸ à¤Ł
Ġà¤¤ à¤¹à¤¸
à¤ĩ à¤µà¤°
Ġà¤®à¤¹ à¤ľ
à¤¯ à¤§
Ġà¤ľà¤¨ à¤ľ
à¤¡ à¤ķà¤°
à¤ªà¤° à¤µ
à¤ Ĳ
Ġà¤¯ à¤¥
à¤² à¤¡
Ġà¤ĳà¤« à¤°
à¤¯ à¤Łà¤¨
Ġà¤¸à¤¤ à¤¹
Ġà¤¦ à¤¶
¾ à¥ĩ
à¤ ¾à¥ĩ
Ġà¤¥ à¤°
à¤¿ à¤¼
à¤¶ à¤¬
à¤® à¤¹
Ġà¤¬à¤¦ à¤²à¤¤
Ġà¤°à¤¹ à¤¸
Ġà¤ħ à¤Łà¤²
Ġà¤² à¤ķà¤¡
Ġà¤Ľ à¤ł
Ġà¤¡ à¤¬à¤²
Ġà¤ħà¤« à¤Ĺ
Ġà¤Ł à¤¨
Ġà¤² à¤µ
Ġà¤ľà¤¨ à¤ªà¤¦
Ġà¤ıà¤« à¤ıà¤®à¤ª
à¤¯à¤° à¤®
à¤µà¤¸ à¤¨
Ġà¤¶ à¤¤à¤ķ
à¤Ĭ à¤¦
Ġà¤ĵ à¤¬
à¤¨ à¤Ĺ
Ġà¤® à¤°à¤¨
Ġà¤¬à¤¨ à¤ķà¤°
à¤² à¤ľ
à¥ľ à¤¤
Ġà¤ĺ à¤¨
à¤¯ à¤¯
à¥ ª
Ġà¤Ĩà¤ľ à¤®
à¤ł à¤¤
Ġà¤ľ à¤Ł
à¤µ à¤®
Ġà¤Ń à¤¡
à¥ ®
à¤Ĺ à¤ª
à¤¦ à¤ª
Ġà¤¬ à¤°à¤¤
Ġà¤Ĩ à¤Ĺà¤°
Ġà¤Ĺ à¤°à¤®
à¤Ĩ à¤¨
Ġà¤īà¤ª à¤¹
à¥ Ń
Ġà¤¨ à¤ķà¤²
à¤ Ķ
Ġà¤Ĺ à¤µà¤°
à¤ķ à¤²à¤¤
Ġà¤ıà¤¯à¤° à¤ª
Ġà¤Ĩ à¤ĩà¤ı
à¤¬ à¤ķ
Ġà¤ĵ à¤®
à¤£ à¤¤
à¤¦à¤¨ à¤¶
Ġà¤¨ à¥Ľà¤°
Ġà¤Ĩà¤ª à¤¤
Ġà¤ħà¤ª à¤®
Ġà¤¬ à¤¹à¤°
Ġà¤Ń à¤°à¤¤
à¤¯ à¤¤à¤¨
Ġà¤² à¤²
Ġà¤ıà¤ķ à¤¦à¤®
Ġà¤ªà¤° à¤¤
Ġà¤Ĩà¤Ī à¤Ł
à¤Ĺ à¤ł
à¤£ à¤ķ
Ġà¤§ à¤°à¤¨
Ġà¤ĺ à¤¡
Ġà¤® à¤¸à¤²
à¥ ¯
à¤Ī à¤¯
à¤ķà¤¤ à¤°
Ġà¤Ĩà¤Ī à¤¡
Ġà¤Ĩà¤Ī à¤ı
Ġà¤Ĺ à¤µ
à¥ ¬
Ġà¤§ à¤ķ
Ġà¤Ł à¤ķà¤°
Ġà¤ªà¤¤ à¤²
Ġà¤² à¤¤
Ġà¤ķà¤² à¤°
Ġà¥§à¥ ¯
Ġà¤ĵ à¤¡
Ġà¤® à¤®
Ġà¤īà¤ł à¤¤
à¤ļ à¤®
à¤Łà¤¨ à¤°
Ġà¤ĭ à¤¤
à¤ĸ à¤£
à¤ī à¤¥
Ġà¤Ĩ à¤¸à¤®
à¤°à¤ĸ à¤ª
à¤¸ à¤Ł
à¤¯à¤² à¤Ł
Ġà¤Ĩ à¤ĩ
à¤¯ à¤Łà¤ķ
Ġà¤ıà¤® à¤ı
Ġà¤ľà¤² à¤µ
Ġà¤°à¤ĸ à¤ķà¤°
Ġà¤ī à¥ľ
à¤· à¤§
à¤ľ à¤«
Ġà¤ķ à¥ľ
Ġà¤ıà¤¸ à¤¡
à¤Ī à¤ĵ
à¤² à¤«
à¤Ľ à¤¡
Ġà¤ļ à¤Ł
à¥¦ à¥¦
Ġà¤ıà¤ķ à¤²
à¤¼ à¥ī
Ġà¤ªà¤¹ à¤¨à¤¨
à¤Ī à¤²
Ġà¤Ń à¤¤
Ġà¤ķ à¤¦
à¤¯ à¤Ł
à¤ıà¤¸ à¤Ī
à¥ Ļ
à¤¶à¤ķ à¤¶
à¤¯ à¤¥
Ġà¤¨ à¤Ĺ
à¥ģ à¤ĥ
Ġà¤¬ à¤¦à¤¨
à¤£ à¤µ
Ġà¤ıà¤¡ à¤µ
à¤¨ à¤¹
Ġà¤ļ à¥Ŀ
Ġà¤ľ à¤¹à¤°
Ġà¤Ľ à¤ª
Ġà¤ª à¤µà¤¨
à¤¼ à¥Ī
Ġà¤ı à¤¬
Ġà¤ıà¤² à¤Īà¤¡
Ġà¤ªà¤° à¤µ
Ġà¤ĩ à¤µ
Ġà¤¶ à¤°à¤£
Ġà¤¨à¤ľ à¤¦
à¤¼ à¥Ĥ
Ġà¤¶ à¤°à¤¦
à¤® à¤ľ
Ġà¤ī à¤¬
Ġà¤¸à¤¹ à¤ľ
Ġà¤² à¤Łà¤ķ
à¤ıà¤¨ à¤¯
à¤¸ à¤Ĺà¥Ŀ
à¤® à¤®
Ġà¤¬à¤¨ à¤°
Ġà¤¬ à¤ĸ
Ġà¤¸à¤® à¤¨
à¤Ķ à¤°
à¤Ĺ à¥ľ
à¤Ĩ à¤°à¤ª
Ġà¤°à¤ķ à¤®
à¤¶ à¤ª
à¤Ł à¤ª
à¤Ł à¤ħà¤ª
Ġà¤Ĩ à¤«
Ġà¤Ľ à¤²
à¤Ń à¤¦
Ġà¤Ĺ à¤¢
à¤¸ à¤«
Ġà¤¨à¤ķ à¤¦
Ġà¤Ķ à¤·à¤§
à¤Ĩ à¤īà¤Ł
Ġà¤§ à¤µà¤¨
à¤® à¤§
Ġà¤ªà¤° à¤«
Ġà¤ıà¤¸ à¤Ł
à¤Ĩà¤Ī à¤Ł
Ġà¤¨ à¤¨
à¤§ à¤ķà¤°
Ġà¤¸ à¤°à¤¦
Ġà¤¹ à¤°à¤ķà¤¤
Ġà¤ĸ à¤ľ
Ġà¤°à¤£ à¤µ
Ġà¥¨à¥¦ à¥§
à¤§ à¤ª
Ġà¤ħà¤¸ à¤¹
Ġà¤Ĺ à¤¹à¤¨
Ġà¤Ł à¤®
à¤µ à¤¡
Ġà¤Ĺ à¤¦
à¤¶ à¤Ńà¤°
Ġà¤Ĩà¤ª à¤°
Ġà¤¨ à¤µà¤°
à¤Ĺ à¤ķ
à¤¡ à¤ª
à¤ıà¤® à¤¸
à¤Ī à¤¨
à¤£ à¤®
Ġà¤ı à¤¹à¤¸
à¤ī à¤¤
à¤Ĺ à¤¸
Ġà¤° à¤ĺ
à¤ ©
à¤ķ à¤ľ
à¤° à¤ķà¤°à¤£
à¤² à¤Ŀ
Ġà¤Ĩà¤ª à¤¦
Ġà¤¶ à¤®
Ġà¤īà¤² à¤Ŀ
à¤Ĺ à¤£
Ġà¤ª à¤¥
Ġà¤Ĩ à¤Ł
Ġà¤Ĺ à¤£à¤¨
à¥ľ à¤ķà¤°
Ġà¤ĩà¤¨ à¤¸
à¤Ĺ à¤¶
Ġà¤īà¤ª à¤ľ
à¤Ĺà¤° à¤£
Ġà¤ķ à¤¥à¤¨
à¤ªà¤° à¤¸
à¤° à¤ł
Ġà¤ĩ à¤ķà¤Ł
Ġà¤ĺ à¤Łà¤ķ
Ġà¤ĳ à¤¨
Ġà¤µ à¤ľ
Ġà¤µà¤° à¤¨
Ġà¤ħà¤ķ à¤¬à¤°
Ġà¤ħà¤² à¤°
Ġà¤ĩ à¤«
Ġà¤¹à¤® à¤¸
Ġà¤®à¤¹ à¤²
Ġà¤ĳ à¤²
Ġà¤Ń à¤Ĺà¤¤
Ġà¤ĳ à¥ŀ
Ġà¤Ľ à¤ķ
Ġà¤ªà¤° à¤¸
à¤ı à¤ª
Ġà¥ ¬
Ġà¤µ à¤ļà¤¨
Ġà¤Ĺ à¤®
à¤® à¤°à¤£
Ġà¤® à¤¯
Ġà¤ıà¤® à¤ª
Ġà¤ķ à¤£
Ġà¤¸ à¤Ĭà¤¦
à¤Ĺ à¤£à¤¨
Ġà¤ĺ à¤¬à¤°
à¤ĩ à¤ľà¤°
Ġà¤Ĳ à¤¶
à¤ķ à¤¶
Ġà¤ħ à¤®à¤²
à¤Ī à¤µ
Ġà¤¦à¤° à¤¬
à¤ıà¤¸ à¤¬
Ġà¤ħ à¤µà¤¤
à¤Ĺ à¤¦à¤°
à¤¬ à¤°à¤®
Ġà¤¨ à¤®à¤¸
à¤¦ à¤°à¤¤
à¤¡ à¤¤
Ġà¤ľ à¤¬à¤°
à¤Ł à¤ĩ
Ġà¤ĸ à¤²
à¤Ĩ à¤°à¤¸
Ġà¤Ĩà¤¨ à¤¨
Ġà¥ ļ
Ġà¤ĵ à¤ª
à¤¯ à¤°à¤¤
à¤Ĺ à¤®à¤¨
Ġà¤ļ à¤°à¤®
Ġà¤¶ à¤¹à¤¦
Ġà¤¤ à¤¹
Ġà¤¯ à¤ľ
à¤ ½
Ġà¤¶ à¤¶
Ġà¤ĩ à¤¬
Ġà¤® à¥Ľ
à¤¶ à¤¸
Ġà¤¸à¤® à¤²
Ġà¤® à¤ķà¤¸
Ġà¤¸à¤¹ à¤¨
Ġà¤Ĺ à¤ľ
Ġà¤ķ à¤·
Ġà¤ĩ à¤£
à¤Ł à¤¡
à¤¨ à¤ļ
Ġà¤¬ à¤µ
Ġà¤ł à¤Ĺ
Ġà¤¸ à¤¤à¤°
à¤Ĩà¤Ī à¤Ĩà¤°
à¤ ³
Ġà¤¸ à¤¶à¤ķ
Ġà¤¨à¤µ à¤ľ
à¤¶ à¤¦
à¤Łà¤° à¤¸
à¤ļ à¤¤à¤®
Ġà¤ķà¤¹ à¤ķà¤°
Ġà¤Ī à¤¦
à¤ıà¤« à¤¸
à¤ł à¤ķà¤°
Ġà¤¬à¤° à¤ķà¤°
Ġà¤¬à¤¹ à¤¤
à¤Ĺ à¤Ł
Ġà¤ī à¤Ńà¤°
Ġà¤¨ à¤²
à¤ī à¤ľ
Ġà¤« à¤¤
Ġà¤Ī à¤µ
Ġà¤®à¤ķà¤¸ à¤¦
Ġà¤ľ à¤²à¤¨
Ġà¤ķà¤ª à¥ľ
Ġà¤® à¤¥
à¤ĵ à¤Ĺ
Ġà¤ħ à¤µà¤°
Ġà¤Ĩà¤Ī à¤ıà¤¸
à¤ī à¤¦
à¤¹ à¤ª
Ġà¤ķ à¤ļà¤°
à¤¯à¤¨ à¤¶
Ġà¤Ĩà¤¯ à¤ķà¤°
Ġà¤ķà¤® à¤²à¤¨
à¤ĩ à¤Ĺà¤°
Ġà¤° à¤¶
Ġà¤ĸ à¤¨à¤¨
à¤¤ à¤Ĺ
Ġà¤Ĩà¤° à¤ıà¤¸à¤ıà¤¸
à¤¨ à¤ľà¤°
Ġà¤Ĳ à¤ķ
à¤¼ à¤¿à¤Ĥ
Ġà¥ ¦
Ġà¤ī à¤§
Ġà¤ħà¤ª à¤²
Ġà¤« à¤Ł
Ġà¤®à¤¹ à¤°
Ġà¤ªà¥Ŀ à¤¨
Ġà¤¨ à¤°à¤®
à¤« à¤¨
Ġà¤Ĩ à¤ĩà¤Ł
Ġà¤ª à¤ª
à¤ıà¤¸ à¤ı
Ġà¤Ĩ à¤°à¤¤
Ġà¤¨ à¤«
à¤ Ļ
Ġà¤ī à¤Ń
Ġà¤Ĺ à¤§
Ġà¤ħ à¤Ľ
¾ à¤ĥ
à¤°à¤® à¤¶
à¤ ¾à¤ĥ
Ġà¤ľ à¤¶
à¤¸ à¤ªà¤°
Ġà¤Ĩà¤ķ à¤²à¤¨
à¤ıà¤® à¤ıà¤¸
Ġà¤ļ à¤®à¤¤
à¤® à¤¬
Ġà¤ıà¤®à¤ı à¤ıà¤ļ
Ġà¤µ à¤¶
Ġà¤ıà¤ķ à¤ľ
Ġà¤¬ à¤ķà¤°
Ġà¤¸ à¤¦à¤°
Ġà¤°à¤¹ à¤ķà¤°
Ġà¤® à¤°à¤®
Ġà¤īà¤® à¤°
à¤Ĩ à¤µà¤ľ
à¥ĩ à¥ĩ
Ġà¤ħà¤ª à¤¹à¤°à¤£
à¤ķ à¤Łà¤°
Ġà¤¨à¤¹ à¤°
Ġà¤ħ à¤¹à¤¸
Ġà¤¸à¤® à¤Ĺ
à¤ķ à¤Ī
à¤¹ à¤µ
à¤² à¤ĸ
Ġà¤¸ à¤Ĺ
à¤Ĺ à¤Łà¤¨
Ġà¤µ à¤¯à¤¸
à¤¸ à¤µà¤°
Ġà¤® à¤ķà¤°
à¤¸ à¤Ń
Ġà¤Ŀ à¤Ĺà¤¡
Ġà¤°à¤£ à¤¬
Ġà¤¸à¤° à¤ª
à¤¶à¤¨ à¤°
Ġà¤ĩ à¤Łà¤²
Ġà¤Ĩà¤° à¤¬
Ġà¥ Ń
Ġà¤Ĺ à¤¹à¤²
à¤ĩ à¤°
à¤ĩ à¤®à¤°
Ġà¤¤ à¤²à¤µ
Ġà¤ļ à¤¶
Ġà¤Ĩà¤° à¤ª
Ġà¤° à¤ľà¤¨
Ġà¤ķà¤² à¤®
à¤ĺ à¤µ
à¤¸ à¤«à¤°
à¤¦ à¤Ń
Ġà¤ħà¤µ à¤Ĺà¤¤
Ġà¤Ŀ à¤²à¤ķ
Ġà¤ª à¤ł
Ġà¤¸à¤¹ à¤ķ
Ġà¤² à¤¦
Ġà¤¤ à¤ķà¤°
Ġà¤ªà¤² à¤Ł
Ġà¤Ń à¤ľà¤¨
Ġà¤µ à¤²
à¤ıà¤¨ à¤ıà¤¸
Ġà¤¥ à¤®
Ġà¤Ĩ à¤¸à¤¨
Ġà¤§ à¤¡
Ġà¤ħà¤« à¤µ
Ġà¤īà¤ª à¤Ĺ
à¤ħ à¤¨
Ġà¤° à¤¬
Ġà¤² à¤¹à¤¸
Ġà¤īà¤ª à¤¦
Ġà¤Ĩà¤ĩà¤Ł à¤®
à¤¨ à¤µà¤¤
Ġà¤Ń à¤Łà¤ķ
Ġà¤¤à¤ķ à¤²
à¤ĩ à¤¡à¤°
Ġà¥§ à¥¦
Ġà¤ıà¤« à¤Ĩà¤Īà¤Ĩà¤°
Ġà¤ħà¤¨ à¤ľ
Ġà¤Ĩ à¤°à¤®
à¤ľ à¤¶
Ġà¤¢ à¤ķ
à¤¿ à¤ĥ
à¤« à¤²à¤¤
Ġà¤¤à¤° à¤²
Ġà¤Ń à¤¦
Ġà¤ıà¤¸ à¤¸
Ġà¤¨ à¤°à¤¸
à¤Ĺ à¤ªà¤¤
à¤¯à¤° à¤¨
¾ à¥ĩà¤Ĥ
à¤ ¾à¥ĩà¤Ĥ
Ġà¤ĩà¤¸ à¤¨
à¤Łà¤° à¤ª
Ġà¤¹ à¤¸à¤¨
à¤ĵ à¤µ
à¤¨ à¤ľ
à¤Ĩ à¤®
Ġà¤ħà¤ľ à¤®
à¤ĵ à¤¬
à¤ĵ à¤¸
à¤° à¤ľà¤¨
Ġà¤ĳ à¤¯à¤²
Ġà¥ ®
à¤ĩ à¤ķà¤²
à¤¸à¤® à¤¸
Ġà¤ľà¤Ĺ à¤¦
Ġà¤Ĩ à¤ī
Ġà¤ĩà¤¨à¤ķ à¤®
Ġà¤¬ à¤¬
Ġà¤¬ à¤ľà¤°
Ġà¤° à¤¥
à¤¹ à¤Ĺ
Ġà¤Ĩ à¤ĵ
Ġà¤ī à¤Ľ
à¤¥ à¤Ĺ
à¤¶ à¤Ńà¤ķ
Ġà¤¯ à¤¶
à¤¶à¤¨ à¤ķ
à¤ĩ à¤¶
à¤° à¤¬à¤²
à¤¯ à¤Ĺ
à¤ľ à¤Ń
Ġà¤Ŀ à¤¡
Ġà¤² à¤¹
Ġà¤ľ à¤ĸ
Ġà¤¬ à¤ķà¤µ
à¤ĩ à¤¸à¤ķ
à¤Ĺ à¤µà¤¤
Ġà¤¨ à¤¬
Ġà¤¬à¥Ŀ à¤¨
à¤¤ à¤¸
Ġà¤ ¾
Ġà¤Ĩ à¤ĩà¤¯
à¤ķ à¤¬
à¤µ à¤¯à¤¨
Ġà¤ª à¤Łà¤°
à¤® à¤¬à¤¤
à¤¨ à¤¶
à¤¼ à¤Ĥ
à¤¸ à¤ıà¤ª
Ġà¤Ĩà¤Ĺ à¤®à¤¨
à¤¸ à¤ľ
Ġà¤Ķ à¤ªà¤ļ
à¤¦à¤° à¤Ĺ
Ġà¤ħà¤¸ à¤«à¤²
Ġà¤¬ à¤Ĺà¤²
Ġà¤ª à¤¥à¤°
Ġà¤ĵ à¤¸
Ġà¤īà¤² à¤Ł
à¤ļ à¤¸
à¤Ĩà¤Ī à¤ª
Ġà¤īà¤¦ à¤¯à¤ª
à¤Ĩ à¤ĩ
Ġà¤ħà¤¨ à¤¦
Ġà¤ĩ à¤ľà¤°
à¥Ľ à¤¨
à¥Ģ à¤ģ
Ġà¤° à¤®à¤¨
Ġà¤ĩ à¤Ł
à¤ĸ à¤µ
Ġà¤īà¤ł à¤¨
Ġà¤® à¤¦à¤¨
Ġà¤ıà¤® à¤¬
à¤® à¤Ł
Ġà¤ħà¤µ à¤ķ
Ġà¤ £
à¤ª à¤¬
à¤ª à¤¶
Ġà¤īà¤¤à¤° à¤¨
Ġà¤ıà¤¸ à¤¬
à¤¼ à¥Į
Ġà¥ ¯
à¤¸à¤¨ à¤²
Ġà¤¸ à¥ŀ
Ġà¤µ à¥ĺ
Ġà¤ĵ à¤µ
Ġà¤ķà¤¹ à¤°
Ġà¤īà¤¦ à¤¯
Ġà¤ĩà¤¸ à¤°
à¤ķ à¤ķà¤°
Ġà¤¤ à¤°à¤ķ
Ġà¤² à¤ļ
à¤¤ à¤¸à¤°
Ġà¤ıà¤® à¤ıà¤¸
à¤Ī à¤¦
à¤® à¤ķà¤¤
à¤· à¤¸
à¤¨ à¤¹à¤°
à¥ī à¤Ĥ
Ġà¤ľ à¥ľ
à¤¡ à¤·
à¤°à¤¨ à¤Ĺà¤°
Ġà¤®à¤¤ à¤Ń
à¤° à¤Ĺà¤°
Ġà¤ħà¤Ń à¤¯
Ġà¤ħ à¤·
Ġà¤Ĩà¤² à¤®
à¤¹ à¤«
à¤ĵ à¤²
Ġà¤¹ à¥Ľ
Ġà¤Ĩà¤ł à¤µ
Ġà¤¤ à¤¡
Ġà¤¤ à¤ª
à¤¤à¤° à¤ª
Ġà¤ı à¤¨à¤ķ
Ġà¤¹ à¤°à¤¦
à¤¥ à¤¤
Ġà¤Ĩ à¤¡à¤µ
Ġà¤Ĩà¤° à¤Ł
Ġà¤Ĺà¤£ à¤¤
Ġà¤Ĩ à¤¡
à¤Ĺà¤ł à¤¬
à¤° à¤ļà¤²
Ġà¤Ĩ à¤ĩà¤¸
Ġà¤ª à¤£
à¤¤à¤° à¤¦
Ġà¤¡ à¤°à¤¤
Ġà¤¹à¤² à¤ļà¤²
à¥ ļ
à¤ļ à¤°à¤£
à¤°à¤¹ à¤®
à¤¯ à¤«
Ġà¤īà¤ª à¤µ
Ġà¤ĸ à¤¦
à¤µ à¤Ĺ
à¤¢ à¤¨
à¤¥ à¤¶
Ġà¤¨à¤« à¤°à¤¤
à¤¯ à¤Ń
Ġà¤ıà¤« à¤ĵà¤¬
à¤°à¤¹ à¤µ
Ġà¤Ĩ à¥Ľ
Ġà¤¬à¤¹à¤° à¤¹
Ġà¤Ĩ à¤ĩà¤¡
Ġà¤ıà¤¯à¤° à¤²
Ġà¤īà¤ª à¤®
Ġà¤¤ à¤¹à¤°
à¤°à¤¤ à¤®
Ġà¤² à¤ª
Ġà¤Ĩ à¤¯à¤°à¤¨
Ġà¤¡ à¤ķ
Ġà¤Ĩà¤Ī à¤«
Ġà¤®à¤¦à¤¦ à¤Ĺ
Ġà¤¯ à¤¤
à¤¤ à¤¬
à¤ľ à¤°à¤¤
à¤§ à¤¡
Ġà¤¨ à¤®à¤¨
à¤§ à¤¶
Ġà¤¸à¤¨ à¤¸à¤¨
Ġà¤« à¤°à¤®
à¤ĸ à¤¬à¤°
Ġà¤¬à¤°à¤¤ à¤¨
à¤Łà¤° à¤¨à¤²
à¤ĸ à¤®
à¤Ń à¤¨
à¤ª à¥ľ
Ġà¤ıà¤« à¤¡
à¤¯ à¤ľà¤²
Ġà¤ıà¤¨ à¤ľ
Ġà¤¸à¤ļ à¤®
Ġà¤ķ à¤Łà¤°
Ġà¤ħ à¤¥
à¤ıà¤® à¤ıà¤ķ
Ġà¤ı à¤¥à¤²
Ġà¤ıà¤¸ à¤ıà¤¸à¤ª
à¤ľà¤° à¤¨
à¤ªà¤£ à¤¨
à¥ĩ à¤ģ
Ġà¤ħà¤¨ à¤¨
à¤ ±
à¤Ŀ à¤ķ
Ġà¤ħ à¤µà¤²
Ġà¤ľà¤¬ à¤²à¤ª
à¤Ĺà¤° à¤ª
à¥Ģ à¤ĥ
Ġà¤°à¤¹ à¤®
Ġà¤¬ à¤ĺ
Ġà¤Ī à¤¡
Ġà¤īà¤ª à¤ķ
à¤Łà¤° à¤Ł
à¤ĸ à¤ª
à¤Ĺ à¤¬
Ġà¤ı à¤²à¤°
Ġà¥Ľ à¤®
à¤ķ à¤¹
à¤¥ à¤¡
Ġà¤ªà¤° à¤¦
Ġà¤¸à¤®à¤Ŀ à¤¦
à¥ Ł
Ġà¥ Ĳ
Ġà¤ĩà¤¨ à¤ª
à¤² à¤ªà¤¤
à¤¶à¤¨ à¤¶
à¤® à¤Ń
à¤¯ à¤µà¤°
Ġà¤° à¤¤à¤¨
Ġà¤ľ à¤ª
à¤µ à¤°à¤ķ
Ġà¤ľà¤Ĺ à¤¨
à¤¶ à¤¹
à¤Ī à¤ľ
Ġà¤ħ à¤®à¤¨
Ġà¤ĸ à¤ªà¤¤
à¤¸à¤° à¤¸
Ġà¥Ļ à¤¬à¤°
Ġà¤Ĩà¤Īà¤ı à¤ıà¤¸
Ġà¤Ī à¤¯à¤°
à¤ļ à¤µà¤°
à¤ĩ à¤Łà¤°
Ġà¤Ĭ à¤¤à¤ķ
Ġà¤ľà¤¬à¤° à¤¨
Ġà¤µ à¤°à¤¦
Ġà¤Ĩà¤° à¤ľ
Ġà¤ıà¤ķ à¤¡
Ġà¤ħà¤¨ à¤²
Ġà¤²à¤¡ à¤ķ
Ġà¤ĵ à¤¹
Ġà¤µ à¤§
Ġà¤« à¤¡
Ġà¤ķ à¤¯
Ġà¤²à¤Ĺ à¤µ
à¤ķ à¤µà¤°
à¤¦ à¤ķà¤°
Ġà¤ļà¤² à¤ķà¤°
Ġà¤Ĩà¤ļ à¤°à¤£
Ġà¤ĵ à¤ķ
Ġà¤ħà¤¦ à¤°à¤ķ
Ġà¤¦ à¤®à¤¦
Ġà¤ıà¤¨ à¤ª
à¤Ľ à¤°
Ġà¤ĸ à¤£
à¤¸ à¤ıà¤¨à¤¯
Ġà¤ı à¤¨à¤°
Ġà¤ħ à¤£
Ġà¤ıà¤¯à¤° à¤Ł
à¤®à¤Ĺ à¤¢
Ġà¤Ĩà¤īà¤Ł à¤¡
à¤£ à¤ªà¤¤
à¤ī à¤¡
Ġà¤°à¤ľ à¤¤
à¥Ľ à¤²
à¤ĵ à¤®
à¤Ī à¤®
Ġà¤µ à¤¨à¤¸
à¤Ń à¤¯
à¤ħ à¤®
Ġà¤ķ à¤¤à¤°
à¤®à¤ķ à¤¥
Ġà¤§ à¤¨à¤°
à¤ıà¤¸ à¤ıà¤«
Ġà¤ħà¤¨ à¤®
Ġà¥§à¥ ¨
à¤Ī à¤ª
à¤ļ à¤¡
Ġà¤ļ à¤¹
à¤ķ à¤Ĩà¤īà¤Ł
à¤¸ à¤¨à¤ķ
Ġà¤Ĺà¤¡ à¤ķà¤°
à¤ī à¤²
Ġà¤ıà¤® à¤¸
à¤ıà¤® à¤ĵ
à¤« à¤°à¤ª
à¤Ĩà¤Ī à¤ı
Ġà¤Ĩ à¤®à¤¨
à¤ıà¤ļ à¤¡
à¤¬ à¥ľ
Ġà¤¹à¤® à¤ķ
Ġà¤¹ à¤²à¤ķ
Ġà¤Ł à¤ļ
à¤² à¤Ł
Ġà¤¦à¤¸ à¤µ
à¤¤ à¤¦
à¤°à¤¨ à¤ª
à¤ħ à¤ªà¤¨
à¤ĩà¤« à¤¸
Ġà¤® à¤Ł
à¤Ī à¤«
Ġà¤ļà¤® à¤¡
à¤ıà¤¨ à¤ľ
à¤Ĩ à¤§
à¤Łà¤° à¤«
Ġà¤² à¥ľà¤¨
à¤Ľ à¥ľ
Ġà¤ķà¤ª à¤²
Ġà¤ī à¤ĸ
Ġà¤ı à¤£
Ġà¤¸à¤¤ à¤¤
à¤ı à¤Łà¤°
Ġà¤¸ à¤ķà¤²
Ġà¤¨ à¤µà¤¨
Ġà¤ľà¤¨ à¤°
à¤°à¤¸ à¤µ
à¤¦à¤° à¤²
Ġà¤ľà¤¨ à¤Ĺà¤£à¤¨
à¤¯ à¤¬à¤°
à¤ªà¤° à¤¹
à¤¹ à¤¡
Ġà¤ľà¤¨ à¤ķ
Ġà¤¯ à¤µà¤¸
à¤° à¤¡
Ġà¤Ĩ à¤ķà¤¸
Ġà¤« à¤²à¤¸
Ġà¤Ĭ à¤¨
Ġà¤ľ à¤¦à¤¯
à¤¤ à¤¹
Ġà¤ħà¤ª à¤µ
Ġà¤ķà¤¨ à¤µà¤°
à¤§à¤¶ à¤¤à¤ķ
Ġà¤Ĩà¤¦ à¤°à¤£
Ġà¤¦à¤¹ à¤¶à¤¤
à¤µ à¤Ĺà¤¨
à¤°à¤ķ à¤²
à¤¸à¤° à¤£
à¤Łà¤° à¤®
Ġà¤¤ à¤µ
Ġà¤Ĩà¤Īà¤ı à¤ıà¤¨à¤ıà¤¸
à¤ķ à¤Ĺ
à¤Ń à¤ª
Ġà¥§à¥ «
Ġà¤ĵ à¤Ł
Ġà¥¨à¥¦ à¥¦
à¤¹ à¤£
à¤µ à¤¤à¤¨
Ġà¤®à¤¹ à¤¬
Ġà¤µ à¤Ĺ
Ġà¤ħà¤¨ à¤¶à¤¨
Ġà¤ħà¤« à¤°
Ġà¤¸ à¤Īà¤¦
Ġà¤ļ à¤¬
Ġà¤ĳ à¤¬
à¤ĳ à¤ķ
Ġà¤Ĺ à¤ľà¤¬
Ġà¤¸à¤¹ à¤µ
Ġà¤¤ à¤ªà¤¸
Ġà¤ªà¤¢ à¤¨
Ġà¤°à¤ĸ à¤°à¤ĸ
à¤° à¤¯à¤¤
Ġà¤ªà¤¹à¤² à¤µ
à¤¶ à¤ľ
Ġà¤ī à¤·
Ġà¤ĺ à¤°à¤µ
Ġà¤® à¤Ĺ
à¤¹à¤° à¤²
Ġà¤« à¤Łà¤ķ
Ġà¤· à¤¡
Ġà¤ħ à¤Łà¤ķ
à¤¤à¤¨ à¤ª
Ġà¤¹à¤® à¤°
à¤ĵ à¤ıà¤¸
à¤ı à¤ı
Ġà¤Ĩà¤Ī à¤Ĩà¤Īà¤Ł
à¤¨ à¤Ńà¤°
Ġà¤ĺ à¤®
à¤µà¤² à¤ªà¤®
Ġà¤¬ à¤¸à¤¨
Ġà¤¨à¤µ à¤Ń
Ġà¤ľà¤¨à¤¸ à¤Ń
Ġà¤ľà¤² à¤¸
Ġà¤ıà¤® à¤¡
à¤¯ à¤ľà¤¨à¤ķ
à¤Ī à¤Ī
à¥ĩ à¤¼
Ġà¤ħà¤¸à¤® à¤°
Ġà¥Ļ à¤°
Ġà¤¬à¤¦à¤² à¤ķà¤°
à¤¦ à¤¹
à¤¸ à¤¹
à¤ĺ à¤²
à¤Ĩ à¤ľ
à¤¥ à¤ª
Ġà¤ĩ à¤°à¤«
à¤· à¤ª
Ġà¤ľà¤¨ à¤¸à¤¤
à¤°à¤ĸ à¤£
Ġà¤¸ à¤¶à¤¸
Ġà¤¨ à¤¡
Ġà¤® à¤¦à¤°
à¤« à¤°à¤¨à¤Ĺà¤°
à¤ı à¤¶
Ġà¤®à¤¦ à¤°à¤¸
Ġà¤Ĺ à¥Ŀ
à¤ıà¤¨ à¤ı
Ġà¤ªà¥ľ à¤¨
Ġà¤¦ à¤®à¤¨
à¤°à¤¦ à¤¯
à¤ľ à¤ķà¤°
à¤Ĺà¤² à¤ª
Ġà¥§à¥ §
Ġà¤ħà¤¬ à¤¤à¤ķ
Ġà¤ı à¤Ĩà¤Ī
Ġà¤¹ à¤Łà¤¨
à¤ī à¤°
Ġà¤®à¤¤ à¤Ĺà¤£à¤¨
à¤² à¤¶
à¤ı à¤¬
Ġà¤Ĩà¤® à¤¦à¤¨
Ġà¤¦à¤¶ à¤¹à¤°
à¤§ à¤²
Ġà¤ļà¤®à¤ķ à¤¦
Ġà¤ľ à¤²à¤¤
Ġà¤ķ à¤«
à¤« à¤¡
Ġà¤ĺ à¤£
Ġà¤¸à¤¹ à¤¸
Ġà¤ľà¤¨ à¤ª
à¤µà¤¨ à¤¸
Ġà¤ħà¤² à¤®
Ġà¤² à¤ĸ
à¤°à¤ľà¤¨ à¤¨
Ġà¥§à¥ ®
Ġà¤¹ à¤¬
à¤¶ à¤ĸà¤¬à¤°
à¤° à¤¬à¤¨
Ġà¤ĩà¤¸ à¤ªà¤°
Ġà¤ħà¤² à¤µ
Ġà¤° à¤Ĺ
Ġà¤ªà¤¹ à¤¨à¤¤
à¤ĩ à¤«à¤²
à¤ĸ à¤²à¤¨
Ġà¤ı à¤µà¤°
Ġà¤Ĩà¤Ī à¤ľ
Ġà¤° à¤¬à¤°
Ġà¤Ĳ à¤¨
à¤°à¤µ à¤£
Ġà¤īà¤ł à¤ķà¤°
à¤· à¤ķà¤°
à¤ª à¤µ
Ġà¤Ī à¤ķ
Ġà¤ľà¤¨ à¤¹
Ġà¤® à¤ª
à¤ľà¤® à¤¹à¤²
Ġà¤ł à¤ª
Ġà¤ª à¤¤à¤¨
Ġà¤ľ à¤¦
à¤ıà¤¸ à¤¡
à¤Ĩ à¤ªà¤ķ
à¤ıà¤¸ à¤Ĩà¤Ī
à¤¹ à¤ľà¤¹
Ġà¤® à¤ł
Ġà¤² à¤¯
Ġà¤ĺ à¤¨à¤¤
à¤ł à¤²
Ġà¤ħà¤¨ à¤¸
à¤ŀ à¤¤
à¤£ à¤ª
Ġà¤ªà¤° à¤¹
Ġà¤® à¤µ
Ġà¤Ĺà¤£ à¤ªà¤¤
Ġà¤ľà¤¨ à¤®
Ġà¤Ł à¤²
à¤¤ à¤°à¤ķ
à¤¸à¤² à¤°
Ġà¤ī à¤¬à¤°
Ġà¤ĩà¤®à¤° à¤ľ
à¤ĩ à¤ļ
Ġà¤§ à¤¬
Ġà¤¦ à¤ĸà¤²
à¤¥ à¤¯
Ġà¤ª à¤Łà¤ķ
à¤¸ à¤Ĺ
Ġà¤ª à¤²à¤ķ
Ġà¤¦ à¤°à¤ķ
à¤ıà¤ļ à¤ĵ
Ġà¤ıà¤® à¤ıà¤²
à¤Ŀ à¤ķà¤°
Ġà¤ı à¤¹
à¤ķ à¤£
Ġà¤®à¤¨ à¤°
Ġà¤ıà¤® à¤ľ
Ġà¤¥ à¤ª
Ġà¤Ĩà¤¯ à¤¤
à¤ĸ à¤Ł
Ġà¤®à¤¹ à¤®
Ġà¤¸ à¤¹à¤°
Ġà¤¤à¤¬ à¤ķ
à¤Ĳ à¤ª
à¤« à¤¤
Ġà¤¬ à¤²à¤°
à¤§ à¤°à¤£
Ġà¤® à¤°à¤¤
Ġà¤ķ à¤ľ
Ġà¥Ļ à¤¤
Ġà¤¸ à¤µà¤°
Ġà¤ıà¤¨ à¤Ĩà¤°à¤¸
à¤ĸ à¤¬
Ġà¤ķà¤² à¤ķà¤¤
Ġà¤¬à¤ľ à¤ķà¤°
à¤¯à¤¸ à¤µ
à¤ıà¤® à¤Ĩà¤Ī
Ġà¤ķà¤® à¤¬
Ġà¤¦ à¤£
Ġà¤ĺà¤Ł à¤¤
Ġà¤ĺà¤Ł à¤ķà¤°
Ġà¤Ńà¤° à¤ķà¤°
Ġà¤Ńà¤Ĺ à¤µà¤¤
Ġà¤ĵ à¤²à¤®
à¤Ĩà¤° à¤¡
Ġà¤īà¤¨ à¤ªà¤°
Ġà¤¤ à¤²à¤¬
Ġà¤Ĩà¤Ī à¤¬
Ġà¤ĸ à¤Ĺ
à¤¦à¤¶ à¤¹à¤°
Ġà¤Ľ à¤¨
Ġà¤ļà¤® à¤ķà¤¤
Ġà¤¸à¤®à¤ķ à¤ķ
à¤² à¤²
à¤µ à¤ķà¤°
à¤¨ à¤«
à¤ķ à¤«
Ġà¤Ķ à¤¸
à¤ŀ à¤ª
Ġà¤ħà¤® à¤°à¤¨
Ġà¤µ à¤¤
à¤ħ à¤§
à¤®à¤¨ à¤Ĺà¤°
Ġà¤Ĩ à¤°à¤¸
à¤ĩ à¤Ĺ
Ġà¤ķ à¤¦à¤°
à¤¸ à¤Ĳà¤ª
à¤¯à¤® à¤¯
à¤· à¤Ń
Ġà¤µ à¤«
Ġà¤¶ à¤¸
Ġ à¥ĩ
Ġà¤¸à¤®à¤Ŀ à¤ķà¤°
à¤µà¤² à¤ªà¤°
Ġà¤« à¤ķ
Ġà¤ıà¤¸ à¤ıà¤®à¤ıà¤¸
à¤¬ à¤®
Ġà¤ħà¤ľ à¤¹à¤°
à¤ıà¤¨ à¤¬
Ġà¤ľà¤¨ à¤¨
Ġà¤ħà¤« à¤¸
à¤¡ à¤«
à¤¨ à¤¡
à¤ĸ à¤¡
à¤· à¤°à¤¤
Ġà¤ªà¥Ŀ à¤¤
Ġà¤¨ à¤ª
à¤Ĩ à¤ª
Ġà¤ªà¤¹ à¤¨à¤ķà¤°
à¤Ĩà¤° à¤ıà¤¸
Ġà¤® à¤²à¤¬
à¤ı à¤µ
à¤°à¤£ à¤¬
à¤¡ à¤Ĺ
Ġà¤īà¤Ń à¤°à¤¤
à¤ĩ à¤ªà¤°
Ġà¤¨ à¤°à¤ķ
à¤¤à¤¨ à¤®
à¤¬ à¤Ĺ
Ġà¤² à¤¶
à¤ķ à¤ķ
à¤Ń à¤²
à¤¤à¤° à¤«
Ġà¤ªà¤° à¤ĸ
Ġà¤ĵ à¤®à¤ª
Ġà¤Ī à¤Ł
Ġà¤ªà¤° à¤µà¤°
Ġà¤ªà¤Ł à¤µ
à¤ķà¤² à¤ķà¤°
Ġà¤Ĺà¤£ à¤°
Ġà¤Ĺ à¤ª
à¤¨ à¤¸à¤¨
à¤ıà¤¨ à¤ıà¤¨
à¤ħ à¤¬
Ġà¤ıà¤¨ à¤ıà¤ļ
à¤¸ à¤¡
à¤· à¤Ĺ
à¤¨ à¤ļà¤°
Ġà¤ĵ à¤¨
Ġà¤¢ à¤²
à¤¯à¤® à¤¨
à¤Ĩà¤Ī à¤¡
Ġà¤īà¤¤ à¤°à¤¤
à¤® à¤¡
à¤Ĩà¤Ī à¤ıà¤¸
à¤Ĩ à¤²
Ġà¤¤ à¤ĸ
à¤¬ à¤ľ
Ġà¤ļ à¤¹à¤²
à¤Ī à¤¬
à¤« à¤¬
Ġà¤¦ à¤¹à¤²
Ġà¤°à¤¹ à¤²
Ġà¤ıà¤ķ à¤¦
Ġà¤īà¤® à¤¡
à¤ĺ à¤ķ
Ġà¤Ķà¤¸ à¤¤à¤¨
Ġà¤ķà¤² à¤¶
à¤ł à¤®
à¤¤ à¥Ľ
à¤§ à¤®
Ġà¤Ķ à¤±
Ġà¤Ĩ à¤¹à¤¤
Ġà¤¬à¤² à¤µ
Ġà¤ĺ à¥ľ
Ġà¤ī à¤ķà¤¸
Ġà¤¸à¤¹ à¤Ń
Ġà¤¯ à¤°
à¤¯ à¤ļ
Ġà¤®à¤¸ à¤²à¤¨
à¤ıà¤¨ à¤ıà¤²
à¤¹à¤¤ à¤ķ
à¤Ń à¤°à¤¤
Ġà¤Ĩà¤² à¤¸
Ġà¤°à¤® à¤ľ
à¤° à¤Ł
à¤® à¤µà¤°
Ġà¤°à¤£ à¤ľ
Ġà¤ıà¤¨ à¤¬
Ġà¤Ĺ à¥ľ
à¤ī à¤£
à¤¤ à¤°à¤¤
Ġà¤¸à¤® à¤¤
à¤ı à¤¨à¤¸
Ġà¤ķ à¤Ľ
à¤ıà¤¸ à¤¯
Ġà¤¨à¤ľà¤° à¤ħ
Ġà¤Ĺ à¤Ĺà¤¨
Ġà¤«à¤¡ à¤£à¤µ
Ġà¤¸à¤¹ à¤²
Ġà¤Ĩà¤ľ à¤¤à¤ķ
Ġà¤Ī à¤ª
Ġà¤īà¤¸ à¤ªà¤°
Ġà¤Ĳ à¤¡
Ġà¤ıà¤¸ à¤¯
à¤ª à¤¹
Ġà¤ĭà¤· à¤Ń
Ġà¤Ń à¤¸
à¤ª à¤ķà¤¤
Ġà¤ħà¤Ł à¤ķà¤²
Ġà¤ħà¤² à¤µà¤°
à¤ıà¤¸ à¤ıà¤®
Ġà¤¹ à¥ľà¤¤
Ġà¤Ĩà¤Ī à¤ıà¤®
Ġà¤¦à¤« à¤¨
Ġà¤ĵ à¤Ŀ
Ġà¤ıà¤® à¤ıà¤®
à¤ĩ à¤¡à¤²
à¤¡ à¤©
Ġà¤ħà¤¸ à¤«à¤²à¤¤
Ġà¤Ł à¤Ł
Ġà¤ª à¤Ľ
Ġà¤« à¤¨
Ġà¤« à¤¹à¤°
Ġà¤¬à¤¢ à¤¤
Ġà¤¦ à¤¹à¤¨
à¤¸ à¤¶
Ġà¤² à¤Ł
à¤ķà¤¤ à¤µà¤°
Ġà¤ħà¤Ĺ à¤µ
Ġà¤łà¤¹à¤° à¤¨
à¤Ĩà¤° à¤Ĩà¤Ī
à¤ľà¤¨ à¤¯
Ġà¤¦à¤° à¤Ń
à¤ķà¤° à¤¶
à¤ĩà¤Ł à¤²
à¤¸ à¤°à¤¤
Ġà¥§à¥ ª
à¤°à¤« à¤²
à¤® à¤¸à¤®
à¤Ĥ à¥ĩ
Ġà¤¦à¤° à¤Ĺ
Ġà¤¸à¤¬ à¤®
à¤· à¤¨
Ġà¤µ à¤¤à¤¨
Ġà¤ľà¤® à¤¶
Ġà¤Ľ à¤¡
à¤ķ à¤¯
Ġà¤¯ à¤¸
Ġà¤¹ à¤°à¤®
Ġà¤ĩ à¤¤à¤°
à¤µà¤¨ à¤¶
à¤ľà¤¨ à¤¬
à¤Ĩà¤° à¤Ł
à¤ĺ à¤®
Ġà¤² à¤¨
Ġà¤ľ à¤¸à¤ª
¾ à¤
à¤ħ à¤Ń
Ġà¤ĸà¤° à¤Ĺ
Ġà¥§à¥ ¬
Ġà¤ħà¤¸ à¤¦
Ġà¤ª à¤®
Ġà¤¬à¥Ŀ à¤ķà¤°
Ġà¤ķ à¤¸à¤®
à¤Ł à¤®à¤°
à¤ ¾à¤
Ġà¤ķà¤¸ à¤°à¤¤
Ġà¤ľ à¤¯à¤°
à¤ĩ à¤¬à¤²
Ġà¤ıà¤¨ à¤Ł
Ġà¤ķà¤®à¤¬ à¤ĸ
Ġà¤ħ à¤ĺ
Ġà¤īà¤²à¤Ŀ à¤¨
Ġà¤Ń à¥ľà¤ķ
à¤® à¤ĺ
Ġà¤ķà¤¤ à¤Ī
à¤µ à¥ľ
Ġ à¥Ģ
Ġà¤ķ à¤Ĺ
Ġà¤ıà¤² à¤ľ
à¥ĩ à¥į
à¤Ĩ à¤°à¤¬
à¤Ł à¤²à¤°
à¤· à¤µà¤°
à¤¾à¤ ¾
Ġà¤ªà¤¨ à¤¡
à¥ Ĭ
Ġà¤ķà¤° à¤¦
Ġà¤¨ à¤Ł
à¤°à¤µ à¤ļà¤¨
à¤Ĺ à¤«à¤²
à¤ī à¤¨à¤ķ
Ġà¤ĸ à¤¯
à¤µà¤¸ à¤®
à¤¨ à¤ľà¤¨à¤ķ
Ġà¤¬à¤¦ à¤¤à¤°
à¤° à¤¹à¤°
à¤ĳ à¤«
Ġà¤ķà¤¬ à¤¡
Ġà¤Ĩà¤īà¤Ł à¤ª
Ġà¤ıà¤µ à¤®
Ġà¤ªà¤¹ à¤°
à¤Ĺ à¤¤à¤¨
Ġà¤ıà¤® à¤Ł
à¤ļ à¤²à¤¨
à¥ĩ à¥ĩà¤Ĥ
Ġà¤² à¤¬
à¤ĵ à¤µà¤°
Ġà¤ļ à¤ļ
Ġà¤ħà¤² à¤ķ
Ġà¤ı à¤ıà¤¨
à¤µà¤ķ à¤ª
à¤Ī à¤ıà¤¸
Ġà¤ªà¤² à¤Łà¤µ
Ġà¤² à¤¸
Ġà¤¨à¤Ĺà¤° à¤ª
Ġà¤ħà¤ķ à¤¸à¤°
Ġà¤ĩ à¤ķà¤²
Ġà¤² à¤°
Ġà¤Ĺ à¤¶
à¤°à¤¸ à¤¤
Ġà¤ķà¤® à¤¶
Ġà¥§à¥ ©
à¤ł à¤°
Ġà¤ĩà¤ķ à¤¬
Ġà¤¯ à¤¶à¤µ
à¤¤à¤° à¤ľ
Ġà¤¹ à¤µà¤¨
à¤ľ à¤µà¤²
à¤Ī à¤ļ
Ġà¤® à¤ĸ
Ġà¤ħà¤ª à¤Ĺ
à¤¶ à¤²à¤¤
à¤ĺ à¤Ł
Ġà¤Ĩ à¤¯à¤°à¤²
à¤ĩ à¤¤
à¤¡ à¤Ī
Ġà¤¸à¤¦ à¤®
Ġà¤ķà¤µ à¤ļ
Ġà¤¬à¤¦ à¤¬
Ġà¤ļ à¤¡
à¤Ĺà¤¨ à¤¬
Ġà¤ªà¤¦ à¤¸
Ġà¤ĸ à¤®
à¤¨à¤¦ à¤¯
à¤Ŀ à¤®
à¤² à¤¬à¤°
Ġà¤ķà¤° à¤®
Ġà¤¸à¤¹ à¤ķà¤°
Ġà¤ħà¤Ń à¤¦
Ġà¤ıà¤ķ à¤¸
Ġà¤ĩ à¤Ĺ
Ġà¤Ŀ à¤°à¤¨
à¤Ĺ à¤¯
à¤Ŀ à¤¨
à¤ľà¤° à¤²
à¤Ń à¤ľà¤¨
Ġà¤ĵ à¤¶
Ġà¤Ń à¤£
Ġà¤ıà¤¸ à¤Ĩà¤Īà¤Ł
à¤¯à¤² à¤²
à¤Ł à¤ľ
à¤Ĩà¤Ī à¤ıà¤²
Ġà¤¬ à¤¦à¤°
Ġà¤® à¤Ľ
Ġà¤ķ à¤Łà¤¨
Ġà¤¸à¤¬ à¤¨
Ġà¤Ĩà¤® à¤ľà¤¨
Ġà¤ķ à¤¢
Ġà¤¹à¤ľ à¤°à¤¤
à¤ī à¤ļ
à¤¸ à¤°à¤ķ
Ġà¤ķ à¤¸à¤°
à¤ħ à¤¤
Ġà¤Ĩà¤¶ à¤¯
à¤°à¤¶ à¤¸
Ġà¤¶ à¤¹à¤¨
à¤¯ à¤¸à¤°
à¤ª à¤°à¤ķ
Ġà¤Ĩà¤Ī à¤¨
à¤¤à¤° à¤®
à¤Ł à¤Ł
Ġà¤ıà¤ļ à¤ª
Ġà¤ī à¤«
à¤ª à¤°à¤®
Ġà¤®à¤¶ à¤°
Ġà¤¶ à¤²
Ġà¤¦ à¤¨
à¤ª à¤ķà¤°
à¤¬ à¤¬
Ġà¤ª à¤Łà¤²
à¤Ĺà¤² à¤ķ
Ġà¤ħà¤¸à¤¹ à¤®à¤¤
à¤¶ à¤Ĺ
à¤ıà¤® à¤ıà¤²
Ġà¤µ à¤¯
Ġà¤µ à¤ļ
à¤¯ à¤ķà¤°à¤£
Ġà¤µ à¤¡
Ġà¥ļ à¥Ľà¤²
Ġà¤¦à¤¬ à¤¦à¤¬
à¤°à¤ļ à¤²à¤¨
Ġà¤®à¤¹ à¤ķ
Ġà¤¨ à¤Ĺà¤¦
Ġà¤ĩ à¤·
Ġà¥¨ à¥«
à¤ĵ à¤ª
à¤ľà¤¨ à¤²
à¤ķ à¤¦
à¤ıà¤ļ à¤¸
à¤ıà¤« à¤ıà¤²
à¤ľ à¤ķà¤¤
Ġà¤ľ à¤¯à¤²à¤²
Ġà¤° à¤Ĺà¤¡
Ġà¤® à¤²à¤¯
Ġà¤® à¤Łà¤°
Ġà¤¬à¤¦ à¤¹
Ġà¤ıà¤¨ à¤Ĩà¤Īà¤ı
Ġà¥© à¥¦
Ġà¤ı à¤¯
à¤® à¤ļà¤°
à¤ı à¤ľ
à¤¹ à¤°à¤¤
à¤¦ à¤ķà¤¤
à¤ª à¤ķà¤¨
Ġà¤¬à¤¤ à¤²
Ġà¥§à¥ Ń
à¤ķ à¤ļ
Ġà¤¬à¤¹ à¤²
à¤ľ à¤®à¤°
Ġà¤¨à¤µ à¤Ĺ
Ġà¤ªà¤° à¤¶
Ġà¤ıà¤¸ à¤ıà¤¸
Ġà¤ª à¤¸à¤°
Ġà¤¬ à¤¬à¤²
Ġà¤¹à¤° à¤Ńà¤ľà¤¨
Ġà¤ķà¤² à¤ķ
Ġà¤ıà¤¸ à¤ıà¤¸à¤¸
Ġà¤§à¤¨ à¤¬
Ġà¤¸ à¤¯
à¤ı à¤Ī
à¤Ĩà¤° à¤ıà¤«
Ġà¤Ńà¤¯ à¤Ń
Ġà¤² à¤ľ
à¤° à¤¸à¤°
Ġà¤ª à¤¸à¤¨
à¤¸ à¤ıà¤ķ
Ġà¤¶ à¤®à¤¶
à¤ľ à¤¤à¤¨
Ġà¤¡ à¤¸
Ġà¤ħà¤ļ à¤²
Ġà¤ħà¤µ à¤®
Ġà¤ħà¤ĸ à¤°
Ġà¤¹à¤ķ à¤¦
à¥ Ĩ
Ġà¤ļ à¤Łà¤ķ
Ġà¤« à¤°à¤¹
à¤ľ à¤ªà¤¤
Ġà¤ı à¤¹à¤¤
Ġà¤²à¤ķ à¥ľ
Ġà¤Ĩà¤ľ à¤®à¤Ĺà¤¢
à¤Ĩ à¤¯
Ġà¥ŀ à¤°
Ġà¤ĸà¤° à¤¬
à¤¬ à¤Ł
à¤µ à¤¬
Ġà¤ī à¤Ľà¤²
Ġà¤¥ à¤²
Ġà¤Ŀ à¤Ĺà¥ľ
Ġà¤ĩà¤¨ à¤¬
Ġà¤ľ à¤ķ
Ġà¤ħà¤ľ à¤¬
à¤Ĳ à¤¸
à¤¦ à¤¡
à¤ī à¤®
Ġà¤ıà¤² à¤¸
à¤¬ à¤§
Ġà¤¸à¤¡ à¤ķ
à¤¹à¤° à¤¬
à¤ı à¤ıà¤¸
Ġà¤ħ à¥ŀ
Ġà¤® à¤°à¤£
Ġà¤µ à¤ª
à¤µà¤° à¤ķà¤°
Ġà¤° à¤¬à¤¡
à¤Ŀ à¤¤
Ġà¤² à¤£
à¥ħ à¤Ĥ
Ġà¤ħà¤§ à¤°
Ġà¤Ĩà¤ī à¤Łà¤²
à¤Ĩà¤Ī à¤ľ
à¤°à¤® à¤°
à¤¡ à¤¶
Ġà¤¯ à¤¨
à¤¶ à¤ķà¤°
Ġà¤Ĩ à¤ĺ
Ġà¤ıà¤ķ à¤°
Ġà¤¸ à¤¤à¤¨
à¤ķà¤Ł à¤¤à¤®
Ġà¤ıà¤« à¤¸
Ġà¤¸ à¤ľà¤Ĺ
à¤¡ à¤Ł
Ġà¤¸ à¤¨à¤°
à¤°à¤¦ à¤¤
à¤ıà¤® à¤ķ
à¤¤ à¤¯
à¤ı à¤Ĩà¤Ī
Ġà¤ħ à¤°à¤®
Ġà¤¹ à¤°à¤¸
à¤® à¤ļà¤¨
Ġà¤ĵ à¤ľ
Ġà¤Ĩ à¤µà¤°à¤£
Ġà¤ī à¤¬à¤²
¾ à¤¼
à¤ ¾à¤¼
Ġà¤® à¤¶à¤ķ
Ġà¤¡ à¤°à¤¨
à¤¿ à¤
Ġà¤Ĺ à¤ľà¤²
à¥ĭ à¤ģ
Ġà¤Ľ à¤Ł
Ġà¤ĵ à¤ķà¤°
Ġà¤ıà¤² à¤ª
à¤¿à¤ ¾
à¤¡ à¤ľ
Ġà¤ĳ à¤¨à¤°
Ġà¤ª à¤Ľà¤¤
à¤¹ à¤¹
à¤ıà¤® à¤¯
Ġà¤ħà¤¨ à¤Ĺ
Ġà¤¬ à¤Ĺà¤¦
à¤§ à¤¸
à¤¨ à¤ĸ
Ġà¤ļ à¤¹à¤°
à¤ıà¤¸ à¤ıà¤¨à¤ıà¤²
Ġà¤ħ à¤ł
à¤Ĩà¤Ī à¤µ
à¤¸ à¤¬à¤°
à¤ į
à¥Ī à¤ĥ
Ġà¤ľà¤¯ à¤¶
Ġà¤ļ à¤Łà¤¨
Ġà¤§ à¥ľ
Ġà¤Ń à¤°à¤®
Ġà¤§ à¤¨à¤¤
Ġà¤¹ à¤²à¤µ
Ġà¤®à¤¹ à¤«
Ġà¤ª à¤łà¤¨
Ġà¤¤à¤° à¤¸
à¤ıà¤® à¤Ī
à¤°à¤£ à¤µ
Ġà¤ĩà¤¨ à¤µ
à¤¨ à¤¸à¤°
Ġà¤ħ à¤µà¤¨
¾ à¥Ī
à¤ ¾à¥Ī
Ġà¤ļ à¤¯
Ġà¤ĳ à¤²à¤°
Ġà¤« à¤¸
Ġà¤ĸ à¤¸
Ġà¤Ĭ à¤·
à¤ĩ à¥Ľ
à¤ĵ à¤ķ
Ġà¤¢ à¤¹
à¤® à¤«
Ġà¤¸à¤ķ à¤¨
Ġà¤ľ à¤¸à¤µ
Ġà¤¸à¤¬ à¤°
Ġà¤ªà¤² à¤Łà¤¨
Ġà¤Ĺà¥ľ à¤¬à¥ľ
Ġà¤ħà¤ª à¤¶
à¤ĩ à¤¸à¤¸
Ġà¥ŀ à¤°à¤µà¤°
Ġà¤ª à¤Ĺ
à¤²à¤° à¤¶
à¤¤ à¤¶
Ġà¤¤à¤° à¥ŀ
à¥Ī à¤ģ
Ġà¤ħà¤¨ à¤ª
Ġà¤ı à¤¸à¤ķ
à¥ľ à¤µ
Ġà¤®à¤¨ à¤¸
Ġà¤¦ à¤¶à¤®
à¤ıà¤« à¤Ł
Ġà¤ª à¤§
Ġà¤ĳà¤« à¤²
Ġà¤¹à¤² à¤«à¤¨
à¤ľà¤Ń à¤µà¤¨
à¤ł à¤¶
Ġà¤ľ à¤¯à¤¨
Ġà¤ıà¤² à¤ı
Ġà¤¸à¤° à¤²à¤¤
Ġà¤®à¤ľ à¤¹à¤¬
Ġà¤ł à¤£
Ġà¤ĺ à¤¸
à¤µ à¤ľà¤¹
Ġà¤ħà¤¸ à¤¤
Ġà¤¤à¤° à¤¬
Ġà¤ħ à¤ľà¤¨à¤¬
à¥ĩ à¤
à¥ĩà¤ ¾
Ġà¤¶ à¤¤à¤°
à¥ľ à¤ª
Ġà¤ıà¤¯à¤° à¤µ
Ġà¤ļ à¤Łà¤°
à¤¢ à¤¤
Ġà¤Ĩà¤¬ à¤ķ
Ġà¤Ŀ à¤Ł
Ġà¤® à¤Ĭ
Ġà¤¹ à¥ĺ
à¤¼ à¥Ģà¤Ĥ
Ġà¤ľ à¤¯à¤ķ
Ġà¤ħ à¤°à¤¸
Ġà¤®à¤¨ à¤µ
Ġà¤ı à¤¥
Ġà¤Ĩà¤¯ à¤¨
Ġà¤Ĩ à¤Ĭ
à¤¦ à¤°à¤®
Ġà¤ıà¤ļ à¤Ł
à¤ķ à¤ĺà¤°
Ġà¤ıà¤ķ à¤¤à¤°à¤«
à¤²à¤Ĺ à¤ĩà¤¨
Ġà¤¸à¤¹ à¤®
Ġà¤°à¤ĸ à¤µ
à¥ģ à¥į
Ġà¤ľà¤² à¤ª
Ġà¤¨ à¥Ľ
Ġà¤ĩ à¤¡
Ġà¤ıà¤¯à¤° à¤¬
Ġà¤ļ à¤®à¤¨
à¥ĺ à¤°
Ġà¤ıà¤µ à¤ľ
Ġà¤ĵ à¤ıà¤¸
à¤« à¤Ł
à¤²à¤ķ à¤¨
Ġà¤Ń à¤Łà¤¨
Ġà¤¤ à¤¬à¤²
à¤¨ à¤¯à¤¨
à¤Ł à¤¯
à¤Łà¤° à¤²
Ġà¤®à¤¹ à¤ķà¤®
Ġà¤ªà¤ķ à¤µ
à¤ī à¤¸à¤ķ
Ġà¥¨ à¥§
Ġà¤ı à¤²à¤¬
Ġà¤« à¤Łà¤¨
à¤°à¤ķ à¤®
à¤µ à¤¯à¤ķ
à¤ĸà¤¨ à¤Ĭ
à¤ķ à¤Ŀ
à¤¿ à¥į
à¤ı à¤°
à¤¨à¤° à¤²
à¤ħ à¤Ĺà¤°
Ġà¤ıà¤ļ à¤Ĩà¤Īà¤µ
Ġà¤Ī à¤¨
Ġà¤¸à¤° à¤Ĺà¤¨
Ġà¤ıà¤¸ à¤ĵ
Ġà¤Ĩà¤ĩ à¤ķà¤¨
Ġà¤¨ à¤¯à¤¨
Ġà¤ĵ à¤µà¤¨
à¤¯ à¤ľà¤¨
à¤°à¤¤ à¤Ł
Ġà¤¤ à¤®à¤¨
à¤µ à¤µà¤°
à¤®à¤Ĺ à¥Ŀ
Ġà¤¸à¤¹ à¤ľà¤¤
Ġà¤µ à¤¨à¤µ
à¤¥ à¤°à¤¬
Ġà¤¹à¤Ł à¤ķà¤°
à¤¯à¤° à¤¡
à¤¥ à¤¸
Ġà¤Ĩ à¤ĩà¤²
Ġà¤° à¤Īà¤¸
à¤° à¤§à¤¨
à¤¬ à¤ļ
à¤°à¤¬ à¤¦à¤²
à¤¹ à¤ľ
Ġà¤¨à¤µ à¤µà¤°
à¤¬ à¤ª
Ġà¤ĸà¤Ł à¤ĸà¤Ł
Ġà¤¡ à¤²
à¥į à¤¼
à¤¨ à¤Ńà¤¦
Ġà¤Ĺ à¤¬
à¤® à¤ľà¤¦
à¤ª à¤ª
à¤¡ à¤°à¤¸à¤¨
Ġà¤ İ
Ġà¤ķà¤² à¤¹
Ġà¤ħà¤¨ à¤µà¤°
Ġà¤ľà¤Ĺ à¤ľ
à¤ľ à¤¯à¤¨
à¤µ à¤°à¤¤
Ġà¤ľà¤¨ à¤®à¤¤
Ġà¤ħ à¤ķà¤°
Ġà¤¡ à¤ļ
Ġà¤ªà¥Ŀ à¤ķà¤°
Ġà¤ªà¤ķ à¥ľà¤¨
Ġà¤ı à¤¤
Ġà¤°à¤£ à¤¦
Ġà¤¸ à¤ĺà¤¨
à¤ĩà¤¨ à¤®
Ġà¤ªà¤¡ à¤¤
Ġà¤ħ à¤īà¤°
Ġà¤®à¤¨ à¤ļ
Ġà¤² à¤²à¤ķ
Ġà¤ĩà¤¨ à¤«
Ġà¥¨ à¥ª
Ġà¤ķ à¤¸à¤¨
Ġà¤ľà¤² à¤ķà¤°
à¤¡ à¤°à¤µ
à¤ª à¤¹à¤²
Ġà¤ĵà¤ªà¤¨ à¤°
Ġà¤® à¤Ŀ
à¤® à¤ķà¤°
Ġà¤ī à¤¥à¤²
Ġà¤µà¤¹ à¤¨
à¤Ĺ à¤¹
à¤ħ à¤ķ
Ġà¤Ń à¤ĩà¤¯
Ġà¤¦à¤® à¤ķà¤²
à¤Ī à¤ħ
Ġà¤ħà¤¸à¤¹ à¤ľ
à¤¾à¤Ĥ à¥ĩ
Ġà¤Ĩà¤« à¤¤
à¤ıà¤® à¤¡
Ġà¤ħà¤ľ à¤µ
Ġà¤¸à¤° à¤¹à¤¦
à¤®à¤¨ à¤µ
Ġà¤ıà¤¸ à¤ľ
Ġà¤§ à¤ľ
à¤®à¤° à¤¨
Ġà¤ľà¤¨ à¤µ
Ġà¤ľ à¤¯à¤¤
Ġà¤¤ à¤ľ
Ġà¤ļ à¤®à¤ļ
à¤¸ à¤ĸ
Ġà¤° à¤¡
à¤° à¤Ĩà¤¨
Ġà¥§ à¥¦à¥¦
Ġà¤ ĥ
Ġà¤®à¤ķ à¤¬à¤°
à¤Ł à¤¸à¤¨
Ġà¤ľà¤¨ à¤¸à¤®
à¤¯ à¤ļà¤ķ
à¤ª à¤ļà¤¯
à¤Ł à¤Ĺ
Ġà¤Ĺ à¤ĩà¤²
à¤¯ à¤¸à¤®
Ġà¤Ľ à¤ªà¤°
à¤ ĭ
à¤Ń à¤¤
à¤· à¤ľà¤¨à¤ķ
à¤ĸ à¤¸
à¤ıà¤² à¤¸
Ġà¤īà¤ª à¤²à¤ķ
à¥ģ à¥ģ
à¤²à¤¨ à¤¶
Ġà¤¨ à¤ļ
à¤° à¤Ĺà¤²
à¤² à¤¯à¤¨
Ġà¤ıà¤¯ à¤°à¤ķ
à¤® à¤ķà¤°à¤£
à¤« à¤¹à¤®
Ġà¤°à¤Ĺ à¥ľà¤¨
Ġà¥¨ à¥¨
à¤µà¤¨ à¤ķ
à¤® à¤°à¤¸
Ġà¤ħà¤¨ à¤ļ
Ġà¤° à¤¤à¤²
Ġà¤ķà¤° à¤ª
Ġà¤ĺà¤¨ à¤¶
à¤ıà¤® à¤ı
à¤¨ à¤ĺà¤°
à¤ıà¤« à¤ĵ
à¤ĩ à¤¸à¤®
Ġ à¥į
à¤Ĺ à¤²à¤¨
Ġà¤¤à¤Ł à¤¸
Ġà¤īà¤ª à¤µà¤¨
Ġà¤ıà¤¯à¤° à¤«
Ġà¤° à¤ªà¤Ł
à¥Ī à¥Ī
Ġà¤Ĩà¤Ī à¤Ĩà¤Ī
Ġà¤Ńà¤Ł à¤ķà¤¤
Ġà¤¨ à¤µà¤²
Ġà¤§ à¤®à¤¨
à¤ª à¤Ĺà¤¢
Ġà¤Ĺà¤£ à¤®
Ġà¤¤ à¤Ĺà¤¡
à¤® à¤²à¤¤
Ġà¤² à¤µà¤£
à¤¯à¤° à¤¬
Ġà¤Ńà¤°à¤¤ à¤ª
à¤Ł à¤°à¤ķ
à¤¡à¤° à¤°
Ġà¤Ķ à¤²
Ġà¤Ī à¤²
Ġà¤ĩ à¤¯à¤°
Ġà¤ħà¤² à¤¸
Ġà¤ĸ à¤²à¤¨
à¤ķ à¤Ń
Ġà¤Ī à¤ľ
à¤² à¤ķà¤¤
Ġà¤Ĩà¤Ī à¤¯
à¤¤ à¤«
Ġà¤ķà¤°à¤µ à¤Ł
Ġà¤ĵ à¤¢
Ġà¤¯ à¤®à¤¨
Ġà¤ķà¤Ł à¤µ
Ġà¤ı à¤ıà¤¸à¤ª
Ġà¤¬ à¤¶à¤°
à¥Ģ à¥°
à¤Ĺà¤¡ à¤®
Ġà¤ĩ à¤¥
Ġà¤ıà¤ķ à¥ľ
Ġà¤ļà¤¯à¤¨ à¤ķà¤°
à¤¯à¤° à¤§
à¤¹ à¤¯
à¤¡ à¤¹
à¤Ĥ à¥Ī
Ġà¤¡ à¤Ł
à¤ıà¤ļ à¤ª
à¤ĳ à¤°
Ġà¤¸à¤° à¤«à¤°
Ġà¤ľ à¤¯à¤¸
à¤ľ à¤Ńà¤°
Ġà¤¦ à¤°à¤®
Ġà¤ª à¤¨à¤ª
à¤ıà¤ļ à¤ıà¤«à¤ıà¤²
à¤¯ à¤«à¤²
à¤°à¤Ń à¤¦
à¤°à¤® à¤¨
à¤µ à¤«
à¤Ĩ à¤µ
Ġà¤Ĩà¤° à¤Ĩà¤°à¤¬
Ġà¤¹ à¤¯
Ġà¤Ĩà¤ĸ à¤°
à¤° à¤²à¤¯
Ġà¤° à¤®à¤£
Ġà¤Ĩà¤Ī à¤ĵà¤ıà¤¸
Ġà¤ļà¤° à¤ĸ
Ġà¤ħà¤¸à¤° à¤¦
Ġà¥« à¥¦
Ġà¤¤à¤¹ à¤²à¤ķ
Ġà¤ħà¤¬ à¤ķ
à¤Ń à¤Ĺà¤¤
à¤Ń à¤®
Ġà¤Ń à¤Ī
Ġà¤¹ à¤ł
à¤ľà¤¯ à¤µà¤°
à¤ĩà¤¨ à¤¸
à¥Ľ à¤Ĺ
Ġà¤ıà¤® à¤ĵ
Ġà¤Ĩà¤ª à¤®
Ġà¤Ĺ à¤¦à¤°
Ġà¤ħ à¥ľ
Ġà¤ħà¤ª à¤ķ
Ġà¤ıà¤² à¤Ĩà¤Īà¤¸
à¤¨ à¤£
à¤£ à¤Ĺ
Ġà¤ħ à¤¹à¤²
Ġà¤Ĺà¤ł à¤ľ
Ġà¤ľà¤Ĺ à¤®à¤Ĺ
Ġà¤Ĺà¤ª à¤¶à¤ª
à¤Łà¤° à¤¬
Ġà¤Ĩà¤ĩ à¤¸à¤ķ
Ġà¤Ń à¤°à¤ķà¤®
Ġà¤Ł à¤¹
Ġà¤Ĩ à¤£
Ġà¤¯ à¤ª
à¤¯à¤¤ à¤ķà¤°
Ġà¤Ŀ à¤°
Ġà¤¦ à¤¶à¤°
à¤ıà¤® à¤Ł
Ġà¤¸à¤¹à¤° à¤¸
Ġà¤ª à¤Ĺà¤¡
Ġà¤ħ à¤ī
à¤¨ à¤ªà¤°
à¤ª à¤ļà¤¨
à¤²à¤¨ à¤ķ
à¤Ĩà¤° à¤ĵ
Ġà¤Ķ à¤ľ
Ġà¤® à¤°à¤ķ
à¤®à¤¸à¤® à¤°
Ġà¤Ĩ à¥ľ
à¤ļ à¤¤à¤°
Ġà¤ħ à¥Ľ
à¥ĩà¤Ĥ à¤Ĥ
Ġà¤¹ à¤¨à¤¨
à¤¯ à¤ªà¤°
Ġà¤ĩ à¤ľà¤¹
à¤ıà¤¸à¤ıà¤¸ à¤Ĩà¤°
à¤Ĺ à¤«
Ġà¤ħ à¤¯à¤¸
Ġà¤¤ à¤¦
Ġà¤¨à¤µ à¤¯
Ġà¤İ à¤¸
Ġà¤ľ à¤ķà¤¡
à¤ıà¤ļ à¤¯
à¤Ł à¤¦
Ġà¤ĳ à¤¨à¤¬
Ġà¤«à¤² à¤¦
Ġà¤® à¤Łà¤ķ
à¤ħ à¤¸
à¤² à¤¶à¤¨
Ġà¤§ à¤¨à¤µ
à¤¶ à¤¹à¤°
Ġà¤ıà¤¨ à¤ıà¤¸
à¤ļ à¥ľ
Ġà¤ªà¤Łà¤ķ à¤¥
à¤Ĺ à¤¨à¤µ
Ġà¤īà¤ª à¤®à¤¹
Ġà¤Ń à¤°à¤µ
Ġà¤ļà¤°à¤® à¤ª
Ġà¤ı à¤ıà¤¸à¤Ĩà¤Ī
Ġà¤¨à¤µ à¤¦
à¤§ à¤°à¤¨
à¤¨ à¤ªà¤¤
Ġà¤¸ à¤¨à¤ķ
Ġà¤¶à¤¹ à¤ľ
Ġà¤¸à¤¤ à¤ª
Ġà¤Ĩà¤Īà¤ıà¤¸ à¤Ĩà¤Ī
Ġà¤² à¤ªà¤ķ
Ġà¤®à¥Ľ à¤¬
à¤°à¤¤ à¤µ
Ġà¤¸à¤¬ à¤¬
Ġà¤ į
à¤µ à¤¶à¤ķ
à¤Ĩà¤° à¤ıà¤²
Ġà¤Ĺà¤²à¤¤ à¤«à¤¹à¤®
Ġà¥§à¥¯ à¥¯
Ġà¤° à¤ļà¤¯
à¤°à¤¤ à¤µà¤°
à¤¯ à¤²à¤°
Ġà¤° à¤¸à¤¦
Ġà¤¥ à¤®à¤¨
Ġà¤Ĩà¤Ĺ à¤ľà¤¨
à¤Ŀ à¤°
Ġà¤ıà¤¸ à¤ĵà¤¸
à¤µà¤² à¤ª
Ġà¤¸ à¤īà¤¦
à¤Ĥ à¤
à¤Ĥà¤ ¾
Ġà¤ľ à¤¯à¤¦
Ġà¤¬à¤ľ à¤¤
Ġà¤ħ à¤ķà¤²
Ġà¥¨ à¥©
Ġà¤Ĺà¤° à¤ľ
à¤°à¤£ à¤¯
à¤ĩ à¤¸à¤²
Ġà¤ª à¤ĸà¤µ
Ġà¤®à¤¨ à¤ª
Ġà¤¨à¤ķ à¤µ
Ġà¤ıà¤¸ à¤ıà¤²
à¥ľ à¤Ľ
Ġà¤¹à¤® à¤®
Ġà¤ı à¤¨à¤µ
Ġà¤¸ à¤°à¤£
à¤¸ à¤ķà¤¤
Ġà¤ķà¤ļ à¤¹à¤°
Ġà¤¤ à¤«à¤°
Ġà¤ķ à¤¸à¤¤
Ġà¤ĭ à¤ļ
Ġà¤¦à¤¶à¤° à¤¥
à¤Īà¤ħ à¤¡
à¤ıà¤¸ à¤ıà¤²
Ġà¤ħà¤ª à¤ķà¤®
à¤ıà¤¨ à¤ª
Ġà¤ĩ à¤¯
Ġà¤²à¤¹ à¤ľ
Ġà¤§ à¤°à¤®
à¤ĩ à¤®à¤¨
à¤°à¤¹ à¤²
Ġà¤Ń à¤Ĺà¤¦
à¥Ľ à¤¤
Ġà¤¤ à¤¦à¤¨
Ġ à¤¿à¤Ĥ
Ġà¤ıà¤¸ à¤Ĩà¤Ī
Ġà¤ķà¤ł à¤ª
Ġà¤ĭ à¤Ĺ
Ġà¤Ķ à¤ļ
Ġà¤¸à¤¬ à¤²
Ġà¤ıà¤² à¤Ł
à¤ķà¤° à¤¨
Ġà¤ıà¤ķ à¤¬
Ġà¤¬à¤¹ à¤ķ
à¤Ĩ à¤¸
à¤¬ à¤°à¤¦à¤¸
Ġà¤¬à¤° à¤¬
Ġà¤Ľ à¤®
à¤ł à¤µ
à¤¤à¤° à¤¬
à¤° à¤Ľ
à¤ļ à¤¦
Ġà¤Ķ à¤ķ
Ġà¤ıà¤¡ à¤µà¤°
Ġà¤Ĩ à¤µà¤°
Ġà¤¸à¥ŀ à¤°
à¤¡à¤° à¤²
à¤ª à¤ľ
à¤· à¤µ
à¤ī à¤ľà¤°
Ġà¤ľ à¤«à¤°
Ġà¤¸à¤° à¤¨
à¤¤ à¤¡
Ġà¤Ĩ à¤ĩà¤¨
Ġà¤« à¤µ
à¤¸à¤² à¤µ
Ġà¤ļà¤®à¤ķ à¤¨
à¤µà¤° à¤®
Ġà¤¸à¤° à¤¯
Ġà¤¤à¤¨ à¤ĸ
à¤Ĺà¤® à¤°à¤®à¤°
Ġà¤ķà¤® à¥Ľ
Ġà¤ĵà¤µà¤° à¤²
Ġà¤µà¤¨ à¤ª
à¤® à¤ĸ
à¤ıà¤® à¤¡à¤¬
Ġà¤Ĩ à¥Ļ
à¤¨ à¤¬à¤°
à¤ĩ à¤ªà¤²
à¤¸ à¤¯
Ġà¤ıà¤® à¤ıà¤«
Ġà¤ĵà¤° à¤²
à¤¼à¥ĩà¤Ĥ à¤ĥ
à¤Ĺ à¤Ĺ
Ġà¤² à¤«
Ġà¤ıà¤¨ à¤ıà¤®
Ġà¤ıà¤¸ à¤ı
à¤¬ à¤µ
Ġà¤ħà¤µ à¤ľ
Ġà¤® à¤¡
Ġà¤Ł à¤¬
Ġà¥¨ à¥¬
à¥ħ à¤
à¥ħà¤ ¾
à¤¯à¤ķ à¤²
à¤¢ à¤ķ
Ġà¤ª à¤ķà¤¨
Ġà¤¬à¤° à¤ĸ
à¤Ī à¤ĺà¤°
Ġà¤ı à¤®à¤ķ
à¤Ĥ à¤Ĥ
Ġà¤µ à¤Ł
Ġà¤¹ à¥ľà¤ķ
à¤¦à¤° à¤ľ
à¤ıà¤¨ à¤ıà¤ķ
à¤¬ à¤°à¤¤
Ġà¤ĩà¤¨ à¤¡
à¤ķà¤² à¤µ
à¤ļà¤° à¤²
Ġà¤ļ à¤µ
à¤¹ à¥ľ
à¤ļ à¤²à¤°
Ġà¤¤ à¤µà¤ľ
Ġà¤¸à¤² à¤µ
à¤Ń à¤§
Ġà¤ī à¤Ĺà¤¤
Ġà¥ĺ à¤°
Ġà¤Ĩà¤° à¤ıà¤«
Ġà¤®à¤Ĺà¤° à¤®à¤ļ
Ġà¤¤à¤° à¤ľ
Ġà¤®à¥Ľ à¤¦
à¤µ à¤¥
à¤¸ à¤¡à¤°
Ġà¤ıà¤² à¤¡
Ġà¤ªà¤° à¤ļà¤®
Ġà¤ıà¤ļ à¤¸
Ġà¤ħà¤µ à¤¯à¤µ
à¥¨ à¥¦
à¤ª à¤°à¤¤
Ġà¤®à¤¨ à¤¨
Ġà¤Ńà¤Łà¤ķ à¤¨
à¤µ à¤ĺà¤°
Ġà¤Ľ à¤¦
Ġà¤ĩ à¥Ľ
Ġà¤²à¥ľ à¤¤
Ġà¤§ à¤¤
Ġà¤ķ à¤²à¤¯
Ġà¤¡ à¤Ĺ
à¤· à¤§à¤°
à¤ĵ à¤ı
à¤ĳ à¤Ł
Ġà¤¬à¤² à¤¬
Ġà¤Ĩ à¤·
Ġà¤Ī à¤ıà¤®à¤Ĩà¤Ī
à¤¨ à¤®à¤¨
Ġà¤ĩ à¤®à¤²
Ġà¤Ľ à¤¤à¤°à¤ª
à¤Ĺà¤² à¤ªà¤¨
Ġà¤¬ à¤ľà¤¨
Ġà¤ħà¤ľ à¤Ĺà¤°
Ġà¤¬à¤¦ à¤¸à¤²
Ġà¤ħà¤°à¤¬ à¤ªà¤¤
à¥ĺ à¤¤
Ġà¤¶ à¤Łà¤°
Ġà¤¦à¤² à¤¦à¤²
à¤® à¤ł
Ġà¤¸à¤° à¤Ĺ
Ġà¤¡ à¤®
à¤ľ à¤ĺ
à¤Łà¤ķ à¤Ł
Ġà¤¬à¤¦ à¤¸
Ġà¤ĸ à¤«
à¤Ł à¤¤à¤®
Ġà¤ıà¤® à¤Ĩà¤Ī
Ġà¤Ĩà¤Ī à¤ıà¤«
Ġà¤Ĩ à¤ĩà¤ª
à¥ľ à¤®
à¤¸ à¤ĺ
à¤¶ à¤®à¤¨
à¤Ĩà¤° à¤ıà¤®
Ġà¤¨ à¤Ń
Ġà¤µ à¤µ
à¤ĸ à¤®à¤°
Ġà¤¬à¤¢ à¤©
Ġà¤¬à¤Ł à¤²à¤°
Ġà¤ĸà¤² à¤¬à¤²
Ġà¤¥ à¤²à¤Ĺ
Ġà¤¯ à¤®à¤°
à¤ĩ à¤Łà¤¨
à¤° à¤Ĺà¤¢
Ġà¤¸à¤¹ à¤Ĺà¤²
à¤¦ à¤ľ
à¤Ī à¤ı
Ġà¤¬ à¤Łà¤°
à¤¸ à¤²à¤¨
à¤¨à¤¦ à¤¹
à¤ĩ à¤¸à¤¨
Ġà¤ıà¤® à¤ıà¤¸à¤¸
Ġà¤ħà¤« à¤ľà¤²
Ġà¤ī à¤¹
Ġà¤Ĩà¤Īà¤ıà¤¸ à¤ĵ
Ġà¤Ĩà¤¯ à¤²
Ġà¤° à¥ŀ
Ġà¤¦ à¤Ĺ
Ġà¤¸à¤¡ à¥ĺ
à¤¦ à¤ĸà¤²
Ġà¤Ĺà¥Ŀ à¤µ
à¤µà¤° à¤ª
Ġà¤ķ à¤¨à¤ķ
à¤² à¤¹à¤°
à¤¶ à¤Ń
à¤¦à¤² à¤ª
à¥Ģ à¤¼
Ġà¤¤ à¤«
Ġà¤¸à¤¹ à¤¤
à¤® à¤¸à¤¨
à¤¹ à¤Ń
Ġà¤®à¤¨ à¤ķ
Ġà¤¤ à¤¸à¤²
Ġà¤¸ à¥Ľ
Ġà¤Ń à¤¨à¤ķ
à¤¯ à¤Ĺà¤¢
Ġà¤« à¤¤à¤µ
à¤¨ à¤Ĺà¤¢
Ġà¤Ŀ à¤ķà¤Ŀ
à¥ĭ à¥ĩ
Ġà¤ªà¤¦ à¤¯
Ġà¤Ĩà¤Īà¤ıà¤¸ à¤Ĩà¤Īà¤ıà¤¸
Ġà¥¨à¥¦à¥§ à¥®
à¤· à¤¯à¤ķ
Ġà¤ħ à¥Ļ
¾ à¤¿
à¤ ¾à¤¿
Ġà¤« à¤£
Ġà¤ľ à¤®à¤¨
à¤ļ à¤¬
Ġà¤¯ à¤ķà¤¤
à¤¥ à¤°à¤¸
à¤ĵ à¤¨
à¤Ĺ à¤Ī
Ġà¤ªà¤¦ à¤Ń
Ġà¤¦ à¤¯à¤¨
Ġà¤Ĩà¤¹ à¤Ł
Ġà¤Ĩà¤° à¤ıà¤¸
à¤° à¤Ŀ
à¤¦à¤¨ à¤Ĺà¤°
Ġà¤¹ à¤°à¤ķ
Ġà¤¦ à¤²à¤¬
Ġà¤Ĩà¤° à¤¡
Ġà¤Ī à¤¬
Ġà¤Ľ à¤²à¤ķ
à¤ıà¤® à¤Ĩà¤°
à¥Ŀ à¤¤
Ġà¤ªà¤° à¤ľ
à¤Ľ à¤µ
à¤µà¤° à¤«
Ġà¤¬à¤° à¤Ĺà¤¦
Ġà¤« à¤«
à¤ĸ à¤°à¤¨
à¤°à¤µ à¤¤
à¤ľ à¤¡
Ġà¤¶ à¤°à¤®
Ġà¤ħà¤¨ à¤¹
à¤¹ à¤¨à¤²
Ġà¤Ĺà¤° à¤¬
Ġà¤īà¤¬à¤° à¤¨
Ġà¤Ĳ à¤ľ
Ġà¥ Ŀ
Ġà¤ļ à¤ĸ
Ġà¤ıà¤¸ à¤ıà¤ļà¤ĵ
à¤¯à¤ķ à¤µ
Ġà¥¨ à¥Ń
Ġà¥« à¥¦à¥¦
à¤¤à¤¨ à¤¶
à¤Ł à¤¹
Ġà¤īà¤ªà¤¨ à¤Ĺà¤°
à¤£ à¤¦
Ġà¤® à¤°à¤µ
à¤¸à¤® à¤¯
Ġà¤¨ à¤µà¤¸
Ġà¤¸à¤® à¤¤à¤²
Ġà¥§à¥¯ à¥®
Ġà¤ª à¤Ĺà¤²
Ġà¤ĩ à¤¹
Ġà¤² à¤µà¤²
Ġà¥¨à¥¦à¥§ à¥¯
Ġà¤¬ à¤ª
Ġà¥ª à¥¦
à¤¡ à¤¯
à¤Ł à¤ĸ
Ġà¤īà¤¤à¤° à¤ķà¤°
à¥ĭà¤Ĥ à¤Ĥ
Ġà¤ı à¤¡à¤²
Ġà¤ª à¤¦à¤¨
Ġà¤ľ à¤ĺà¤¨
à¤¯ à¤¸à¤¨
Ġà¤ıà¤®à¤ıà¤¸ à¤ıà¤®à¤Ī
à¤Ŀ à¤Ł
Ġà¤¬à¤° à¤ª
Ġà¤ļ à¤£
Ġà¤¯ à¤¶à¤ª
Ġà¤ıà¤² à¤ĵà¤¸
Ġà¤īà¤® à¥ľ
Ġà¥ļ à¤²à¤¤
Ġà¤ħà¤¶ à¤°à¤«
Ġà¤ıà¤¨ à¤ıà¤«à¤¸
à¤¼ à¥ħ
Ġà¤Ĩà¤µ à¤ķ
à¤¹à¤¤ à¤®
Ġà¤¬à¤² à¤¦
à¤¯à¤² à¤®
Ġà¤ıà¤ıà¤¨ à¤Ĩà¤Ī
Ġà¤ª à¤¯
à¤¯ à¤Łà¤°
Ġà¤« à¤²à¤ķ
Ġà¤ ¼
à¤°à¤¤ à¤¦
Ġà¥¨ à¥®
à¤ıà¤« à¤ª
à¤° à¤Ī
Ġà¤ı à¤²à¤¨
Ġà¤¸ à¤¨à¤¸
Ġà¤ªà¤° à¤ķ
à¤®à¤² à¤²
Ġà¤Ń à¤°à¤£
à¥ĩ à¤ĥ
Ġà¤Ĩà¤ī à¤Łà¤«
Ġà¤¹à¤° à¤ª
Ġà¤®à¤¨ à¤ªà¤¸
Ġà¤ħà¤® à¤²à¤¤
à¤ħ à¤¦
Ġà¤Ĩà¥Ľ à¤®
à¤Ĺ à¥Ľ
à¤ªà¤° à¤«
à¤ķà¤° à¤¬à¤°
Ġà¤ħà¤¨ à¤°
à¤µ à¤ļà¤¨
Ġà¤² à¤ªà¤Ł
à¤ı à¤¦
à¤¡ à¤¹à¤°
à¤Ĺ à¤Ń
Ġà¤ıà¤« à¤ıà¤ķ
Ġà¤Ĩ à¤ĩà¤ķ
Ġà¤ĩà¤ķ à¤ł
à¤¯à¤® à¤¸à¤¨
à¤ĩ à¤ķà¤°
à¤ıà¤« à¤Ĩà¤Ī
à¤ħ à¤Ł
Ġà¤¬ à¤¶
à¤£à¤¤ à¤¯
Ġà¤¨ à¤ĩ
Ġà¤ħà¤µ à¤¹
à¤°à¤ĸ à¤°
Ġà¤Ĩà¤¯ à¤¶
Ġà¤¬à¤¢ à¤¨
Ġà¤° à¤¯
Ġà¤Ńà¤Ĺ à¤µà¤¨
Ġà¤ª à¤·
Ġà¤Ĭ à¤¬
Ġà¤¹ à¤µà¤¸
à¤ıà¤¨ à¤¡
Ġà¤Ĩà¤Ī à¤Ĩà¤°à¤¸
Ġà¥§à¥¯ à¥Ń
Ġà¤īà¤¦ à¤ĺ
à¤¥à¤¨ à¤Ĺà¤°
à¤¯ à¤¦à¤°
Ġà¤¬ à¤«à¤°
Ġà¤¯ à¤µ
Ġà¤« à¤ľ
à¤Ĩà¤Ī à¤Ĩà¤Ī
à¤Ĭ à¤¸
à¤ĵ à¤¡
Ġà¤ªà¤² à¤µà¤²
à¤²à¤¤ à¤®
à¤¦à¤° à¤¬
Ġà¤īà¤ª à¤¬
Ġà¤ļ à¤ªà¤°
à¤Ī à¤°
Ġà¤· à¤·
à¤§ à¥ľ
Ġà¤¨à¤ľà¤° à¤¬
à¤ī à¤ª
Ġà¤Ĩà¤īà¤Ł à¤¸
à¤Ĺ à¤ļ
à¤ıà¤® à¤ıà¤®
à¤® à¤ªà¤¤
Ġ à¥ĭ
Ġà¤¸ à¤ľà¤¨
Ġà¤«à¤¤ à¤¹
Ġà¤® à¤¢
Ġà¤Ķ à¤ļà¤ķ
Ġà¤¬à¤¸ à¤¤
Ġà¤ħ à¤¥à¤ķ
à¤Ĩà¤° à¤ı
à¤Ī à¤Ĺ
à¤¤ à¤§
à¤°à¤ľ à¤®
à¤¯à¤µ à¤§
Ġà¤Ł à¤ªà¤ķ
à¤¬ à¤°à¤¦
Ġà¤Ī à¤¯
Ġà¤Ĩà¤¦ à¤°à¤¸
à¤° à¤ĺ
à¤¡ à¤¡
à¤² à¤ĸà¤¨à¤Ĭ
Ġà¤ļ à¤ķà¤°
à¤¶ à¤Ł
à¤²à¤ķ à¤®
à¤Ĩ à¤Ĩ
Ġà¤®à¤¤ à¤²
Ġà¤Ľ à¤²à¤¨
Ġà¤¸à¤®à¤¯ à¤¸
à¤¥ à¤ķà¤¤
Ġà¤¶ à¤«
Ġà¤Ĳ à¤¤à¤°
Ġà¤Ńà¤Ĺà¤¦ à¤¡
Ġà¤ªà¤° à¤²
Ġà¤Ĩà¤ĩ à¤¸à¤²
à¤Ī à¤¶
à¤² à¤ĸà¤£
Ġà¤ĳ à¤¨à¤¸
Ġà¥¨à¥¦à¥§ à¥Ń
Ġà¤ľà¤Ĺ à¤¦à¤²à¤ª
Ġà¤¨ à¤Łà¤°
à¤Īà¤ĵ à¤µà¤°
à¤Ĭ à¤¨
à¥ĭ à¥ĩà¤Ĥ
Ġ à¥ģ
à¤¡ à¤¯à¤¨
Ġà¤ł à¤ķ
à¤¯à¤° à¤«
Ġà¤ªà¤° à¤Ľ
Ġà¤ħà¤° à¤¶à¤¦
à¤¡à¤° à¤Ĺ
à¤ĸ à¥ľ
Ġà¤ħ à¤¦à¤¨
à¤¶ à¤ļ
Ġà¤®à¤ķ à¤Ī
à¤Ĺ à¤ĩà¤¨
à¤Łà¤² à¤®
à¤µà¤° à¤²
à¤°à¤§ à¤°
Ġà¤®à¤ĸ à¤®à¤²
Ġà¤ħà¤² à¤¬à¤¤
à¤¨ à¤Ń
Ġà¤ķà¤° à¤²
à¤°à¤¤ à¤ħ
à¤· à¤¶
Ġà¤¬ à¤°à¤¨
Ġà¤¨à¤Ī à¤¦
à¤ł à¤Ĺ
à¤¼ à¤¾à¤Ĥ
Ġà¤° à¤¨à¤µ
à¥į à¤
Ġà¤Ĩà¤Ī à¤µ
à¤« à¥ľ
Ġà¤ħ à¤¤à¤°
Ġà¤ħà¤ķà¤° à¤®
à¤® à¤¢
Ġà¤ªà¤¤ à¤µ
Ġà¤Ķ à¤ªà¤¨
Ġà¤¸à¤¹à¤¨ à¤¶
à¤ıà¤® à¤ľ
à¥įà¤ ¾
à¤¶à¤¨ à¤Ĺ
à¥« à¥¦
Ġà¤ħà¤¦ à¤Ń
Ġà¤ıà¤¨ à¤ıà¤¸à¤¯
Ġà¤¹à¤Ł à¤µ
Ġà¤Ŀ à¤®
Ġà¤¸ à¤§
Ġà¤¬ à¤Ľà¤¡
Ġà¤Ńà¤Ĺà¤µ à¤¦
Ġà¤ıà¤®à¤ĵ à¤¯
à¤µà¤¤ à¤®
Ġà¤ħà¤¨ à¤µà¤°à¤¤
à¤£ à¤°
Ġà¤° à¤Ł
Ġà¤¹à¤° à¤Ĺ
à¤ħ à¤µ
Ġà¥© à¥¨
Ġà¥§à¥¯ à¥¬
Ġà¤¹à¤°à¤® à¤¨à¤ª
Ġà¤ł à¤¨
Ġà¤ Ļ
à¤¯à¤° à¤µ
Ġà¤ĸ à¤¸à¤°
à¤Ĺà¤² à¤°
à¥ŀ à¤°
à¤Ĺà¤° à¤®
Ġà¥¨ à¥¯
Ġà¤ı à¤¨à¤²
Ġà¤ľà¤¬ à¤¤à¤ķ
à¤¯à¤µ à¤¶
Ġà¤ªà¤° à¤Ĺà¤¨
à¤¤ à¤Ńà¤°
à¤ķ à¤¬à¤¸
à¤ıà¤² à¤ı
Ġà¤ħà¤ª à¤¶à¤¬
à¤ª à¤ķà¤²
Ġà¤®à¤Ĺ à¤§
Ġà¤¹ à¤¥à¤ķ
Ġà¤ªà¤¦ à¤®
Ġà¤¸à¤« à¤¦à¤°à¤ľ
Ġà¤¨ à¤¸à¤¬
Ġà¤ľ à¤¹à¤¨
à¤¤à¤° à¤¨
à¤¦à¤° à¤ª
Ġà¥§à¥¯ à¥ª
à¤Ĺ à¤®à¤¤
à¤¯ à¤¨à¤ķ
Ġà¤ļ à¤¸
Ġà¤ıà¤¨ à¤ıà¤¸à¤Ī
à¤¡ à¤°à¤®
à¤ıà¤¨ à¤Ł
Ġà¤ª à¤ĸ
Ġà¤ķà¥ľ à¤µ
Ġà¤ħà¤µ à¤¤à¤°à¤£
Ġà¤Ĩ à¤¨à¤²
à¤¡ à¤¦
à¤Ĩ à¤¯à¤¨
à¤°à¤µ à¤¶
Ġà¤ħà¤° à¤°
Ġà¤ħà¤¨ à¤¬à¤¨
à¤°à¤® à¤¯
à¤¸à¤® à¤Ŀ
à¤°à¤ª à¤¦
Ġà¤ıà¤¯à¤° à¤¸
Ġà¤ı à¤Łà¤²
Ġà¤¬ à¤«
Ġà¤® à¤°à¤¹à¤®
Ġà¤Ń à¤ľ
Ġà¤ħà¤¸à¤² à¤®
à¤ĸ à¤ļ
à¤Ĺà¤² à¤¸
à¤· à¤¦à¤°
Ġà¤Ĺ à¤ľà¤°
à¤² à¤¹à¤¨
à¤Ĩà¤Ī à¤ıà¤«
Ġà¤®à¤ľ à¤²
à¤ķà¤Ł à¤¤
Ġà¤²à¤Łà¤ķ à¤¨
à¤¹ à¤®à¤¨
Ġà¤ķ à¤ĩà¤²
à¤² à¤¸à¤°
à¤ªà¤¤ à¤µ
Ġà¤Ĩà¤ª à¤¬
à¤µà¤² à¤¦
à¤Ŀ à¤²
à¤Ī à¤µà¤°
Ġà¤¤à¤° à¤£
Ġà¤Łà¤¹ à¤²à¤¨
Ġà¤ª à¤ľ
Ġà¤ĵ à¤µà¤²
Ġà¤Ī à¤ĵ
à¤¨à¤µ à¤ľ
Ġà¤¬ à¤ł
à¤Ł à¤Ĩà¤īà¤Ł
Ġà¤¹à¤® à¤¦à¤°
Ġà¤¸à¤° à¤Ĺà¤°
Ġà¤°à¤¹ à¤®à¤¤
Ġà¤ªà¤ķà¥ľ à¤ķà¤°
Ġà¤¹ à¤Łà¤ķ
Ġà¤¤à¤¬ à¤¸
Ġà¤ħà¥Ļ à¤¬
Ġà¤ľà¤¬ à¤¸
Ġà¤Ĩà¤Īà¤ıà¤® à¤ıà¤«
Ġà¤¬ à¤¸à¤°
Ġà¤ħ à¤¦à¤®
à¤° à¤ľà¤ª
Ġà¥© à¥§
Ġà¤ ©
à¤¡ à¤°à¤¶
Ġà¤ı à¤ıà¤¸
Ġà¤Ľ à¤¤à¤°
à¤µà¤° à¤¨
Ġà¤ıà¤« à¤ıà¤®
Ġà¤ıà¤¡ à¤ľà¤¸
à¤ľ à¤¯à¤ª
Ġà¤¨ à¤¸à¤°
à¤Ĩ à¤Ľ
Ġà¤ıà¤« à¤Ł
à¤ļà¤° à¤°
à¤ľà¤¹ à¤¦
Ġà¤ıà¤« à¤¬
Ġà¤ıà¤®à¤ıà¤² à¤¸
à¤® à¤°à¤¤
à¤°à¤®à¤£ à¤ķ
Ġà¤ĸà¤° à¤ªà¤¤à¤µ
Ġà¤ł à¤¹
Ġà¤¸à¤® à¤°à¤¸à¤¤
Ġà¤²à¤Ł à¤ķà¤¤
Ġà¤īà¤Ń à¤°à¤¨
Ġà¤Ĩ à¤¯à¤°
Ġà¤¹à¤Ł à¤¤
Ġà¤¬ à¤°à¤ķ
Ġà¤Ĩà¤Ī à¤²
à¤µà¤¨ à¤¦
Ġà¤ĵà¤µà¤° à¤¸
à¤ĸà¤¨ à¤¨
à¤¥ à¤¬
à¤¨ à¤¸à¤®
Ġà¤¸ à¤ªà¤°
à¤īà¤¸ à¤«
Ġà¤¬ à¤°à¤®
à¤° à¤ĸà¤¨
Ġà¤Ł à¤ª
Ġà¤ĳ à¤ĩà¤²
à¤¸ à¤®à¤¤
Ġà¤¬à¤® à¤¬
à¤ıà¤¸ à¤Ĩà¤°
à¤¬à¤° à¤¨
Ġà¤« à¤²à¤¤
Ġà¤ĩà¤¨ à¤°
Ġà¤īà¤ĸ à¤¡
Ġà¤ļà¤ķ à¤®
Ġà¤² à¤µà¤°
à¤ĩ à¤®à¤²
Ġà¤§à¥ľ à¤ķà¤¨
Ġà¤¹ à¤µà¤²à¤¦
Ġà¤°à¤¥ à¤¯
Ġà¤ķà¤ª à¤Ł
Ġà¤·à¤¡ à¤¯
Ġà¤ıà¤« à¤ª
Ġà¤ħà¤ª à¤¸
Ġà¤¤à¤ķ à¤¦
à¤Ī à¤ķà¤®
à¤°à¤Ĺ à¤Ł
Ġà¤ıà¤® à¤µ
à¤Łà¤° à¤µà¤²
à¤° à¤ªà¤°
à¤¤à¤¨ à¤¤
à¤® à¤¥
Ġà¤ĸ à¤ļ
Ġà¤ªà¤° à¤ļ
Ġà¤ļ à¤¤à¤°
¾ à¥Ģ
à¤ ¾à¥Ģ
à¤° à¤¬à¤°
Ġà¤ħà¤¸ à¤¹à¤¨
Ġà¤ıà¤¸ à¤µ
à¤² à¤Ńà¤°
à¤Łà¤¨ à¤°à¤¶
Ġà¤ıà¤ļ à¤ıà¤«à¤Ł
Ġà¤¸à¤¹ à¤ª
à¤Ī à¤Ĩà¤°à¤Ł
Ġà¤¦à¤² à¤¹à¤¨
Ġà¤¤ à¥ľà¤ķ
à¤¯ à¤²à¤¯
Ġà¤ķ à¤µà¤ķ
Ġà¥ĺ à¤¦à¤®
Ġà¤¢ à¤ķà¤¨
Ġà¤īà¤® à¤¸
Ġà¤ªà¤°à¤µà¤° à¤¦
Ġà¤ĵ à¤¹à¤¦
à¤ıà¤² à¤ª
à¤ĩ à¤ĳà¤ķ
Ġà¤Ĺà¤£ à¤¤à¤¨
Ġà¤ľà¤¨ à¤ķà¤ª
Ġà¤ī à¤Ĺà¤²
Ġà¤Ĳ à¤°
à¤² à¤ĺà¤°
Ġà¤ıà¤²à¤¬ à¤®
à¤¿ à¥ĩ
Ġà¤ĸ à¤ª
à¤Ĩ à¤Ĺ
à¤¡à¤° à¤µà¤°
Ġà¤¦à¤° à¤ĸ
Ġà¤ªà¤¢ à¤¤
à¥ľ à¤ªà¤¤
Ġà¤Ĺ à¤¬à¤¨
à¤ıà¤² à¤Ł
à¤®à¤¨ à¤µà¤®
Ġà¤ł à¤¹à¤°à¤¤
Ġà¤ľà¤² à¤Ńà¤°
à¤¤à¤® à¤¬
à¤°à¤® à¤¸
à¤¯à¤¤ à¤®
à¤ĵ à¤ıà¤«
à¤°à¤¶ à¤°
à¤ľà¤¨ à¤¸
à¤Ĩ à¤ı
Ġà¤¦ à¤¦
Ġà¤ħà¤ª à¤ļ
à¤Ń à¤Ĺà¤µ
à¤¡ à¤¸à¤¨
Ġà¤¹ à¤°à¤£
à¤µ à¤¦à¤²
Ġà¤ıà¤¨à¤ıà¤¸ à¤ľ
Ġà¤ı à¤¤à¤°
Ġà¤§ à¤µà¤²
Ġà¤ļà¤Ł à¤ªà¤Ł
à¤Ł à¤¶
Ġà¤ķà¤Ł à¤ĺà¤°
Ġà¤° à¤ļà¤¤
Ġà¤Ĩà¤Ī à¤ıà¤¨à¤ľ
Ġà¤¬à¤°à¤¸ à¤¤
à¤Ĩ à¤ĸ
à¤£ à¤ķà¤Ł
Ġà¤¨ à¤¥
Ġà¤®à¤¨ à¤ļà¤²
Ġà¤® à¤ļà¤²
Ġà¤ħ à¤ľà¤²
Ġà¤ķà¤¸ à¤ķà¤°
Ġà¤ĩ à¤µà¤¨
Ġà¤Ľ à¤¥
Ġà¤īà¤¬ à¤²à¤¤
à¤Ĩ à¤¬
Ġà¤¥ à¤ªà¤¥
à¤µà¤° à¤¸
Ġà¤² à¤¥
Ġà¤ķ à¤Łà¤ķ
à¤ħ à¤¸à¤°
à¤¤à¤° à¤¹
à¤ī à¤Łà¤°
Ġà¤ľà¤Ĺ à¤®
Ġà¤Ł à¤Ĺ
à¤ķ à¤§
à¤® à¤ľà¤¨
Ġà¥¨à¥¦à¥§ à¥¬
Ġà¤ħ à¤¥à¤°
Ġà¤Ŀ à¤ªà¤ķ
Ġà¤Ń à¥ľ
Ġà¤ķà¤° à¤¬
Ġà¤¸ à¤°à¤¤
Ġà¤¸à¤° à¤¬à¤ľ
à¤¤ à¤ĸà¤¤
à¤Ł à¥ŀ
Ġà¤¥à¤ªà¤¥ à¤ª
Ġà¤ıà¤® à¤Ĩà¤Īà¤ıà¤²
Ġà¤Ĩà¤ª à¤²
Ġà¤¸ à¤ķà¤°
à¤Ĩ à¤ķ
Ġà¤ªà¤¨ à¤ªà¤¨
à¤® à¤°à¤ķ
Ġà¤ļ à¤¹à¤ķ
à¤ª à¤Ĺ
Ġà¤ªà¤° à¤ĸà¤¨
Ġà¤¹à¤¸ à¤°à¤¤
à¤Ĺà¤¤ à¤¤
Ġà¤Ľà¤ł à¤µ
Ġà¤¹ à¤¶
Ġà¤Ŀ à¤ªà¤Ł
Ġà¤¤à¤¸ à¤µ
à¤² à¤¦à¤¸
Ġà¤ķ à¤ķà¤¡
Ġà¤Ĩà¤Ī à¤ķ
Ġà¤ª à¤¤à¤°
Ġà¤¢ à¤²à¤¤
à¤ĺ à¤²à¤¨
Ġà¤ħà¤¨ à¤Ń
Ġà¤īà¤ª à¤ª
Ġà¤Ĩ à¤¸à¤ķ
à¤¸à¤¨ à¤°
Ġà¤Ĩà¤° à¤ĵ
Ġà¤Ī à¤¡à¤¨
Ġà¤² à¤ı
à¤ľà¤Ĺ à¤¢
Ġà¤ħ à¤Ĭ
à¤¹à¤¨ à¤µ
Ġà¤Ŀ à¤ľ
Ġà¤ı à¤ªà¤²
Ġà¥¨à¥¦à¥§ à¥§
Ġà¤¬à¤ļ à¤ķà¤°
Ġà¤¸ à¤¨à¤®
à¤¤ à¤Ń
Ġà¤¨ à¤°à¤µ
Ġà¤ıà¤®à¤ı à¤ª
Ġà¤® à¤°à¤¦
Ġà¤Ľà¤Ł à¤ªà¤Ł
Ġà¥¨à¥¦à¥§ à¥ª
Ġà¤¨ à¤²à¤ķ
à¤°à¤¤ à¤²
Ġà¤ľà¤¬ à¤¡
Ġà¤ªà¤°à¤® à¤¹
à¥ľ à¤Ĺ
Ġà¤¨à¤° à¤Ĺ
à¤ľà¤¨ à¤ªà¤¦
à¤° à¥ŀ
Ġà¤ıà¤¨ à¤Ĩà¤°à¤Ĩà¤Ī
Ġà¤¨ à¤¤à¤®
Ġà¤Ŀ à¥ľà¤¨
Ġà¤Ŀ à¤²à¤ķà¤¤
Ġà¤ħà¤¨ à¤§
à¤¨ à¤ı
à¤Ī à¤ķà¤°
Ġà¤¤ à¤ªà¤¤
Ġà¤ª à¤ŀ
Ġà¤¶à¤¹ à¤¡
Ġà¤ķà¤° à¤Ĺ
Ġà¤¯ à¤¯à¤¨
Ġà¤ĵ à¤Ĺ
à¤ı à¤¸à¤ķ
à¤¥ à¤¦
Ġà¤¤à¤° à¤²à¤¤
Ġà¤¶ à¤Ĺ
à¤µ à¤¹à¤°
Ġà¤¶ à¤¯à¤¨
Ġà¤ªà¤°à¤® à¤ª
Ġà¤Ľ à¤ªà¤¨
Ġà¤Ĩ à¤®à¤²
à¥į à¤Ĥ
à¤Ŀ à¤ªà¤¨
à¤¹ à¤²à¤¤
à¤ī à¤¡à¤¸
Ġà¤ªà¤¦ à¤ļ
à¤ĩ à¤°à¤¸
Ġà¤ī à¥ľà¤¤
à¤¤ à¤ĸ
Ġà¤ıà¤® à¤ıà¤¸à¤ª
Ġà¤¨ à¤¨à¤¦
Ġà¤Ĩà¤ľ à¤®à¤Ĺà¥Ŀ
Ġà¤īà¤¦ à¤¹
à¤®à¤¦ à¤Ĺ
Ġà¤® à¤ķà¤¡
à¤¥ à¤ľ
à¤¶à¤¨ à¤¸
Ġà¤ķà¤µ à¤¯
à¤ıà¤« à¤¡
à¤°à¤Ń à¤ķ
Ġà¤ī à¥ľà¤¨
Ġà¤ĵ à¤ıà¤¨à¤ľ
Ġà¤¬à¤¦ à¤¤à¤®
Ġà¤¸ à¤¶
Ġà¤Ĩà¤° à¤ıà¤²
à¤µ à¤§à¤°
Ġà¥¨à¥¦à¥§ à¥¦
Ġà¤ı à¤ħà¤°
Ġà¥¬ à¥¦
Ġà¤ħ à¤¬à¤°
Ġà¥¦ à¥¦à¥¦
Ġà¤Ī à¤ı
à¤® à¤Ŀ
à¤® à¤¬à¤°
à¤² à¤¸à¤¨
Ġà¤²à¤ķ à¤µ
à¤ļ à¤ª
à¤ı à¤¯à¤°
Ġà¤ħà¤ª à¤µà¤°
Ġà¤ĩà¤¨ à¤¹
à¥ĭ à¤ĥ
Ġà¤²à¤¥ à¤ªà¤¥
Ġà¤Ľà¤ª à¤µ
à¤Ĩ à¤ĩà¤Ł
Ġà¤ĩ à¤ķà¤¨
à¤ł à¤ª
Ġà¤Ŀ à¥ľ
à¤Ĩ à¤¦
Ġà¤ı à¤ıà¤®à¤¯
Ġà¤¦à¤²à¤¬ à¤¦à¤²
Ġà¤¨à¤µ à¤°à¤¤
à¤ľ à¤§à¤°
à¤¥ à¤Łà¤¬
Ġà¥© à¥«
à¤ķ à¤¦à¤²
Ġà¤¹à¥Ľ à¤°à¤¤
Ġà¤¤ à¤¨à¤µ
Ġà¤ħà¤¸à¤® à¤¯
Ġà¤Ĺ à¤Ł
Ġà¤ħà¤² à¤¬
Ġà¤ľ à¤¤à¤¨
Ġà¤Ŀ à¤£
Ġà¤ľ à¤¸à¤²
Ġà¤Ŀ à¤µ
Ġà¤ªà¤¦ à¤µ
Ġà¤Ĩ à¤®à¤¦
à¤ª à¤Ĺà¥Ŀ
Ġà¤Ĺ à¤¹
Ġà¤ıà¤®à¤Ĩà¤Īà¤ıà¤² à¤ı
Ġà¤¬à¤¦à¤² à¤µ
Ġà¤Ĩ à¤£à¤µ
Ġà¤ħà¤ĸ à¤£
Ġà¤ĵà¤µà¤° à¤¹
à¤ļ à¤¯à¤¨
à¤°à¤ķ à¤¬
à¤ıà¤¸ à¤ĵ
Ġà¤¡ à¤²à¤µ
à¤¬à¤°à¤® à¤¤
à¤® à¤µà¤¤
à¤® à¤¦à¤°
Ġà¤µ à¥Ľà¤¨
Ġà¤¯ à¤¶à¤¸
Ġà¤ľ à¤¶à¤ª
à¤¨ à¤Ŀ
à¤ĩà¤Ł à¤¸
Ġà¤Ń à¤¨
à¤Ĩ à¤¹
à¤£ à¤¤à¤®
Ġà¤¤ à¥ľà¤ª
Ġà¤¯ à¤²
Ġà¤ ģ
Ġà¤ľ à¤¯à¤µ
Ġà¤ĩ à¤¡à¤²
Ġà¤¶ à¤Łà¤²
à¤¯à¤£ à¤ª
Ġà¤¹à¤° à¤«
Ġà¤¶ à¤ķà¤°
à¤¹ à¤µà¤°
Ġà¤¸ à¤¶à¤°
Ġà¤ľ à¤²à¤°
à¤ľ à¤¸à¤®
Ġà¤ĵ à¥Ŀ
Ġà¤ħà¤µ à¤¤à¤°
Ġà¤Ľ à¤¬
à¤°à¤¤ à¤ķ
à¤Ŀ à¤¬
Ġà¤Ī à¤µà¤¨
à¤ĩ à¤²à¤°
Ġà¤¸à¤¤ à¤¯
Ġà¤Ĩ à¤ĩà¤ľ
Ġà¤¶à¤¹à¤° à¤µ
à¤ĵ à¤°
Ġà¤ħà¤° à¤¹à¤°
à¤ī à¤ļà¤°
Ġà¤®à¤°à¤ķ à¤ľ
Ġà¤ħà¤ļ à¤°à¤ľ
à¤ł à¤®à¤²
Ġà¤ľ à¤°à¤¦
Ġà¤ķ à¤ľà¤°
Ġà¤¨à¤¹ à¤²
à¤¬à¤² à¤¡à¤¨
Ġà¤¹à¤° à¤¨
Ġà¥ļ à¤°
Ġà¤ıà¤ļ à¤Ĩà¤°
Ġà¤ıà¤¸ à¤Īà¤ĵ
à¤ķà¤¨ à¤Ĺ
Ġà¤ĩ à¤ª
à¤ªà¤² à¤Ł
à¤Łà¤¨ à¤®
Ġà¤Ī à¤£
Ġà¤µ à¥Ľ
à¥ľ à¤²
Ġà¤ħà¤® à¤°à¤ľ
à¤ħ à¤ļ
Ġà¤°à¤£ à¤§
Ġà¤ħ à¤ľà¤°
à¤ħ à¤«
à¤ħ à¤ľ
à¥į à¥į
Ġà¤ıà¤ķ à¤²à¤µ
Ġà¤ħà¥ŀ à¤¸
à¤¤à¤¨ à¤§
à¤µ à¤µà¤¤
Ġà¤¡ à¤²à¤¹
Ġà¤ĸ à¤¤à¤®
Ġà¤Ł à¤¹à¤¨
Ġà¤ħà¤¦ à¤²
Ġà¤īà¤ľ à¤¡
Ġà¤ħà¤¸ à¤Ń
à¤®à¤¸ à¤Ń
Ġà¤ľà¤² à¤®
à¤ı à¤¬à¤²
Ġà¤ĩà¤¨ à¤²
à¤¡ à¤¸à¤®
à¤ıà¤² à¤ıà¤«
Ġà¤ĩ à¤¦
Ġà¤ıà¤¸ à¤ıà¤¸à¤¬
Ġà¤¹ à¥ŀ
à¤µ à¤Ńà¤°
à¤ĩ à¤¦
à¤° à¤ľà¤¹
Ġà¤Ĺ à¤®à¤²
Ġà¤¶à¤¬ à¤¨à¤®
Ġà¤§à¤® à¤¤à¤°
à¤ī à¤¸à¤¨
à¥Ľ à¤¬
Ġà¤ī à¤¦à¤°
Ġà¤ļ à¤°à¤µ
Ġà¤ļ à¤°à¤¸
à¤¬ à¤²à¤¤
à¤ĳ à¤¸
Ġà¤· à¤£
à¤²à¤® à¤ª
à¤¿ à¥Ģ
à¤¤à¤¨ à¤Ĺà¤°
à¥¦à¥¦ à¥¦
Ġà¤¹à¤° à¤ľ
Ġà¤Ĩà¤Ī à¤ĵà¤¸
à¤²à¤ķ à¤µ
Ġà¤ľà¤¨ à¤ķà¤²
Ġà¤ļà¥Ŀ à¤¨
à¤¸ à¤ł
à¤Ĩà¤Ī à¤ıà¤¸à¤ıà¤«
Ġà¤° à¤¨à¤°
à¤· à¤°à¤£
Ġà¤ħà¤® à¤°à¤ķ
à¤Ńà¤µ à¤¹
Ġà¤²à¤¡ à¤©
à¤ħ à¤¹
Ġà¤Ĩà¤Ī à¤ıà¤¨à¤ıà¤¸
Ġà¤Ł à¤¹à¤²
à¤¨à¤¹ à¤Ĺ
Ġà¤Ĩà¤Īà¤Ĩà¤Ī à¤ıà¤®
Ġà¤« à¤ľà¤²
Ġà¤īà¤² à¤Łà¤«
Ġà¤¨à¤µ à¤µ
Ġà¤Ŀ à¤²
à¤ĵ à¤Ł
Ġà¤ķà¤® à¤¤à¤°
à¤°à¤® à¤ľ
à¤¡ à¤²à¤°
Ġà¤¤à¤¹ à¤ĸ
à¤¦ à¤ĸ
Ġà¤®à¤¨ à¤ľ
Ġà¤Ĩ à¤¸à¤°
à¤¸ à¤Łà¤°
à¤ķà¤°à¤£ à¤²
à¤ľà¤ª à¤¥
à¤¸à¤¨ à¤Ĺà¤°
à¤Ń à¤ļ
Ġà¤ħà¤¨à¤ª à¤¢
Ġà¤Ĺ à¤²à¤µ
à¤ª à¤ĸ
Ġà¤ħà¤Ĺà¤° à¤¬à¤¤
Ġà¤° à¥Ľ
¾ à¥į
à¤ ¾à¥į
à¤® à¤Ĺà¤°
à¤Ĩ à¤°à¤µ
Ġà¤¤ à¤²à¤ķ
¾ à¥°
à¤ ¾à¥°
à¤®à¤£ à¤µ
à¤Łà¤° à¤¸à¤¨
Ġà¤¬ à¤Łà¤µ
Ġà¤ıà¤ļ à¤ıà¤¸à¤¬
Ġà¤ľà¤¨ à¤§à¤¨
à¤¤à¤ķ à¤¬
Ġà¤Ĩ à¤¬à¤¨
à¥ī à¥°
Ġà¤Ĳ à¤ªà¤²
Ġà¤ıà¤ļ à¤ıà¤¸
à¤ķà¤¤ à¤¨
à¤ıà¤² à¤ĵ
à¤®à¤² à¤µ
à¤°à¤® à¤¦
à¤¤ à¤«à¤°
Ġà¥© à¥¬
à¤¸ à¤Ī
à¤ıà¤¸à¤ı à¤²à¤µ
Ġà¤ĸ à¤Łà¤ķ
à¤¹à¤¨ à¤Ĺà¤°
à¤µ à¤Łà¤°
à¤¡ à¤ķà¤ª
Ġà¤ķà¤Ł à¤ĳà¤«
Ġà¤¬ à¤°à¤ķà¤¤
Ġà¤¤ à¤ªà¤¨
Ġà¤¤ à¤¹à¤ķ
Ġà¤ħà¤¸à¤² à¤¹
Ġà¤ħà¤¨ à¤ķà¤¹
à¤Ń à¤²à¤ķà¤°
Ġà¤Ń à¤ĩà¤²
à¤ħ à¤Ĺà¤²
Ġà¤ıà¤®à¤ıà¤² à¤ı
Ġà¤Ĩà¤® à¤°à¤£
à¤§ à¤¯
Ġà¤ľà¤² à¤®à¤Ĺ
à¥Ĥ à¥Ĥ
Ġà¤ħ à¤¡à¤µ
à¤¯ à¤Ĺà¥Ŀ
à¤ĺ à¤ļ
Ġà¤ļ à¤®à¤Ĺ
Ġà¤ªà¤¢ à¤©
Ġà¤¸à¤° à¤ľà¤®
Ġà¤¹ à¤ª
Ġà¥§à¥¯ à¥«
à¤¤ à¤ľà¤¨
à¤° à¤¶à¤¨
Ġà¤®à¤¤ à¤µ
à¤¹ à¤ķà¤°
Ġà¤¤ à¤Ĩà¤²
à¤¦ à¥ľ
Ġà¤¹ à¤°à¤¤
Ġà¤ĩ à¤°à¤¶
Ġà¤Ĩà¤ľ à¤¸
Ġà¤ħà¤¸à¤¹ à¤¯
à¤¨à¤® à¤¸
à¤µ à¤¡à¤°
à¤¶ à¤°à¤£
Ġà¤ĺ à¤ªà¤²
à¤ĸ à¤°à¤¤
à¤® à¤Ĭ
à¤¤ à¤µà¤°
Ġà¤® à¤«
à¤Ĺ à¤ľà¤¨
à¤¯ à¤¬à¤²
à¤¼ à¥Ĥà¤Ĥ
à¤« à¤ķ
Ġà¤¬ à¤°à¤¹
à¤ıà¤« à¤ı
Ġà¤ī à¤Ĺà¤¨
à¤« à¤¸
à¤ļ à¤²à¤¤
à¤ĩà¤¡ à¤¬
Ġà¤ħà¤Łà¤² à¤ľ
à¤¯à¤° à¤ªà¤°
à¤®à¤¨ à¤¸
à¤ļ à¤¶
à¤ķ à¤ł
à¤Ī à¤ıà¤®
Ġà¤ļà¤°à¤£ à¤¬à¤¦
Ġà¤¹à¤° à¤¯
à¤Ĩ à¤°à¤ķ
à¤¸ à¤ĸà¤£
à¤° à¤¥à¤²
à¤Ĺ à¥ľà¤¤
Ġà¤Ī à¤¦à¤Ĺ
à¤¬ à¤²à¤°
à¤Ī à¤ıà¤²
Ġà¤°à¤ķ à¤¬
à¤¯à¤¤ à¤¯
Ġà¥ª à¥«
à¤¨ à¤ĵà¤µà¤°
à¤Ĩà¤Ī à¤ıà¤¨
à¤ħ à¤¯
à¤Ĺ à¤§
Ġà¤ıà¤¨ à¤Ĩà¤Īà¤Ł
Ġà¤¹à¤°à¤« à¤¨à¤®
à¤®à¤¨ à¤°
Ġà¥© à¥©
Ġà¤¨ à¥ĺ
Ġà¤ħà¤ľ à¤®à¤²
Ġà¤ħà¤² à¤ĸ
Ġà¤® à¤ľà¤°
Ġà¤ħà¤¤ à¤ıà¤µ
Ġà¤ı à¤Ĩà¤°
Ġà¤Ł à¤µ
à¤Ĺà¤² à¤®à¤¯
à¥ľ à¤«
à¤¥ à¤Ĺà¤¨
à¤µà¤² à¤®
Ġà¤Ń à¤Īà¤¯
à¤°à¤¦ à¤¨
Ġà¥¨à¥¦à¥¦ à¥¯
Ġà¤µ à¤¸à¤¨
à¤°à¤£ à¤µà¤¶
à¤µà¤¨ à¤Ĺà¤°
Ġà¤¹ à¤ĩ
Ġà¤īà¤ª à¤ĸ
à¤Ĩ à¤¶
Ġà¤ıà¤²à¤ı à¤²à¤¬
à¤ĸ à¤®à¤¯
à¤½ à¤½
Ġà¤¶ à¤®à¤¨
à¤ľà¤¨ à¤Ĺà¤°
Ġà¤ıà¤¨ à¤Ĩà¤°
à¤ĩ à¤¨à¤ķ
à¤į à¥ŀ
Ġà¤Ł à¤«
à¤¦à¤¶ à¤®
Ġà¤¸ à¥ľ
Ġà¤Ł à¤¨à¤²
à¤¸ à¤¬à¤¸
Ġà¤ķà¤°à¤¤ à¤¬
à¤ľ à¤Ł
à¤¸ à¤ĳà¤°
à¤ĩà¤Ł à¤¹
à¤¬à¤° à¤²
Ġà¤īà¤¤à¤° à¤µ
à¤ı à¤ıà¤«
Ġ à¥Ĥ
à¤¸à¤° à¤¶
à¤ı à¤ıà¤²
Ġà¤¬à¤² à¤Ĺà¤®
à¤ı à¤¤
Ġà¤® à¤²à¤ķ
Ġà¤ıà¤¨ à¤«
Ġà¤¤ à¤Łà¤¬
à¤· à¤°à¤§
Ġà¤ı à¤ıà¤«à¤ª
Ġà¤ıà¤¸ à¤Ĩà¤°
à¤Ł à¤°à¤¤
Ġà¤¸ à¤ĺ
Ġà¤¸à¤¦ à¤Ĺ
à¤¸ à¤ħà¤ª
à¤ľ à¤ľ
Ġà¤®à¤¦ à¤¹
Ġà¤ı à¤Łà¤®
Ġà¤¸à¤®à¤¯ à¤¬à¤¦
Ġà¤¨à¤Ī à¤®
Ġà¤µ à¤¦
à¤Ŀ à¤µ
Ġà¤ķ à¤ı
Ġà¤Ĩà¤ĩ à¤¡à¤²
Ġà¤ķà¤Ł à¤¤
Ġà¤Ńà¤Ĺà¤¤ à¤¸
Ġà¤ļ à¤°à¤¨
à¥Īà¤Ĥ à¤Ĥ
Ġà¤ ŀ
Ġà¤¦ à¥ŀ
Ġà¥¦ à¥¦
Ġà¤¤ à¤®à¤Ĺ
à¤ıà¤ļ à¤ıà¤¸
Ġà¤Ł à¤ļà¤¸
Ġà¤ħà¤ª à¤¹
Ġà¤ıà¤Łà¤² à¤¸
Ġà¥© à¥Ń
Ġà¤¦à¤¶ à¤®à¤²à¤µ
à¤Ī à¤Ĺà¤°
Ġà¤ħà¤µ à¤ļ
Ġà¥ŀ à¤°à¤®
Ġà¤ ½
à¤ĸ à¤ªà¤¤
à¤¶à¤² à¤®
Ġà¤¯ à¤µà¤¹
à¤Ĩ à¤ĵ
Ġà¤īà¤Ľ à¤²à¤¨
Ġà¤ľà¤¨ à¤¶à¤ķ
Ġà¤ħà¤¸ à¤Ĺà¤°
à¥į à¤¿
Ġà¤ĳà¤« à¤¸
Ġà¥¨à¥¦à¥§ à¥«
Ġà¤ħà¤ķ à¤¡
Ġà¤ħ à¤ªà¤¤
à¤°à¤¸ à¤ķ
à¤ıà¤® à¤Ĩà¤°à¤¸
Ġà¤ıà¤ıà¤¨ à¤ıà¤®
Ġà¤ħà¤µà¤¸à¤° à¤µ
Ġà¥© à¥ª
Ġà¤¹à¤®à¤¸ à¤«à¤°
Ġà¤Ĩ à¤«à¤°
Ġà¤ıà¤¨ à¤ıà¤¸à¤ı
à¤¯à¤° à¤¹
à¤¸ à¥ľà¤µ
Ġà¤ķ à¤µà¤¨
à¤µ à¤¯à¤®
à¥Ģ à¥ĩ
à¤¤ à¥ľ
Ġà¤¨à¥Ľ à¤¦
à¤µ à¤¦à¤¤
Ġà¤¹ à¤°à¤µ
à¤¯ à¤µà¤¤
à¤ĳ à¤¨
à¤° à¤ħ
à¤°à¤ľ à¤ķ
Ġà¤¨à¤¤à¤® à¤¸
Ġà¤ħà¤¨ à¤¬
à¤® à¤ªà¤°
à¤ıà¤® à¤¬
Ġà¤ħà¤« à¤ľ
à¤Ľ à¤ķà¤°
Ġà¤¹à¤ľ à¤®
Ġà¤Ĺ à¥Ľà¤²
Ġà¤ª à¤ļà¤¤
à¤Ł à¤Ń
Ġà¤ĵà¤µà¤° à¤¬
à¤ľ à¤¬à¤²
Ġà¤Ľ à¤ªà¤¤
à¥Ī à¥Īà¤Ĥ
à¤°à¤ķ à¤ª
Ġà¤ļà¤°à¤® à¤°
Ġà¤¯ à¤¶à¤°
à¥ģ à¤¼
à¤¤ à¤¶à¤¤
Ġà¤Ĩà¤Ī à¤Ĩà¤°
Ġà¤ıà¤¸ à¤ıà¤¨
Ġà¤² à¤ļà¤°
Ġà¤ļà¥Ŀ à¤ķà¤°
Ġà¤¸à¤ļ à¤¦
à¤² à¤Ī
Ġà¤¤à¤¬ à¤¤à¤ķ
Ġà¤ıà¤° à¤°
à¤« à¤°à¤²
à¤¹à¤¨à¤¤ à¤ķà¤¶
Ġà¤ĩà¤¨ à¤ļ
Ġà¤Ĺ à¤«
Ġà¤¤à¤¹ à¤ľ
Ġà¤ħà¤¦ à¤¬
Ġà¤ħ à¤ľà¤¨
Ġà¤Ĺ à¤ľà¤¨
Ġà¤ħà¤Ł à¤ªà¤Ł
Ġà¥ĺ à¤¤
à¤² à¤ĺ
Ġà¤µ à¤°à¤£
Ġà¤¬à¤°à¤¤ à¤¤
Ġà¤ı à¤®à¤°
à¤ķ à¤®à¤¤
Ġà¥Ľ à¤¹à¤°
Ġà¤Ł à¤¯
Ġà¤īà¤ª à¤¸à¤°
Ġà¤ıà¤¨ à¤Ĩà¤Ī
Ġà¤ªà¤¨ à¤ªà¤¤
Ġà¤¬ à¤°à¤µ
Ġà¤¡à¤Ĺ à¤®à¤Ĺ
à¤¬ à¤Łà¤¨
Ġà¤°à¤¹ à¤µ
Ġà¤ĵà¤µà¤° à¤¡
Ġà¤Ŀ à¤¨
Ġà¤° à¤ľà¤ķ
Ġà¤ļ à¤ķà¤¤
Ġà¤ĵà¤µà¤° à¤Ł
Ġà¤° à¤Ĺà¥ľ
à¤ļ à¤¹
Ġà¤Ĳ à¤®
à¤¬ à¤¯
Ġà¤¹ à¥ľ
à¤ĺ à¤¡
à¤µà¤¨ à¤°
Ġà¤ĳ à¤µà¤°
Ġà¤¢ à¤²à¤¨
à¤ĩ à¤£
à¤µ à¤Ī
Ġà¤¨ à¤ĸà¤°
à¤§ à¤¬
à¤¡ à¤¬à¤²
à¤¦à¤¨ à¤¹
Ġà¤®à¤¦à¤¨ à¤®
à¤ı à¤Ĩà¤°
à¤¦à¤° à¤¨à¤Ĺà¤°
Ġà¤Ł à¤ĸà¤¨
Ġà¥Ń à¥¦
Ġà¤ªà¤°à¤® à¤ľ
Ġà¤¯ à¤¯
à¤µ à¤²à¤¨
Ġà¤ľà¤² à¤¦
à¤ľà¤¯à¤¨ à¤Ĺà¤°
à¤¹à¤¤ à¤Ĺ
à¤Ĺ à¤¬à¤²
Ġà¤¨ à¤Ĺà¤²
Ġà¤ľ à¤Ĺà¤°
Ġà¤ª à¤¸à¤²
à¤® à¤¬à¤²
à¤ªà¤° à¤¨
à¤¡ à¤§
Ġà¤ľà¤¯ à¤µà¤°
Ġà¤ķà¤¤à¤° à¤¨
Ġà¤ĩà¤¶ à¤°à¤¤
à¤¹à¤° à¤¦à¤Ĺ
Ġà¥® à¥¦
Ġà¤¨à¤Ĺ à¤£
à¤Ń à¤¸
à¤² à¤®à¤¨
Ġà¥Ľ à¤¬à¤°à¤¦à¤¸
Ġà¤ķà¤¨ à¤«
Ġà¤®à¤¨ à¤®à¤°
à¤ĺ à¤¤
Ġà¤ªà¤° à¤¬
à¤Łà¤ķ à¤ķ
Ġà¤ħà¤¦ à¤¦
à¤« à¤Ī
à¤Ĺ à¥ľà¤¨
Ġà¤¶ à¤°à¤¤
Ġà¤ªà¤°à¤® à¤µ
à¤¤à¤¨ à¤ķ
à¤ľà¤ª à¤ķ
Ġà¤ķ à¤ĩà¤¯
à¥Ĥ à¥į
Ġà¤ļà¤² à¤ļ
Ġà¤¸ à¤°à¤µ
à¥§ à¥¦
Ġà¤® à¤Ĺà¤¨
à¤ıà¤®à¤Ĩà¤Ī à¤ıà¤®
Ġà¤ıà¤ķ à¤¨
Ġà¤ļà¥Ŀ à¤¤
à¤¶à¤¨ à¤¹
à¤ľà¤¯ à¤µ
à¤¤à¤ķ à¤µ
Ġà¥§à¥¯ à¥©
Ġà¤ıà¤¨ à¤ĵà¤¸
à¤µ à¤¶à¤¤
à¤¬ à¤ķà¤°
Ġà¤Ĺ à¤¹à¤®
Ġà¤¹ à¤Ī
Ġà¤ļà¤® à¥ľ
Ġà¤Ľ à¤°
Ġà¤ľ à¤µà¤¨
à¤¯ à¤¥à¤¨
à¥ľ à¤ĸ
Ġà¤¸ à¤°à¤®
Ġà¤® à¤Łà¤¨
à¤¬ à¤µà¤¤
à¤¤à¤® à¤¯
Ġà¤Ŀ à¥ľà¤ª
Ġà¤¹à¤°à¤¦ à¤®
à¤ª à¤ªà¤¤
à¤Ĺà¤² à¤¬
Ġà¤²à¤¡ à¥ĺ
à¤µà¤¨ à¤Ńà¤°
Ġà¤Ń à¤Ń
à¤ħ à¤®à¤°
Ġà¤īà¤° à¤Ī
Ġà¥¨à¥¦à¥§ à¥¨
à¤¦ à¤°à¤ķ
à¤²à¤ķ à¤¶
Ġà¤ĩ à¤ķà¤°
Ġà¤¦ à¤®à¤ķ
à¤ĩ à¤µà¤²
à¤¹à¤° à¤¨
Ġà¤¤ à¤¶
Ġà¤¶ à¤¹à¤¤
Ġà¤¬à¤ļ à¤ķ
Ġà¥¨à¥¦à¥¦ à¥®
à¤ĳ à¤²
à¤ª à¤Łà¤ķ
Ġà¤ħà¤¶ à¤«
à¤ĳ à¤ªà¤°
à¤¤ à¤²à¤¨
Ġà¤®à¤° à¤ľ
à¤¡à¤° à¤Ł
Ġà¤µ à¤¸à¤²
à¤ļ à¤ķà¤¤
Ġà¤ªà¤² à¤¡
à¤°à¤µ à¤ª
à¤ķà¤Ł à¤µà¤°
Ġà¤ķ à¥Ŀ
à¤ıà¤« à¤ıà¤¸
Ġà¤Ł à¤°à¤¬
Ġà¤ĵ à¤¶à¤¨
Ġà¥¨à¥¦ à¥¨à¥¦
à¤² à¤¥
Ġà¤¯ à¥ĺ
à¤Ĺ à¤µà¤°
Ġà¤Ł à¤¸
à¤Ĺ à¤°à¤ķ
Ġà¤¡ à¤¬à¤°
à¥Ī à¤¼
à¤Īà¤ıà¤¸ à¤Ĩà¤°
Ġà¤¤ à¤¬à¤°
Ġà¤ªà¤£ à¤ľ
Ġà¤Ĺ à¤®à¤¨
à¤ıà¤² à¤Ĩà¤°
Ġà¤īà¤ª à¤²
à¤ıà¤¨ à¤Ĩà¤Ī
Ġà¤ķà¤Ł à¤¹à¤²
Ġà¤ħ à¤ĩà¤¸à¤¨
Ġà¤ļà¤² à¤µ
à¤¡à¤² à¤¸
Ġà¤¸à¤¤ à¤²
Ġà¤¨à¤¹ à¤¸
Ġà¤ª à¤¨à¤°
Ġà¤¸à¤¤ à¤Ĺ
à¤ĸ à¤¯
Ġà¤ĩ à¥ŀ
Ġà¤¤à¤° à¤¸à¤¤
à¤Ĺà¤² à¤®
Ġà¤ķà¤ł à¤ĺà¤°
à¤Ĭ à¤²
à¤°à¤ľ à¤Ń
à¤ĭ à¤·
à¤ĩà¤ªà¤° à¤Ł
à¤² à¤ľà¤¯
Ġà¤ıà¤« à¤ıà¤®à¤¸
Ġà¤Ń à¤°à¤¸à¤ķ
Ġà¤ıà¤Ĩà¤Ī à¤ıà¤®à¤Ĩà¤Īà¤ıà¤®
Ġà¤Ĺ à¤¹à¤¨à¤¤
Ġà¤ľà¤² à¤§
à¤µà¤°à¤£ à¤µ
Ġà¤Ĩà¤Ī à¤ıà¤¨à¤ıà¤ķ
Ġà¤¡ à¤Ĺà¤°
Ġà¤Ĺ à¤¦à¤Ĺ
Ġà¤ľà¤¨ à¤Ń
à¤°à¤ª à¤Ł
Ġà¤ªà¤¡ à¤©
Ġà¤Ŀà¤Ł à¤ªà¤Ł
Ġà¤°à¤¸ à¤Ĺ
à¤¸à¤¨ à¤¹
à¤§ à¤°à¤¤
à¤Ń à¤ķà¤°
Ġà¤ıà¤² à¤ıà¤¸
Ġà¤ı à¤ı
Ġà¤¸à¤¹ à¤ľà¤¨
à¤¨à¤µ à¤Ń
Ġà¤Ĳ à¤¡à¤®
Ġà¤Ĺ à¤ļ
Ġà¤ıà¤¸ à¤ıà¤®
à¤ıà¤ļ à¤ıà¤²
à¥ļ à¤²
Ġà¤ħà¤ªà¤¤ à¤Ł
à¤µà¤¨ à¤¯
à¤¾à¤Ĥ à¤Ĥ
à¤¸à¤® à¤°
Ġà¤¶à¤° à¤¬à¤¤
à¤² à¤µà¤°
à¤ĩà¤¸ à¤ľ
Ġà¤ħà¤µ à¤Ĺ
à¤ĩ à¤¹
à¤° à¤½
Ġà¤« à¤°à¤ķ
Ġà¤® à¤ľà¤¨
à¤¯ à¥Ľ
à¤² à¤ı
Ġà¤Ī à¤·
Ġà¤ĸ à¤Ĺà¤¡
à¤§ à¤Ĺà¤¯
Ġà¤ħà¤¨ à¤«
Ġà¤ĵ à¤Ľ
à¥Ľ à¤¨à¤¸
à¤ıà¤² à¤ıà¤¡
Ġà¤ĵ à¤¬à¤°
Ġà¤®à¤¶ à¤µ
Ġà¤īà¤ªà¤ļ à¤¯
Ġà¤Ŀ à¤ª
Ġà¤² à¤²à¤¨
Ġà¤ľ à¤ķà¥ľ
Ġà¤ķ à¤¤à¤¤
Ġà¤Ĩ à¤¢
à¤¹ à¤§
à¤ľ à¤Ī
Ġà¤®à¤¨ à¤¦
Ġà¤īà¤Ńà¤° à¤ķà¤°
à¤µà¤¤ à¤ĸ
Ġà¤ĵ à¤¤
à¥Ľ à¤®
à¤ıà¤¨à¤ıà¤¨ à¤ıà¤ķ
à¤° à¤ħà¤¨
Ġà¤¥ à¤ķà¤¤
à¤§ à¤®à¤¨
à¤Ĺà¤² à¤¸à¤°
Ġà¤¨ à¥ŀ
Ġà¤ª à¤ļà¤¨
Ġà¥Ļ à¤¤à¤°
à¤ľà¤ķ à¤®à¤²
Ġà¤ªà¤° à¤ª
Ġà¤®à¤¦ à¤¤
à¤¤ à¤Ĺà¤¤
Ġà¤īà¤ª à¤¶
à¤¥ à¤¹
à¤® à¤®à¤¤
Ġà¤ĺ à¤Ī
à¤²à¤¬ à¤¹
Ġà¤ı à¤ıà¤ļ
à¤¸ à¤ıà¤¨à¤ıà¤¨à¤ıà¤ķ
Ġà¤ı à¤Ĩà¤Īà¤¸
à¤²à¤® à¤ľ
à¤¯à¤° à¤ª
Ġà¤ī à¤¥à¤ª
à¤ħ à¤ĸ
à¤²à¤¨ à¤¸
à¤ĩ à¤µà¤¸
Ġà¤ĩà¤¸ à¤¬
Ġà¤ıà¤ķ à¤Ł
Ġà¤ķà¤° à¤ķà¤°
Ġà¤¦ à¤°à¤¸
Ġà¤¸à¤ľ à¤Ĺà¤¤
à¤ª à¤²à¤¬
à¤¸ à¤¹à¤°
Ġà¤¸à¤° à¤«
Ġà¤ıà¤² à¤ıà¤¨à¤ľ
Ġà¤¥à¤° à¤¥à¤°
à¤Łà¤° à¤¶
à¤°à¤® à¤¬à¤¦
Ġà¤ħ à¤°à¤£
Ġà¤ıà¤¸ à¤Ī
Ġà¤®à¤¤ à¤ªà¤¤
Ġà¤° à¤ľà¤µ
à¥ŀ à¤¤
à¤ł à¤¤à¤®
à¤¸à¤ķ à¤¨
Ġà¤ł à¤Ĺà¤¨
à¤Ĩ à¤ĩà¤ı
Ġà¤ıà¤ķ à¤®à¤¤
à¤¤ à¤ļà¤°
Ġà¤¬à¤² à¤ľ
Ġà¤Ĺà¤¦à¤Ĺ à¤¦
à¤° à¤ı
à¤¤à¤¨ à¤µ
Ġà¥Ľ à¤¬
à¤¬ à¤ĸ
à¤Ĥ à¥ģ
Ġà¤ľà¤² à¤Ĺ
Ġà¤¹ à¤ķà¤²
Ġà¤¹ à¤Ĺ
Ġà¤ī à¤ľà¤²
à¤ľà¤Ĺ à¥Ŀ
Ġà¥Ļ à¤¯
Ġà¤ľ à¤Ī
Ġà¤¸à¤¹ à¤¦
à¤¦à¤® à¤¯
à¤ľ à¤Ĺà¤¤
à¥ī à¤ģ
Ġà¤ĺà¤¨ à¤ĺ
à¤ª à¤¸à¤¨
Ġà¤ľ à¤ľà¤®
Ġà¤ħà¤® à¤°à¤¤
Ġà¤ªà¤¤ à¤Ŀ
Ġà¤ı à¤Ī
à¤¤ à¤¹à¤¤
à¤· à¤ļà¤¨
à¤ĸ à¤ľ
à¤§ à¤µà¤¨
à¤ª à¤®à¤¤
à¤® à¤Ī
Ġà¤ĵ à¤®à¤ķ
Ġà¤ļ à¤ķà¤¨
à¤¤ à¤µà¤¨
Ġà¤Ĭ à¤§
Ġà¤¡ à¤¯
à¤ľà¤¨ à¤¤
à¤¦à¤° à¤µà¤¨
Ġà¤¸ à¤Ĺà¤°
à¤Łà¤° à¤°
Ġà¤« à¤²à¤¨
à¤Ĩà¤ĩ à¤Ĩà¤°
à¤ķ à¤¶à¤¨
Ġà¤Ĩà¤Īà¤ıà¤® à¤¡
à¤ĩà¤Ł à¤®
à¤Ĩà¤Ī à¤¬
Ġà¤ĸà¤² à¤²
à¤° à¤¡à¤®
à¤ľ à¤¦à¤°à¤¬
Ġà¤ıà¤¨ à¤Ī
à¤ª à¤Łà¤²
Ġà¤¬ à¤Ī
Ġà¤īà¤¨ à¤¹
Ġà¤¨à¤µà¤Ĺ à¤Ľ
Ġà¤Ī à¤ıà¤¸
à¤ıà¤¸ à¤Ĩà¤Īà¤Ĩà¤°
Ġà¤ıà¤Ĩà¤Ī à¤ıà¤¡
Ġà¤¡ à¤¨
à¥Ģà¤Ĥ à¤Ĥ
Ġà¤¸à¤° à¤ļ
à¤¨ à¤¹à¤²
à¤ĩ à¤ľà¤¨
à¤¬ à¥ľà¤¤
Ġà¤Ī à¤Ĺà¤²
Ġà¤ª à¤«
Ġà¥¨à¥¦à¥§ à¥©
à¤ĩ à¤¸à¤°
Ġà¤Ī à¤ıà¤®à¤ıà¤¸
Ġà¤Ĩà¤Īà¤ıà¤® à¤ı
Ġà¤² à¤¬à¤°
à¤ī à¥Ľà¤°
Ġà¤ħà¤¹à¤® à¤¦à¤¨à¤Ĺà¤°
à¤ķ à¤·
Ġà¤Ĩ à¤ķà¤¡
à¥Ŀ à¤¨
à¤¼ à¤¼
Ġà¤« à¤ĸà¤°
Ġà¤Ĩà¤Ī à¤Īà¤¡
à¤ī à¤µ
Ġà¤¬à¤° à¤Ĺ
Ġà¤¬ à¤£
Ġà¤ıà¤¸à¤ĵ à¤ľ
à¤ķ à¤®à¤Ĺà¤¢
Ġà¤ĸ à¤°à¤¸
Ġà¤ıà¤® à¤ıà¤ļ
à¤¹ à¤Ĺà¤¢
à¤°à¤¹ à¤¸
Ġà¤ı à¤Ĩà¤Īà¤ª
à¤ķ à¤¦à¤°
à¤¿ à¥°
Ġà¤Ĩà¤ī à¤Łà¤°
à¤¤à¤² à¤¹à¤°
à¤Ĩà¤° à¤ľ
Ġà¤ľ à¥Ľ
Ġà¤²à¤Ĺ à¤ķà¤°
Ġà¤ħà¤¨ à¤Ł
Ġà¤¹à¤ľà¤°à¤¤ à¤Ĺ
Ġà¤Ĩà¤° à¤µ
Ġà¤Łà¤¹ à¤²à¤¤
Ġà¤Ĺà¤ł à¤°
Ġà¤ıà¤² à¤ıà¤²
Ġà¤« à¥ľ
à¤¯à¤¨ à¤ª
Ġà¤ĵ à¤¯
à¤¤à¤° à¤µ
Ġà¤ħà¤Ĺ à¤°à¤¤à¤²
Ġà¤ļ à¤ĸà¤¨
à¤¦ à¤®à¤¤
à¤· à¤¯à¤µà¤¸
à¤¶ à¤¶
à¤°à¤ĸ à¤§
à¤¸ à¤Łà¤¨
à¤°à¤£ à¤¤
à¤¨ à¤Ĺà¥Ŀ
Ġà¥ª à¥¨
à¤ľ à¤ĺà¤°
à¤µà¤° à¤ļ
Ġà¤ĺ à¤²
à¥ĭ à¤¼
à¤¯à¤® à¤µà¤°
Ġà¤ıà¤¸ à¤ıà¤¨à¤¬
à¤¦ à¤¯à¤¤
Ġà¤² à¤ĸà¤µ
Ġà¤ħà¤® à¤ľà¤¦
Ġà¤ħà¤¨ à¤ķ
Ġà¤ıà¤ļ à¤ıà¤ıà¤²
à¤ª à¤¸à¤®
Ġà¤ªà¤¤à¤° à¤¸
à¤¨ à¤ıà¤®
à¤¹à¤¨ à¤¦
à¤¡à¤ķà¤° à¤¨à¤Ĺà¤°
Ġà¥¯ à¥¦
Ġà¤ļà¤®à¤ļ à¤®
à¤ĩà¤¡ à¤¶
Ġà¤¨à¤ľ à¤®
Ġà¤Ĺà¤® à¤Ľ
Ġà¤ıà¤ļ à¤¬
Ġà¤¬ à¤ªà¤¤
Ġà¤¡ à¤Łà¤ķà¤°
Ġà¤² à¤¹à¤²
Ġ à¥ľ
Ġà¤¤ à¤²à¤¨
Ġà¤¸à¤¦ à¤Ń
à¤ľ à¤¯à¤¦
Ġà¤Ĩ à¤¡à¤®
à¤²à¤Ń à¤Ń
Ġà¤®à¤¶ à¤Ĺ
Ġà¤¸à¤® à¤Ń
à¤¸ à¤ı
à¤¬à¤° à¤¶
Ġà¤ı à¤ıà¤¸à¤Ł
Ġà¤®à¤¹ à¥Ľ
Ġà¥© à¥®
Ġà¤īà¤ª à¤ķà¤ª
à¤§ à¤¦
à¤ļ à¤Ĺ
Ġà¤® à¤¥à¤¨
Ġà¤īà¤ªà¤¸ à¤Ń
Ġà¤¦à¤¹à¤¶à¤¤ à¤Ĺà¤°
Ġà¤ı à¤ıà¤®
à¤£ à¤ľ
Ġà¤ķà¤Ī à¤¯
Ġà¤īà¤¨ à¤²
Ġà¤ķ à¤īà¤¨
à¤ĩà¤¨ à¤ħà¤ª
à¤°à¤ķ à¤¨
Ġà¤ıà¤¡ à¤¸
Ġà¤¬à¤¤ à¤ĸ
Ġà¤Ĩà¤¸à¤¨ à¤¸
Ġà¤īà¤ļ à¤ķ
Ġà¤ħà¥ľ à¤ļà¤¨
Ġà¤¬à¤² à¤ª
à¤ĵ à¤Ĩà¤Ī
Ġà¤ļ à¤µà¤¨
à¤°à¤¸ à¤®
à¤ª à¤µà¤°
à¤² à¤Ĺà¤°
Ġà¤²à¤Ĺ à¤²
à¤ĸà¤¨ à¤²
à¤ıà¤¨ à¤Ĩà¤°
à¤® à¤«à¤²
à¤µà¤° à¤µ
Ġà¤¤ à¤Ĺà¥ľ
à¤ħ à¤¶
à¤ª à¤«
Ġà¤ĵà¤Ŀ à¤²
à¤² à¤Ńà¤Ĺ
à¤¬à¤² à¤¸
Ġà¤®à¥Ľ à¤¹à¤¬
Ġà¤¬ à¤°à¤¦
Ġà¤¨ à¤Ĺà¤®
à¤ıà¤® à¤µ
à¤¨ à¤ıà¤¶
à¤¨à¤ķ à¤®à¤¤
Ġà¤ıà¤¨ à¤ıà¤¸à¤ıà¤¸
à¤¹à¤° à¤µ
à¤Ł à¤ľà¤°à¤²
à¤ķà¤¨ à¤Ĺà¤°
Ġà¤¦à¤® à¤ĸà¤®
Ġà¤¦ à¤§
Ġà¤¸à¤¬ à¤®à¤°
à¤¡à¤¬ à¤¡
Ġà¤ľ à¤¯à¤®
Ġà¤¦ à¤ĸà¤Ń
Ġà¤ıà¤® à¤ıà¤®à¤ıà¤¸
Ġà¤ħà¤ĸ à¤²
Ġà¤Ĺ à¤²à¤¨
à¤ķà¤Ł à¤®
Ġà¤ħà¤¶ à¤°
Ġà¤µ à¥ŀ
à¤ļ à¤Ł
Ġà¤ļ à¤ªà¤¤
à¤°à¤ļ à¤£
Ġà¤¬à¤° à¤¬à¤¸
à¤ķ à¤ĩ
Ġà¤Ĩ à¤ĵà¤Ĺ
à¤Ŀ à¤ªà¤°
à¤² à¤Ĺà¤¤
à¤°à¤® à¤ķ
Ġà¤¸à¤® à¤ľ
à¤²à¤¹ à¤µ
Ġà¤¹à¤® à¤ľ
Ġà¤ª à¤¨à¤µ
à¥į à¥Ģ
Ġà¤ı à¤®à¤¨
à¤Ń à¤®à¤¨
à¤° à¤°à¤ķ
à¤ķà¤° à¤ª
Ġà¤ķà¤° à¤¹
Ġà¤ıà¤¨ à¤Ĩà¤Īà¤¸
Ġà¤® à¥ľ
Ġà¤Ł à¤ķà¤¸
à¤Īà¤Ī à¤Īà¤Ī
Ġà¤ħà¤ķ à¤¸
Ġà¤īà¤Ĺ à¤²à¤¤
Ġà¤ħ à¤¸à¤¨
à¤² à¤ªà¤°
à¤¡ à¤¬à¤°
à¤¯à¤¨ à¤°
à¤¯à¤¯à¤¨ à¤°à¤¤
à¤Łà¤° à¤¡
Ġà¤¨à¤µ à¤ª
Ġà¤ĵ à¤ľà¤¸
Ġà¤īà¤§ à¤®
Ġà¤®à¤¹ à¤ķà¤¤
à¤¡à¤° à¤ª
Ġà¤ķà¤¹ à¤¬
à¤°à¤Ĺ à¤®à¤¨
à¤µ à¤Ńà¤ķ
Ġà¤®à¤¨ à¤¸à¤¬
à¤ªà¤¨ à¤¦
à¤¯à¤® à¤«
Ġà¤¡à¤¬ à¤µ
à¤ķà¤° à¤¤
à¤ĩà¤« à¤Ł
Ġà¤ªà¤¢ à¤ķà¤°
Ġ à¥Ī
Ġà¥« à¥«
à¤ľà¤¨ à¤¶
à¤ľ à¤ķà¤ª
Ġà¤ĩ à¤¤à¤µ
Ġà¤¬à¤¨ à¤ķ
Ġà¤®à¤¦à¤¨ à¤²
à¤¾à¥ħ à¤Ĥ
Ġà¤²à¤¹à¤² à¤¹
Ġà¤ıà¤« à¤Ĩà¤ĩà¤Ĩà¤°
à¤Ĭ à¤°
Ġà¤ıà¤® à¤Ĩà¤°
à¤¦ à¤¤à¤®
Ġà¤ķ à¤½
Ġà¤ı à¤Ĩà¤¸
à¤¹à¤¨ à¤ľ
à¤¤ à¤²à¤¤
Ġà¤ħà¤° à¤¹
Ġà¤ıà¤Ĩà¤¸ à¤¯à¤®à¤«
Ġà¤īà¤§ à¤®à¤ª
à¤ªà¤¤ à¤²
à¤ł à¤¸
Ġà¤¢ à¤¹à¤¨
à¤Ĭ à¤ľ
à¥ĩà¤Ĥ à¥ĩ
à¤ķà¤° à¤®
Ġà¤¡ à¤°à¤ª
à¤ıà¤¸ à¤µ
à¥ Ħ
Ġà¤¦à¤®à¤¨ à¤ķ
Ġà¤¤à¤² à¤¹à¤Ł
Ġà¤ı à¤ħ
Ġà¤ĵà¤° à¤Ľ
à¤¯à¤² à¤ķ
Ġà¥§à¥¯ à¥¨
Ġà¤¸à¤° à¤ľ
à¤ªà¤Ł à¤¤
Ġà¤ĩ à¤ĸ
à¤ªà¤° à¤¬
Ġà¤ĵ à¤ĸà¤²
à¤Ń à¤µà¤¨
Ġà¤ªà¤² à¤Łà¤¤
Ġà¤īà¤ª à¤§
Ġà¤¬ à¤Ľ
Ġà¤Ĩà¤° à¤Ĩà¤°
à¤· à¤²
Ġà¤Ĺ à¤Łà¤°
Ġà¥ª à¥®
Ġà¤ķà¤² à¤¸
Ġà¤®à¤¨ à¤Ń
à¤°à¤µ à¤§
Ġà¤¸à¤¹à¤¨ à¤¶à¤ķ
à¤ª à¤²à¤°
à¤² à¤ĸà¤¤
Ġà¤¹ à¤¡à¤ķ
Ġà¤ĸ à¤¤à¤¨
Ġà¤ĳ à¤¬à¤¸
Ġà¥¨à¥¦à¥¦ à¥Ń
à¤° à¤ĩà¤Ł
Ġà¤®à¤¹ à¥ŀ
à¤¤ à¤¬à¤°
Ġà¤¯ à¤¸à¤Ń
Ġà¤¬à¤° à¤Ĺà¤²
Ġà¤ľà¤¨ à¤²
Ġà¤ħà¤¸ à¤¬
Ġà¤Ľ à¤Ĺ
Ġà¤ħ à¤°à¤ķ
à¤ª à¤ķà¤¡
à¤Ĩ à¤ĩà¤ª
Ġà¤Ī à¤¸à¤µ
à¤¶à¤¨ à¤ª
à¤ķà¤° à¤ĺ
à¤ĩ à¤¥
à¤ķ à¤ı
Ġà¥Ļ à¤¤à¤®
Ġà¤¹à¤¸ à¤¬
à¤ıà¤² à¤ıà¤¸
Ġà¤ħ à¤¹à¤°
à¤ķà¤° à¤µ
Ġà¤¯ à¤®à¤²
Ġà¤Ĩà¤°à¤ıà¤² à¤¡
Ġà¤Ĩà¤Ī à¤ıà¤¸à¤¬
Ġà¤ķ à¤¸à¤ķ
Ġà¤ķà¤® à¤¸
à¤¯à¤ķ à¤¶
Ġà¤¤à¤Ł à¤°à¤ķ
Ġà¤ĭà¤£ à¤¦
Ġà¥¦ à¥§
à¤¡ à¤ħà¤ª
à¤µà¤² à¤°
Ġà¤® à¥ĺ
à¤® à¥Ŀ
Ġà¤īà¤ª à¤ĸà¤£
à¤² à¤§
à¤ł à¤¦
à¤§ à¤ľà¤¨
à¤ļà¤¤ à¤¤
Ġà¤ķà¤¥ à¤ķà¤²
à¤Ĭ à¤Ĭ
à¤Ĩ à¤°à¤¤
à¤¡ à¤°à¤¸
à¤¡ à¥ĺà¤°
Ġà¤¬à¤¢ à¤ķà¤°
Ġà¤¨ à¤Łà¤µà¤°
à¤ıà¤¸ à¤ľ
Ġà¤ıà¤® à¤Ĩà¤°à¤Ĩà¤Ī
à¤ıà¤¸à¤ıà¤¸ à¤¸
Ġà¤ªà¤Ł à¤ĸà¤¨
Ġà¥ª à¥ª
Ġà¤ı à¥ľ
Ġà¤īà¤¬ à¤²à¤¨
Ġà¤Ĩà¤¯ à¤¤à¤¨
à¤µ à¤¸à¤°
à¤°à¤ª à¤¤à¤¨
Ġà¤¬à¤Ĺ à¤¹
Ġà¤¬à¤¦ à¤ķ
Ġà¤¬ à¤¥
à¤£ à¤§
Ġà¤ªà¤² à¤Łà¤ķà¤°
à¥Ĥ à¥°
Ġà¤¹à¤¤ à¤ª
Ġà¤ľ à¤łà¤°
Ġà¤Ń à¤µà¤¤
Ġà¥© à¥¯
Ġà¤ıà¤¸ à¤ıà¤®à¤Ł
à¤¸ à¤ļà¤°
Ġà¥ĺ à¤¬
Ġà¤®à¤¨ à¤¹
Ġà¤µà¤ļà¤¨ à¤¬à¤¦
à¤Łà¤° à¤ıà¤ķ
Ġà¤¹à¤° à¤¬
Ġà¤¨ à¤¨à¤ķ
Ġà¤¸à¤® à¤µ
Ġà¤Ľ à¥ľ
Ġà¤¤à¤¨ à¤¹
Ġà¤¶ à¤¬à¤°
Ġà¤Ŀ à¤¬à¤°
à¤ĳ à¤¨à¤²
Ġà¤Ĩ à¤¹à¤°à¤£
à¤®à¤¤ à¤²à¤¬
Ġà¤Ĩ à¤ĩà¤¬
Ġà¤ķà¤Ł à¤ķà¤°
à¤¦ à¤¹à¤µ
à¤¡ à¤ªà¤®
à¤Ł à¤ļ
Ġà¤¢à¤ķ à¤ķà¤°
Ġà¤Ľ à¤Ĭ
Ġà¤ħ à¤¶à¤ķ
Ġà¤ħà¤¨à¤ª à¥Ŀ
Ġà¤¸à¤ľ à¤¦
à¤ļ à¤²à¤ķà¤°
Ġà¤¦à¤² à¤ľ
Ġà¤Ĩà¤Ĺ à¤®
Ġà¥« à¥§
à¥ĥ à¥°
Ġà¤ħà¤ķà¤¬à¤° à¤ª
Ġà¤®à¤¨à¤¸à¤¬ à¤¦
Ġà¤ı à¤ľà¤°
à¤Ĺà¤µ à¤¶
à¤² à¤Łà¤¨
Ġà¤§à¤¨ à¤¶
Ġà¤Ł à¤ªà¤ķà¤¤
à¤§à¤¨ à¤ª
Ġà¤®à¤¹ à¤¨
à¤¤ à¤²à¤ķ
Ġà¤ľà¤² à¤ľà¤®
Ġà¤Ī à¤¥
Ġà¤ª à¤²à¤¨
Ġà¤§à¤¨ à¤ĸà¤¡
à¤¯à¤Ń à¤Ł
à¤¸ à¤²à¤¤
à¤² à¤¹à¤ķ
à¤ĭ à¤¤
Ġà¤Ŀ à¤ķ
Ġà¤¤ à¥ĺà¤°
à¤¿ à¤ģ
Ġà¤ķà¤¥ à¤ķ
Ġà¤ĩà¤° à¥ŀ
Ġà¤¸à¤° à¤Ĺà¤®
Ġà¤īà¥ľ à¤¦
à¤°à¤Ĺ à¤£
à¤¨ à¤µà¤¸
à¤īà¤¨ à¤¶
Ġà¤ľà¤² à¤ķ
à¤® à¤ħ
Ġà¤¨ à¤ĸ
Ġà¤¬à¤°à¤¸ à¤¨
Ġà¤¸à¤° à¤¸à¤°
Ġà¤ĸ à¤¶
Ġà¤¬à¤¹ à¤ķà¤°
Ġà¤ħà¤ªà¤¹à¤°à¤£ à¤ķà¤°
Ġà¤ľ à¤ļ
à¤µà¤° à¤Ĺ
à¤¹à¤° à¤ª
à¤¹ à¤ľà¤¨à¤ķ
Ġà¤ĳà¤² à¤Ĩà¤īà¤Ł
Ġà¤¬ à¤ĩ
Ġà¤ļ à¤°à¤ķ
à¤° à¤µà¤¨
à¤ĩà¤² à¤¸
Ġà¤ıà¤¨à¤ıà¤ļ à¤ıà¤Ĩà¤Ī
Ġà¤¤ à¤®à¤¸
Ġà¤® à¤¸à¤°
à¤Ł à¤ļà¤°
à¤¹ à¤®à¤¤
à¤² à¥Ľ
Ġà¤¡à¤° à¤ķà¤°
à¤Ĩ à¤ĩà¤¸
à¤ĩà¤Ł à¤µ
Ġà¤īà¤²à¤Ŀ à¤¤
Ġà¥¦ à¥¯
Ġà¤Ŀ à¤ªà¤ķà¤¤
Ġà¤ħà¤ª à¤Ń
à¤ľà¤² à¤µ
à¤¬ à¤°à¤ķ
Ġà¤ĳ à¤ķà¤²
Ġà¤Ī à¤ıà¤¸à¤ª
Ġà¤ľà¤¯ à¤¸à¤®
Ġà¤Ĩà¤® à¤¸à¤Ń
à¤ľ à¤°à¤µ
à¤§à¤¨ à¤Ĺà¤°
Ġà¤ªà¤ķà¥ľ à¤¤
Ġà¤ħà¤¬ à¤²
Ġà¤Ľ à¤ľ
Ġà¤¶à¤° à¤ľ
Ġà¤« à¤Ĺ
à¤ľ à¤ķà¤µ
Ġà¤ħà¤¶ à¤Ĩà¤°
Ġà¤Ĩà¤° à¤ı
à¤¯à¤® à¤¶
à¤ĵ à¤ıà¤®
à¤ĺ à¤µà¤°
Ġà¤¯ à¤¡
Ġà¤ľà¤¨ à¤ªà¤¥
Ġà¤¯ à¤«à¤²
Ġà¤¸à¤¤ à¤µ
à¤µ à¤ĺ
à¤ķ à¤Ĺà¤£
Ġà¤Ĩà¤ļ à¤®à¤¨
Ġà¤¤ à¥ĺ
à¤ıà¤® à¤ıà¤ļà¤ĵ
à¤¬ à¤ķà¤®
Ġà¤ī à¤µ
Ġà¤īà¤Ń à¤¯à¤²
à¤Ĥ à¥Ĥ
Ġà¤Ĺà¤£ à¤Ĺ
Ġà¤ķ à¥ľà¤ķ
à¥© à¥¦
à¤² à¤ªà¤®
à¥Ī à¥į
Ġà¤Ĺ à¤¸
Ġà¤ī à¤ĺ
Ġà¤¬à¤¦ à¤¹à¤µ
Ġà¤¯ à¤ľà¤®
Ġà¤ıà¤¸ à¤Īà¤¸
à¤¯à¤® à¤¤
à¤Ĺà¤® à¤¯
à¤¶ à¤µà¤°
Ġà¤®à¤ľ à¤®
à¤ªà¤¨ à¤Ĺà¤°
à¤¤ à¤ĸà¤£
à¤ĺ à¤²à¤¤
Ġà¤ıà¤« à¤ıà¤Ł
Ġà¤ħà¤ķà¤¬à¤° à¤¨
à¤ħ à¤¸à¤®
à¤¸ à¤®à¤²
à¤¤ à¤ķà¤²
à¤²à¤¸ à¤ļ
à¤¯ à¤£à¤¨
Ġà¤ıà¤¨ à¤ı
à¤į à¤¸
Ġà¤¹ à¥ľà¤ª
Ġà¤Ĩ à¤²à¤°
Ġà¤ı à¤¸à¤°
Ġà¤µ à¤¨à¤®
à¤®à¤¦ à¤²
Ġà¤¬à¤¨ à¤²
à¤ªà¤° à¤ľ
à¤ľ à¤¯à¤ķ
à¤° à¤ľà¤°
à¤¨ à¤¹à¤Ł
à¤¶ à¤ļà¤¨
Ġà¤ĳ à¤¥
à¤Ľ à¤°à¤¦
à¤ķ à¤ĵà¤µà¤°
à¤į à¤¨
à¤ľà¤¨ à¤°
Ġà¤Ĩà¤µ à¤¤
Ġà¤Ķ à¤«
à¤· à¤ļ
Ġà¤ħà¤¨ à¤µ
Ġà¤Ķ à¤¨
Ġà¤ħ à¤¦à¤°
à¤ľà¤¬ à¤ķ
Ġà¤ķ à¤ķà¤°
Ġà¥ļ à¤®
à¤¹ à¤¶
Ġà¤¸à¤® à¤°à¤¸
à¤« à¤«
à¤² à¤ĸà¤°
Ġà¤Ĺà¤¦ à¤¹
Ġà¤¸à¤® à¤¦
à¤¬ à¤¢
Ġà¤¶à¤ķà¤° à¤ķ
à¤°à¤¤ à¤ĸ
à¤°à¤« à¤¤
Ġà¤¢ à¤°
Ġà¥ª à¥§
Ġà¤¶ à¤¯
Ġà¤īà¤Ľà¤² à¤ķà¤°
Ġà¤ķ à¤«à¤¨
à¤®à¤ķ à¤¶
à¤Łà¤° à¤Ĺ
à¤µ à¤¦à¤°
Ġà¤Ĺ à¥Ľà¤¬
à¤µà¤ª à¤²
à¤¨ à¤ĺ
à¤µà¤² à¤ķà¤°
Ġà¤Ī à¤¡à¤¬
Ġà¤¶à¤ªà¤¥ à¤Ĺ
Ġà¤Ĭ à¤Ł
Ġà¤Ĩà¤¸ à¤µà¤¨
à¤¢ à¤¸
Ġà¤ĵ à¤ıà¤¸à¤¡
à¤¨à¤¯ à¤ªà¤¤
Ġà¤ķ à¤ĩ
Ġà¤ıà¤¸ à¤Ĩà¤Īà¤ª
à¤¤ à¤¥
à¤°à¤£ à¤ķà¤°
à¥ª à¥¦
Ġà¤ľà¤¯à¤¨ à¤Ĺà¤°
Ġà¤Ĩà¤°à¤ıà¤« à¤Ĩà¤Īà¤¡
à¤¦ à¤ļ
à¤¸à¤² à¤ķà¤°
Ġà¤¡ à¤®à¤°
Ġà¥ ł
Ġà¤¸à¤® à¤§
Ġà¤²à¤ĸ à¤ªà¤¤
Ġà¤ıà¤¸ à¤ıà¤ļ
Ġà¤ıà¤« à¤Ĩà¤Ī
à¤²à¤¨ à¤¹
à¤µà¤° à¤¹
Ġà¤²à¤¡ à¤¨
Ġà¥§à¥¯ à¥§
à¤ī à¤¨à¤Ł
Ġà¤ħà¤² à¤ķà¤¨
Ġà¤ĩà¤¨ à¤ªà¤°
à¤Ń à¤Ł
Ġà¤¨à¤ĩ à¤ĸ
à¤ķ à¤®à¤²
Ġà¤µà¤¹ à¤¶
à¤µà¤¨ à¤ª
à¤¶ à¤«
Ġà¤¤ à¤Łà¤µà¤°
Ġà¤® à¤²à¤¤
à¤Ĺ à¤ľà¤¨à¤ķ
Ġà¤Ĩà¤¦ à¤¤à¤¨
Ġà¤Ī à¤Ī
Ġà¤¬à¤¡ à¤Ĺ
à¤¤ à¤Ĺà¤£
Ġà¤¦à¤¬ à¤ķà¤°
à¤²à¤Ńà¤Ĺ à¤¢
à¤¸à¤² à¤ª
à¤§ à¤µà¤°
à¤Ī à¤ķà¤²
à¤°à¤® à¤¤
Ġà¤ª à¤²à¤¤
à¤Ĳ à¤Ĺ
Ġà¥ª à¥©
Ġà¤ªà¤¡ à¤¨
Ġà¤§ à¤¨à¤²
Ġà¤ĵ à¤¤à¤ª
à¤¶ à¤§
à¤²à¤Ĺ à¤ª
Ġà¤łà¤¹à¤° à¤ķà¤°
à¤® à¤¸à¤°
à¤ļà¤¨ à¤²
à¤¨à¤Ĺà¤° à¤ª
Ġà¤ħà¤µ à¤°à¤ķ
Ġà¤¶ à¤²à¤Ń
Ġà¤ªà¤¹à¤² à¤Ĺ
à¤Ĩ à¤ªà¤°
Ġà¤ĭ à¤¦
à¤ĺ à¤Łà¤ķ
Ġà¤ı à¤Ĩà¤°à¤Ł
à¤§ à¤ķà¤¤
Ġà¤¨à¥ŀ à¤°à¤¤
à¤¨à¤ķ à¤ª
Ġà¤¤à¤° à¤¨
à¤ıà¤ļ à¤Ī
Ġà¤² à¤ĩà¤ķ
Ġà¤ĵà¤µà¤° à¤ĳà¤²
Ġà¤®à¤Ĺ à¤¹
Ġà¤µ à¤¯à¤¨
à¥ ¢
à¤ıà¤« à¤ıà¤ķ
Ġà¤ı à¤¥à¤¨
à¤ī à¤ªà¤°
à¤ľ à¤¶à¤¬
à¤ķà¤² à¤°
à¤ħà¤µ à¤¸à¤°
Ġà¤· à¤Ł
Ġà¤² à¤²à¤ļ
Ġà¤ħà¤ª à¤Ł
à¤Ĺà¤² à¤ĸ
Ġà¤ĵ à¥ľ
Ġà¤¹à¤² à¤ĩ
Ġà¥ª à¥¬
Ġà¤Ĺ à¤°à¤¦à¤¨
à¤§ à¤¨à¤¤
à¤ķ à¤¦à¤ª
à¤°à¤Ĺ à¥Ŀ
Ġà¤°à¤¤à¤¨ à¤ª
Ġà¤Ĺ à¤¨à¤°
Ġà¥¨à¥¦ à¥¦à¥¦
à¤ĸ à¤°à¤£
Ġà¤®à¤ķ à¤¬
à¤¹à¤¨ à¤ª
Ġà¤ª à¤Ĺà¥ľ
Ġà¤ļ à¤ªà¤Ł
Ġà¥ª à¥Ń
Ġà¥Ń à¥«
à¤¨ à¥ľ
à¤ķ à¤¬à¤¨
à¤ı à¤¯
Ġà¤¸à¤° à¤¹
à¤² à¤ªà¤ķ
à¤ķ à¤ķà¤¥
à¤® à¤Ńà¤ķ
Ġà¤¹à¤¥ à¤ķà¤°à¤ĺ
Ġà¤Ĺà¤Ī à¤²
Ġà¤µ à¤°à¤®
à¤¤à¤¨ à¤Ń
Ġà¤ħà¤¨ à¤Ľ
à¤¸ à¤ıà¤²
à¤ļ à¤²à¤ķ
Ġà¤ķ à¤ķà¤¤à¤®
Ġà¤¬à¤¬ à¤®
Ġà¤ķ à¤Łà¤²
à¤® à¥ľ
à¤¤à¤¨ à¤¤à¤ķ
Ġà¤¬à¤ľ à¤¹à¤°
Ġà¤Ĩà¤Īà¤ıà¤¸ à¤ıà¤²
Ġà¤ľ à¤īà¤¨
Ġà¤¸ à¤ŀ
Ġà¤® à¤ĺ
Ġà¤ıà¤® à¤£
Ġà¤ľ à¤ĩà¤¸
Ġà¤¥ à¤¨
Ġà¤ļà¤¹ à¤ļà¤¹
Ġà¤®à¤² à¤®
Ġà¤Ĺà¤ľ à¤µà¤¨
Ġà¤ħ à¤¯à¤ª
à¤² à¤ĩ
Ġà¤ªà¤ķà¤¡ à¤©
à¤¡ à¤µà¤°
Ġà¤µà¤¨ à¤ĩ
à¤µà¤¨ à¤®
à¤¤ à¤Ī
à¤Ī à¤ľà¤°
à¤¨ à¤§à¤¨
à¤¼à¤¾ à¤ģ
Ġà¥ª à¥¯
Ġà¤ľ à¤ªà¤¤
Ġà¤Ĩà¤ĩà¤ı à¤ıà¤¸
à¤ħà¤¹ à¤®à¤¦
Ġà¤ĵ à¤«
Ġà¤®à¤¨ à¤Ĺà¤¢
à¤·à¤£ à¤µ
Ġà¤ıà¤« à¤ı
à¤¬à¤² à¤ª
à¤§ à¤ļ
Ġà¤Ĩ à¤¥
à¤ľ à¤¤à¤°
à¤¬à¤Ī à¤ľ
Ġà¤ķà¤¸ à¤¬
à¤² à¤Ĩà¤īà¤Ł
Ġà¥¦ à¥Ń
à¤¡ à¤ĩà¤¨
Ġà¤ľ à¤®à¤¤
Ġà¤°à¤£ à¤Ń
à¤¯ à¤ªà¤¤
Ġà¤Ĳ à¤¬
Ġà¤ĵ à¤¨à¤²
Ġà¤¦à¤® à¤ķà¤¤
à¥ļ à¤®
Ġà¤® à¤ĩ
Ġà¤Ĩà¤Ī à¤ıà¤¸à¤ıà¤¸
à¤ĸà¤¨à¤Ĭ à¤Ł
Ġà¤¶à¤¹à¤° à¤ĳà¤Ł
à¤¦ à¤£
Ġà¤¬à¤² à¤®
à¥ģ à¥ħ
à¤ıà¤« à¤¬
Ġà¤ħà¤ķ à¤®à¤²
Ġà¤īà¤ª à¤ķà¤°
Ġà¤¬à¥ľ à¤ķ
à¤¥ à¤¹à¤®
à¤¸ à¤ıà¤¨à¤ıà¤ķ
à¤¦ à¤¶à¤¨
à¤ľ à¥ľ
Ġà¤ľ à¤ķà¤°à¤¬à¤°
Ġà¤§à¤° à¤ªà¤ķà¤¡
à¤¦à¤¨ à¤ķà¤°
Ġà¤ªà¤°à¤ĸ à¤ļ
Ġà¤ħà¤° à¤¨
à¤¦à¤µ à¤Ī
Ġà¤Ĩ à¤¬à¤°
Ġà¤Łà¤ķ à¤Łà¤ķ
à¤¦ à¤¤à¤¨
à¤°à¤¹ à¤¨
Ġà¤Ĳà¤ª à¤¹à¤®
Ġà¤ľ à¤ľà¤ª
Ġà¤ĵà¤µà¤° à¤°
Ġà¤ķà¤°à¤£ à¤µ
Ġà¤¬ à¤Ļ
à¤² à¤®à¤°
à¤¯à¤¨ à¤®
à¤Ĩà¤Ī à¤ıà¤®
Ġà¤¬ à¤Ľà¥ľ
à¤² à¤Ĺà¤¢
Ġà¤ĵ à¤¨à¤°
Ġà¥¬ à¥«
à¤Ĺà¤² à¤ĸà¤¨à¤Ĭà¤Ł
à¤Łà¤° à¤ľ
Ġà¤īà¤Ľ à¤²à¤¤
Ġà¤§ à¤¨à¤ķ
Ġà¤¹à¤°à¤® à¤¨
à¤¯ à¤·
Ġà¤Ĩà¤ª à¤£
à¤¹à¤® à¤£
Ġà¤¸à¤¬ à¤µ
Ġà¥ĺ à¤¯
à¤ıà¤ļ à¤ıà¤®
Ġà¤¸ à¤¨à¤¦
Ġà¤¨à¤Ł à¤ĸà¤Ł
à¤Ĺ à¤¹à¤®
Ġà¤µ à¤·
Ġà¤¬à¥ľ à¤µ
Ġà¥ °
à¤Ĭ à¤¨à¤²
à¤¸à¤° à¤Ĺ
Ġà¥« à¥¨
à¤ĺ à¤µà¤¨
Ġà¤Ĩà¤Ĺ à¤¯
Ġà¤¹ à¤ı
Ġà¤ļ à¤ķà¤²
Ġà¤¸ à¤Ī
Ġà¤ħà¤® à¤°à¤ª
à¤¯ à¤Ńà¤°
Ġà¤¦ à¤ĸ
à¤µà¤° à¤ľ
à¥Ĩ à¤Ĥ
Ġà¤¤à¤¬ à¤¦
Ġà¥« à¥¬
Ġà¤ħà¤¸ à¤°à¤ķ
à¤¹à¤° à¤®
à¤¹ à¤ļ
à¤ĩà¤ªà¤° à¤²
Ġà¤ĸ à¤²à¤¤
Ġà¤« à¤¹
à¤ľà¤¨ à¤¨
Ġà¤¤ à¥ľ
Ġà¤ķà¤² à¤¬
Ġà¤ħà¤¹ à¤¹
à¤¤à¤¨ à¤°
Ġà¤Ŀ à¤¨à¤ķ
Ġà¤ĸ à¤¬à¤°à¤¦
Ġà¤Ĺ à¤®à¤Ĺ
à¤ľ à¤ªà¤°
Ġà¤Ĩà¤ĵ à¤°
à¤¶à¤¨ à¤Ĺà¤¢
à¤® à¤®à¤¨
Ġà¤ħà¤ķ à¤µ
à¤°à¤¤ à¤¨
Ġà¤ħà¤¹ à¤ĩ
Ġà¤¦ à¤¬à¤¨
à¤¸à¤² à¤Ł
Ġà¥¦ à¥«
à¤¹ à¤¦à¤°
Ġà¤§ à¥ľà¤ķ
Ġà¤§ à¤°à¤£
Ġà¥¦ à¥®
à¤ª à¤ħà¤ª
Ġà¤ķà¤° à¤¯
à¤°à¤ª à¤°à¤ķ
Ġà¤¸à¤® à¤·
à¤ħ à¤²à¤Ĺ
à¤Ī à¤ıà¤ķ
Ġà¤® à¤°à¤¹
Ġà¤ľà¤Ĺ à¤¦à¤®
Ġà¥© à¥¦à¥¦
à¤£ à¤¬
Ġà¤®à¤¦à¤° à¤¬
à¤§ à¤Ĺ
à¤°à¤® à¤²
Ġà¤ª à¤Ĺà¤¬
à¤« à¤Ĺ
à¤¡ à¤µà¤¤
Ġà¤ľà¤¯ à¤¹
à¤Ĺà¤² à¤¯
à¥ĥ à¥į
à¤¶à¤¨ à¤Ń
Ġà¤¸à¤® à¤®
à¤Ĥ à¥°
Ġà¤ľà¤¹ à¤®à¤¤
Ġà¤Ĩà¤Ī à¤ıà¤²
Ġà¤ıà¤¨ à¤ıà¤¸à¤¸
à¥ĺ à¤¦à¤®
Ġà¤® à¤ļà¤¨
Ġà¥¨à¥¦à¥¦ à¥¬
Ġà¥¦ à¥¬
Ġà¤Ĩà¤° à¤ıà¤®
à¤Ļ à¤ķ
Ġà¤Ĭ à¤¹
à¤°à¤ľ à¤µ
à¤ľ à¤ĸ
Ġà¤¹à¤® à¤¶à¤ķ
à¤ķà¤Ł à¤Ĺ
Ġà¤¨à¤µ à¤Ĺà¤ł
Ġà¤ĵ à¤ªà¤°
à¥Ľ à¤°à¤¤
Ġà¤Ĺà¤ľ à¤Ł
Ġà¤ľà¤° à¤¨
à¤°à¤ķ à¤µ
à¤¦ à¤ķà¤Ł
à¤¤à¤° à¤¸
à¤¹à¤¤à¤° à¤®
Ġà¤® à¤²à¤µ
à¤ªà¤¦ à¤£
Ġà¤Ĺà¤ł à¤¬à¤¨
à¥ĩà¤Ĥ à¤ĥ
à¤µ à¤¹à¤¤
Ġà¤Ĺ à¤Ĭ
Ġà¤Ĩà¤° à¤Ĩà¤Īà¤ıà¤²
à¤ĩà¤² à¤ķ
à¤®à¤¦ à¤¤
Ġà¥§à¥¦à¥¦ à¥¦
Ġà¤ĩà¤¯à¤° à¤«
Ġà¥¦ à¥¨
à¤¬ à¤¶
à¤« à¤¦
Ġà¤Ĩà¤° à¤¡à¤¬
Ġà¤¥ à¤²à¤¸
à¤Ĩ à¤Ĺà¤°
Ġà¤² à¤ł
Ġà¤Ł à¤ĩ
à¤²à¤¡ à¤ª
Ġà¤Ĩà¤ķ à¥ľ
Ġà¤° à¤§
Ġà¤µ à¤Ń
à¤ıà¤¸à¤Ī à¤¬
Ġà¥§à¥¯ à¥¦
Ġà¤¨à¥ĺ à¤²
Ġà¤Ĩà¤Ī à¤ĵà¤ı
à¤ª à¤Łà¤°
Ġà¤¯ à¤§
à¤¤ à¤²à¤¬
Ġà¤į à¤ª
Ġà¤ī à¤ĩà¤ķ
à¤¯ à¤ļà¤°
Ġà¤Ĩà¤ĩ à¤ıà¤¸
Ġà¤Ĩà¤ľ à¤ķ
à¤ķà¤² à¤®
à¤ı à¤Łà¤²
Ġà¤ħà¤§ à¤®à¤°
Ġà¤ªà¤¤à¤Ŀ à¤¡
à¤Ĺà¤ľ à¤Ĺà¤¤
à¤Ī à¤ıà¤«
à¤ĵ à¤¤
Ġà¤Ĩà¤µ à¤¦
à¤ķà¤°à¤£ à¤«
à¤µ à¤ī
à¤°à¤¹ à¤Ł
Ġà¤Ń à¤Ĺà¤¨
à¤§à¤¨ à¤Ĺ
Ġà¤ı à¤Īà¤ıà¤¸
Ġà¤¹à¤® à¤µà¤¤à¤¨
à¤Ĩà¤Ī à¤ĵà¤ıà¤¸
Ġà¤· à¤ķ
à¤² à¤Ĺà¤¨
Ġà¤īà¤¦ à¤¯à¤¨
Ġà¤Ĩà¤µ à¤·
Ġà¤¬ à¤ķà¤¸
à¤¸ à¤¦à¤¨
à¤ľà¤¨ à¤Ńà¤°
à¤®à¤¤ à¤®
à¤°à¤§ à¤°à¤ª
Ġà¥¦ à¥ª
à¤¯ à¤µà¤ķ
à¤µ à¤¤à¤°
à¤¸ à¤ıà¤®
à¤ĵ à¤ľ
Ġà¤«à¤²à¤¸ à¤«
à¤Ń à¤¡
à¥ĭ à¥ħ
à¤ĩ à¤¯à¤¤
Ġà¤ħà¤¨ à¤ĩ
à¤ī à¤¬
Ġà¤ķà¤¨ à¤ªà¤Ł
à¥Īà¥Ī à¥Īà¥Ī
Ġà¤Ńà¤Ĺà¤¦ à¥ľ
à¥ĩ à¤¿
Ġà¤¤ à¤½
à¥Ľ à¤«
à¤ĩ à¤ıà¤Ĺ
à¤¨à¤¦ à¤¤
à¤ī à¤¨à¤¸
à¤ķ à¤ķà¤²
à¤¸ à¤ªà¤¨
Ġà¤Ĭ à¤ļ
Ġà¤ī à¤Ł
à¤¸ à¤¥
à¤ª à¤¢
Ġà¤ľ à¤¸à¤°
Ġà¤ľ à¤¸à¤¬
Ġà¤¸à¤° à¤ªà¤°à¤¸
à¤Ĺà¤ª à¤ŀ
à¤ľà¤¯à¤¦ à¤¶à¤®
Ġà¤ľ à¤ªà¤¨
à¤ī à¤ķ
Ġà¤Ĺà¤Ĺà¤¨ à¤ļ
Ġà¤Ĩà¤¦à¤® à¤ª
à¤¯à¤£ à¤¸
à¤¸ à¤ľà¤¨
à¤µ à¤²à¤¨à¤¶
à¤ķà¤² à¤ķ
à¤® à¤¹à¤°
Ġà¤ıà¤® à¤ıà¤¨
à¤²à¤® à¤Ł
à¤ļ à¤ľà¤¨
Ġà¤¨ à¤ŀ
Ġà¤ıà¤ļ à¤Ĩà¤°à¤¡
à¤¬à¤° à¤ª
Ġà¤ķ à¤ĩà¤¸
à¤°à¤® à¤µ
Ġà¥« à¥Ń
Ġà¤° à¤¦à¤°
à¤ĩ à¤¤à¤¨
à¤£ à¤ķà¤°
à¤ī à¤ªà¤¯
Ġà¤¸à¤° à¤µà¤°
Ġà¤« à¤°à¤¸
à¤Ľ à¤ª
Ġà¤µà¤¹ à¤®
Ġà¤¨à¤ľ à¤«
Ġà¤īà¤¬ à¤Łà¤¨
à¤Ń à¤°à¤£
à¥į à¥ĩ
Ġà¤ļà¤Ł à¤ĸ
Ġà¤¶ à¤¹à¤¬
Ġà¤ª à¤ķà¤¤
à¤Ĺ à¤²à¤¤
à¤®à¤¤ à¤¦
Ġà¤Ĩà¤Ī à¤Ĩà¤°à¤ıà¤¸
à¤² à¤ļà¤¨
Ġà¤®à¤¹ à¤¦
à¤ª à¤¤à¤°
à¤° à¤ĺà¤°
Ġà¤īà¤¨ à¤ķà¤°
à¤¬à¤ľ à¤Ł
à¤¡à¤° à¤¬
Ġà¤® à¤ķà¤¤
Ġà¤ĸà¤Ł à¤®à¤²
Ġà¤¹à¥ľ à¤¬à¥ľ
Ġà¥¦ à¥©
Ġà¤ı à¥ŀ
Ġà¤¸à¤¨ à¤¬à¤°
Ġà¤Ĩà¤¹ à¤µ
à¤ļ à¤°à¤¨
Ġà¤ıà¤ļ à¤ľ
à¤²à¤¬ à¤¤
Ġà¤ľ à¤ĸà¤¨
à¤ªà¤° à¤²
à¥ľ à¤ļ
Ġà¤Īà¤ĵ à¤¡à¤¬
à¤ķ à¤«à¤°
Ġà¤° à¤Ń
Ġà¤ľà¤Ĺ à¤¨à¤®
à¤¤à¤® à¤ª
Ġà¥§à¥« à¥¦
Ġà¥¬ à¥ª
Ġà¤Ĩà¤ĩ à¤Ĩà¤ĩà¤Ł
Ġà¤ıà¤¯à¤° à¤¬à¤¸
à¤¡à¤° à¤«
à¤¬ à¤¹à¤°
Ġà¤Ĳ à¤ļ
Ġà¤ĩà¤¨ à¤¦
à¥§ à¥®
Ġà¤ıà¤¨ à¤ıà¤¸à¤¡
Ġà¤ħà¤ľà¤° à¤¬
à¤ļ à¤¢
Ġà¤ķà¤° à¤¸
Ġà¤Īà¤¥ à¤°à¤¨
à¤¤à¤¨ à¤Ł
Ġà¤ľ à¤«
Ġà¥§à¥¦ à¥®
Ġà¤« à¤¬
à¤® à¤ľà¤¸
Ġà¤ıà¤® à¤Ĩà¤°à¤ª
Ġà¤Ĩà¤¦à¤® à¤ĸ
à¤¬à¤¤ à¤ª
à¤ľà¤¯ à¤¸
Ġà¤ķà¤² à¤ª
Ġà¤®à¤² à¤¹à¤®
à¤ıà¤« à¤ıà¤«
Ġà¤ĵ à¤ĸ
à¤µà¤¤ à¤¸à¤°
à¤¨à¤µ à¤µ
Ġà¤¬à¤² à¤¶
Ġà¤ħà¤Ĺ à¤¡
Ġà¤¹à¤¸à¤¨ à¤ª
à¤¡ à¤ļ
à¤¬ à¤ľà¤²
à¤¡ à¥ļ
Ġà¤ıà¤¸ à¤ıà¤ķ
à¤¨ à¤Ĺà¤¨
à¥ĥ à¥ĥ
Ġà¤¯ à¤®à¤¦
à¤® à¤¯à¤¤
Ġà¤ĩà¤® à¤°à¤¤
Ġà¥« à¥ª
Ġà¤ıà¤¡ à¤¬
Ġà¥« à¥©
à¤ľà¤¸ à¤¤
à¤ķà¤¨ à¤°
Ġà¤Ĩà¤ĩ à¤¶
Ġà¤ħ à¤ĩà¤¸
à¥Ľ à¤µ
Ġà¤¸ à¤¥
à¤°à¤® à¤ª
Ġà¤Ī à¤¶à¤¨
à¤ľà¤¨ à¤µà¤°
Ġà¤¤ à¤¦à¤°
à¥¨ à¥¨
Ġà¤ľ à¤¸à¤®
à¤Ĩ à¤¡
Ġà¤¦ à¤²à¤µ
Ġà¤Ĩà¤° à¤¯
Ġà¤ķ à¤¬à¤°
Ġà¤¨à¤Ĺà¤° à¤µ
à¥ĩ à¥ħ
Ġà¤Ĩà¤° à¤¹
à¥Ģ à¤
Ġà¤Ĭà¤§ à¤®à¤¸
à¤ĵ à¤¯
à¤® à¤ķà¤²
à¤ł à¤ľ
à¥Ĥ à¤ĥ
à¤¸à¤Ī à¤ıà¤¨
Ġà¤¸ à¤ľà¤²
à¥« à¥Ń
à¤µ à¤ªà¤¤
Ġà¤² à¤ĸà¤®
Ġà¤Ĩ à¤Ĩà¤Ĩ
à¥§ à¥§
Ġà¤µ à¤£
Ġà¤ıà¤²à¤ıà¤² à¤ıà¤®
à¤°à¤¤ à¤Ĺà¤¢
Ġà¥§à¥¯à¥ª à¥Ń
Ġà¤¤ à¤²à¤¤
à¤ħà¤« à¤Ĺ
à¤°à¤¬ à¤ķ
Ġà¤Ŀ à¤°à¤¤
Ġà¤Īà¤¯à¤° à¤«
Ġà¤ķà¤² à¤Ī
Ġà¤ĳ à¤°à¤²
Ġà¤īà¤¸ à¤ª
Ġà¤ı à¤ıà¤«
à¤®à¤¤ à¤¤
Ġà¤¶ à¤¯à¤¨à¤ķ
Ġà¤® à¤·
à¤¬à¤° à¤µ
à¥ĩ à¥Ģ
Ġà¤ıà¤¸ à¤ıà¤®à¤Ī
à¥Ŀ à¤ķ
à¤ħ à¤¦à¤¬
à¤Ł à¤§
Ġà¤®à¤° à¤ķà¤°
Ġà¤¬à¤° à¤«
à¤§ à¤ľ
à¤° à¤Ĺà¤®
Ġà¤¹à¤¥ à¤ķà¤¡
Ġà¤ªà¤¨ à¤¬
à¤°à¤¤ à¤°
Ġà¤ıà¤® à¤«
à¤Ń à¤²à¤¨
Ġà¤ħà¤ķ à¥ľ
Ġà¤¶à¤ªà¤¥ à¤ªà¤¤
à¤¡à¤¸ à¤ĩ
Ġà¤ľà¤¨ à¤¶
à¤Ī à¤¹
à¤¸ à¤§
Ġà¤Ł à¤¨à¤ķà¤ª
à¤Ĺ à¤£à¤ķ
Ġà¤Ĩà¤µ à¤§
à¤ķ à¤¸à¤¨
Ġà¤īà¤² à¤®
à¤¦ à¤°à¤¸
à¤ī à¤°à¤ķ
Ġà¤²à¥ľ à¤ĸà¥ľ
Ġà¤ĸ à¤Ĺà¥ľ
Ġà¤µ à¤²à¤¸
à¤ıà¤¸ à¤¡à¤¬
à¤§ à¤Ń
à¥Ģà¤ ¾
Ġà¤Ł à¤¡
à¥ ½
à¥¬ à¥¦
à¤·à¤£ à¤Ń
Ġà¤¬à¤ľ à¤¹
Ġà¤ļ à¤¦
Ġà¤° à¤ª
Ġà¤¶ à¤®à¤¸
à¤¨à¤¸ à¤®à¤²
Ġà¤ĩ à¤ķà¤¤
à¤¨ à¤·
à¥ĩ à¤¾à¤Ĥ
Ġà¥« à¥®
à¤®à¤¨ à¤¦
à¤ľà¤¨ à¤®
Ġà¤ħ à¥ĺ
Ġà¤ªà¤¬ à¤ľ
à¥ľ à¤Ĺà¥Ŀ
à¤° à¤Łà¤°
Ġà¤ķà¤¹ à¤²à¤µ
à¤¯ à¤°à¤ķ
Ġà¤īà¤ĸ à¥ľ
Ġà¤ħ à¤ľà¤¹
Ġà¤Ń à¤ł
Ġà¤¶ à¤Łà¤²à¤°
à¤ķ à¤¸à¤®
Ġà¤ħ à¤¢
à¤ĵ à¤ĵ
Ġà¤µ à¤¡à¤¨
Ġà¤Ĳ à¤¡à¤¸
à¤²à¤¨ à¤Ł
à¥Īà¤Ĥ à¤ĥ
à¤®à¤ļ à¤²
Ġà¤° à¤ªà¤¯
Ġà¤¿ à¤
à¤Ĳ à¤ķ
Ġà¤¿à¤ ¾
Ġà¤ĵà¤µà¤° à¤µ
Ġà¤ĵ à¤ı
à¤²à¤® à¤£
à¥į à¥ģ
Ġà¤ıà¤®à¤ı à¤¸à¤ķ
Ġà¤ľ à¤²à¤¯
Ġà¤¬à¤° à¥ĺà¤°
Ġà¤¶ à¥Ļ
Ġà¥¨à¥¦à¥¦ à¥«
Ġà¤¶ à¤Łà¤¡
Ġà¤ĵ à¤®à¤¨
Ġà¤¬à¤® à¤µà¤°
Ġà¤¤à¤¯ à¤¶
à¤ĩ à¤ĵ
Ġà¤¶à¤¯à¤¨à¤ķ à¤ķ
à¤¶ à¤£
à¥ŀ à¤¨
Ġà¤Ĩà¤Īà¤ıà¤« à¤ıà¤¸
Ġà¤Ķ à¤¯
à¤°à¤¤ à¤ª
Ġà¤ħà¤¨ à¤®à¤¨
à¤Ĺ à¤ı
Ġà¤ıà¤® à¤ıà¤¨à¤ıà¤¸
Ġà¤Ĩà¤° à¤ıà¤¨à¤ı
à¥ī à¤¼
à¤¸à¤¦ à¤¸
Ġà¤ħ à¤Ļ
Ġà¤ĩà¤« à¤ķ
à¤ħ à¤°à¤µ
Ġà¤ıà¤¸ à¤ıà¤¸à¤Ĩà¤Ī
à¤¸ à¥ľ
Ġà¤² à¤µà¤ķ
à¤ĸ à¤¶
Ġà¤¥ à¤®à¤¤
à¤ī à¤Ĺ
à¤ıà¤¨ à¤ıà¤®
à¤Ĩ à¤¦à¤¤
à¤¨ à¤¥
à¥ľ à¤¯
à¤·à¤£ à¤ķ
Ġà¤¨ à¤¦à¤µ
à¤ĩà¤² à¤Ł
Ġà¤ıà¤ķ à¤Łà¤ķ
Ġà¤ľ à¤¯à¤¸à¤µ
Ġà¤ľà¤¯ à¤ļ
à¤¹à¤° à¤¦
à¤µ à¤ªà¤¨
à¤µà¤ī à¤łà¤¨
Ġà¤ı à¤²à¤ķ
Ġà¤¶ à¤¦
à¤µà¤° à¤¬
Ġà¤Ĩ à¤Ĺà¤¤
Ġà¥¯ à¥¯
Ġà¤ĩ à¤¦à¤°
à¤· à¤¯à¤µ
à¤ĩ à¥Ľà¤°
Ġà¤² à¤Ľ
Ġà¤® à¤²à¤¨
Ġà¤¡ à¤µ
à¤¦ à¤Ī
à¥ĩ à¥°
à¤Ĩ à¤«
à¤¤ à¤ªà¤¤
Ġà¤ħà¤«à¤¸à¤° à¤¶
à¥ĭ à¥°
Ġà¤ıà¤ļ à¤µ
Ġà¥¨à¥¦ à¥Ń
Ġà¤§à¥ľ à¤²
à¤Ī à¤Ĩà¤Ī
Ġà¤§ à¤¸
à¥ĩ à¤¼à¤Ĥ
à¤Ĩà¤° à¤Ĩà¤°
Ġà¤ī à¤£
Ġà¥¨à¥¦à¥¦ à¥ª
à¤ĩà¤Ł à¤ķ
à¤¿ à¤¿
Ġà¤ķà¤Ł à¤ª
Ġà¤ħà¤µ à¤¦
Ġà¤ļà¤¹ à¤²à¤ķ
Ġà¤ķà¤ª à¤ķ
à¤¶à¤¨ à¤¦
à¤ľà¤¯ à¤¶
à¤½ à¤¸
à¤¯à¤² à¤¸
à¥§ à¥¯
Ġà¤ĩ à¤°à¤µ
à¤Īà¤Ī à¤Ī
Ġà¤ĩ à¥ĺ
Ġà¤ ±
Ġà¤ĸ à¤¨à¤ķ
à¤¨ à¤°à¤®
Ġà¤īà¤ª à¤¸à¤®
à¤® à¤§à¤¨
à¤® à¤¬à¤¨
Ġà¤Ī à¤Ĩà¤°
à¤® à¤Ĩà¤ªà¤ķ
à¤² à¤£
à¤® à¤¹à¤²
à¤ı à¤ıà¤®
à¤ī à¤Ĩ
Ġà¤ıà¤ļ à¤¯
Ġà¤¤ à¥ľà¤ªà¤¤
à¤¨ à¤§
Ġà¤ĵà¤µà¤° à¤«
Ġà¤Ĩà¤° à¤ıà¤¸à¤Ĩà¤Ī
Ġà¤ħà¤°à¤µ à¤²
Ġà¤Ń à¤·
Ġà¤¶ à¤Ł
Ġà¤¡ à¤Ĺà¤²à¤¸
Ġà¤¤ à¤ĸà¤¤
à¤« à¤®
Ġà¤ĭà¤· à¤Ńà¤¦
Ġà¤īà¤Ĺ à¤²à¤¨
Ġà¤ī à¥ŀ
Ġà¤§ à¤¯
Ġà¤¹à¤ł à¤§à¤°
à¤¨ à¥Ľà¤°
à¤ı à¤ļà¤ķ
Ġà¤®à¤² à¤ĸ
à¤¦à¤¨ à¤µ
Ġà¤¡à¤° à¤¬à¤¨
Ġà¤Ĩà¤° à¤ıà¤¨
à¤Ľ à¤Ł
Ġà¤ĩà¤¸ à¤ª
à¤°à¤ľ à¤®à¤²
à¤§ à¤ªà¤¤
Ġà¤¥ à¤ķà¤¨
à¤®à¤¦ à¤¯
à¥ĩà¥ĩ à¥ĩà¥ĩ
Ġà¤ı à¤¤à¤¨
Ġà¤Ńà¤° à¤Ńà¤°
à¤¸à¤¬ à¤ķ
à¤ķà¤° à¤²
Ġà¤¸à¤° à¤ªà¤Ł
Ġà¤« à¤Ĺà¤µ
Ġà¤ıà¤¸ à¤ıà¤«à¤Ĩà¤Ī
à¤ıà¤ļ à¤ı
Ġà¤Ľ à¤²à¤¤
à¤ıà¤² à¤ľ
à¤¢ à¤°
Ġà¤ Ĵ
à¤Ĺ à¤ĵà¤µà¤°
Ġà¤²à¤ĸà¤¨ à¤ª
à¤®à¤¨ à¤Ĺ
à¤¥ à¤«
à¤¨ à¤®à¤¤
à¥ģ à¤¿
Ġà¤ħ à¤ĸà¤¨
à¤ľ à¤¬à¤¹
à¤°à¤¬ à¤¦
Ġà¥Ľ à¤ĸ
à¤® à¤Ľ
à¤ħ à¤ªà¤°
à¤Ľà¤² à¤Ĺ
à¥į à¤¿à¤¾
Ġà¤Ĺ à¤¡à¤¬à¤¡
Ġà¤ħ à¤°à¤¦
Ġà¤ıà¤¨à¤ıà¤ļ à¤ıà¤®
Ġà¤Ń à¤ı
Ġà¤Ĩ à¤ĩà¤«
à¥ Ĳ
à¤ĩ à¤ªà¤°à¤¸
Ġà¥¬ à¥¦à¥¦
Ġà¤µ à¤Łà¤µ
Ġà¤®à¤ķ à¥ľ
Ġà¤¹ à¤¹
Ġà¤°à¤¸ à¤ĸ
à¤Łà¤° à¤¹
à¤²à¤ķ à¤Ł
à¤ĺ à¥ľ
à¤Ĺà¤° à¤ľ
Ġà¤Ń à¤µà¤¸
à¤°à¤¸ à¤ª
à¤ĩ à¤²à¤¨
à¤ħ à¤Ĺ
Ġà¤ĩ à¤łà¤²
Ġà¤ķà¤¶ à¤®à¤ķà¤¶
à¤® à¤Łà¤¤
à¤Ł à¤¬à¤¨
Ġà¤ĩà¥Ľ à¤¹
Ġà¤µ à¤®à¤¨
Ġà¤°à¤® à¥Ľ
Ġà¤®à¤¦ à¤®à¤¸
Ġà¤ıà¤¸ à¤Ĩà¤ĩà¤Ł
Ġà¤¸à¤ľ à¤¤
Ġà¤Ĩà¤ĩ à¤°
Ġà¤Ł à¤ªà¤ķà¤¨
Ġà¤ıà¤® à¤Ĩà¤Īà¤Ł
Ġà¤ļà¤¹à¤²à¤ķ à¤¦à¤®
à¥Ĥ à¥ħ
Ġà¤ª à¤ı
Ġà¤ī à¤ĩà¤Ĺà¤°
à¤ĺ à¤¦
Ġà¤īà¤ľ à¥ľ
Ġà¤¸à¤¹ à¤¬à¤¦
Ġà¤Ĳ à¤®à¤ľ
Ġà¤Īà¤ıà¤¸ à¤Ĩà¤Īà¤¸
Ġà¤®à¤¨ à¤ĸ
Ġà¤ħà¤¬ à¤¦
Ġà¤ĵà¤µ à¤°à¤ķ
à¤ľà¤¬ à¤¬
à¤Ńà¤Ĺà¤µ à¤¦
à¥ĺ à¤¸
à¤® à¤®à¤¯
à¤²à¤Ŀ à¤¨
Ġà¤ĸ à¤¬
à¤¤ à¤£
Ġà¤Ń à¤½
Ġà¤¸à¤® à¤µà¤°
Ġà¤ļà¤ķ à¤¬
Ġà¤ıà¤® à¤Ī
à¤Ĺ à¤³
à¤ħ à¤°à¤¬
Ġà¥ª à¥¦à¥¦
Ġà¤¨à¥Ľà¤° à¤ħ
Ġà¤§ à¤§à¤ķ
Ġà¤ħà¤ªà¤¨ à¤¤
à¤ķà¤¨ à¤ª
Ġà¤ķà¤¡ à¤µ
Ġà¤ķà¤° à¤®à¤ļ
à¤² à¤ļà¤°
à¤¯à¤° à¤¨à¤®
Ġà¤ªà¤° à¤¬à¤¤
Ġà¤® à¥Ŀ
Ġà¤ªà¤° à¤Ń
Ġà¤ıà¤¨ à¤ıà¤«
à¤Łà¤¨ à¤Ĺà¤°
à¤ĸ à¤¹
à¤ķ à¤®à¤¨
à¤ł à¤¯à¤ķ
Ġà¤ıà¤« à¤ıà¤¸à¤ıà¤²
Ġà¤Ĩà¤Ī à¤ıà¤¸à¤ª
à¤ľà¤Ĺ à¤¦
à¤¡ à¥ŀ
Ġà¤ħà¤ª à¤¶à¤ķ
Ġà¤®à¤¸ à¤ľ
à¤·à¤¸ à¤¹
Ġà¤Ĭ à¤§à¤®
Ġà¤¸à¤®à¤¯ à¤ª
Ġà¤Ń à¤°à¤¦
à¤¯à¤® à¤Ĺ
Ġà¤ĵ à¤¸à¤µ
à¤¨à¤µ à¤®
Ġà¤Ł à¤°à¤¨
Ġà¤¸à¤¤ à¤¬
à¤£ à¤§à¤°
à¤Ĩ à¤¦à¤®
Ġà¤īà¤ł à¤µ
à¤Ĩ à¤ĩà¤¡
Ġà¤ıà¤ħ à¤°à¤ª
Ġà¤ıà¤¡à¤µà¤° à¤Ł
Ġà¤ľà¤² à¤ľ
à¤ļ à¤£
à¤¬ à¤¦à¤²
Ġà¤ªà¤° à¤ħà¤Ń
Ġà¤¬ à¥ļ
à¤°à¤µ à¤²
à¤µà¤¨ à¤µ
à¤ıà¤ļ à¤¬
Ġà¤ıà¤¸ à¤ıà¤®à¤¸
à¤¯à¤ª à¤¦
Ġà¤Ĩ à¤ĩà¤µà¤°
Ġà¤Ī à¤¥à¤°
à¤¦à¤µ à¤ª
Ġà¤Ĳ à¤¹à¤¤
à¤ıà¤² à¤ıà¤²
Ġà¤ħà¤ľ à¤ľ
Ġà¤ķ à¤¨à¤¸
Ġà¤¸ à¤Ĩà¤¦à¤¤
à¤ħ à¤Ĺà¤¸
Ġà¤¬à¤¹à¤¨ à¤ľ
à¤Ĩ à¤µà¤¶
Ġà¤°à¤¤à¤¨ à¤²
Ġà¤ĵ à¤Łà¤®
à¤ľ à¤²à¤ķ
à¤¨à¤µà¤° à¤¹
Ġà¤¤à¤° à¤¨à¤¤
à¤¯à¤° à¤Ł
Ġà¤¯ à¤µà¤¨
Ġà¤Ĺ à¤Ĺ
Ġà¤Ľ à¤Ĺà¤¨
Ġà¤ħà¤² à¤¹à¤¦
Ġà¤Ĩà¤Ī à¤Ī
Ġà¤ª à¤Ļ
Ġà¥¨à¥¦à¥¦ à¥§
Ġà¤¤ à¤ļ
Ġà¤Ĳ à¤Ł
Ġà¤īà¤« à¤¨à¤¤
Ġà¥Ľ à¤¹
Ġà¤®à¤² à¤ª
Ġà¤ħà¤®à¤¨ à¤¦
à¤ı à¤ıà¤¨
à¤· à¤°à¤¶
à¤¼à¤ ĥ
Ġà¥Ń à¥¨
Ġà¤¤à¤°à¤ķ à¤¶
Ġà¤ļ à¤ªà¤²
Ġà¤ĳà¤« à¤¶
Ġà¤®à¤« à¤²à¤°
à¤¸ à¤ĵà¤µà¤°
Ġà¤¤ à¤Ĺ
Ġà¤¶à¤¹à¤° à¤¯
Ġà¤° à¤²
à¤Łà¤ķ à¤®
à¥Ĭ à¤Ĥ
à¤ķ à¤®à¤Ĺà¥Ŀ
à¤Ĺ à¤«à¤¨
Ġà¤ıà¤² à¤ıà¤²à¤¸
à¤¤ à¤ķà¤¤
Ġà¤ľà¤¨à¤¸à¤® à¤°
Ġà¤ı à¤ıà¤²à¤ª
à¥Ľ à¤ķ
à¤¯ à¤ľà¤°
à¥ļ à¤°
Ġà¤Ĺà¤Ĺà¤¨ à¤¯
Ġà¤ħà¥ŀ à¤¸à¤°
Ġà¤Ī à¤ļ
Ġà¤Ĩ à¤Ĩ
à¤® à¤«à¤°
à¤® à¤Ńà¤°
Ġà¤Ī à¤Ĺ
Ġà¥ŀ à¤¸
Ġà¤ľà¤Ĺà¤¤ à¤ª
Ġà¤« à¤ĸ
Ġà¥¬ à¥¨
à¥© à¥¨
Ġà¤ħà¤® à¤°à¤¦
Ġà¤® à¤Łà¤®
Ġà¤ķà¤² à¤µ
Ġà¤¹à¤° à¤²
à¤°à¤¦ à¤°à¤¹
Ġà¤Ĭ à¤®
Ġà¤ĸ à¤µ
Ġà¤®à¤¨ à¤Ī
à¤² à¤§à¤¨
à¤ľ à¤¯à¤°
à¤·à¤£ à¤®
à¤² à¤½
Ġà¤ıà¤¸ à¤ıà¤¸à¤¡
à¤§ à¤°à¤®
Ġà¤Ĩà¤Ī à¤Īà¤¸
à¤¸à¤° à¤¬
Ġà¤ı à¤ªà¤°
Ġà¤Ĺà¤¢ à¤µ
à¤¸à¤² à¤¬
à¥Ĥ à¤¼
Ġà¤ĩà¤² à¤ľ
à¥§ à¥¨
Ġà¤µà¥Ľ à¤¹
à¤® à¤¶à¤¤
Ġà¤¨à¤µ à¤ķ
à¤¯ à¤¸à¤²
Ġà¤¾ à¤
Ġà¤¾à¤ ¾
Ġà¤ħà¤® à¤°à¤¸
Ġà¤¦à¤°à¤¸ à¤²
Ġà¤ıà¤® à¤ıà¤ķ
à¤Łà¤° à¤ļ
Ġà¤ķà¤² à¤°à¤«
à¤ıà¤®à¤ıà¤² à¤ı
Ġà¤®à¤¯ à¤ĸ
Ġà¤¯à¤¶ à¤µà¤¨
Ġà¤ıà¤¸à¤ıà¤¸ à¤ıà¤²
Ġà¤Ĩà¤Ī à¤°
à¤¡à¤ķà¤° à¤µ
à¤ĩ à¤¯à¤¨
Ġà¤® à¤¸à¤ķ
Ġà¤« à¤Łà¤¤
Ġà¤ĺ à¤®à¤£
à¤ķ à¤®à¤°
à¤²à¤¨ à¤ª
à¤Ĩ à¤ĩà¤ľ
à¤¯à¤¨ à¤¸
Ġà¤² à¥ŀ
Ġà¤ª à¤¨à¤ķ
à¤¦à¤° à¤ĸ
Ġà¤Ĳ à¤¯
à¤ķ à¤ļà¤°
Ġà¤ĸà¤¸ à¤ĸà¤¸
Ġà¤® à¤ĩà¤¯
à¤ķà¤ª à¤Ł
Ġà¤¸ à¤°à¤¦à¤°
à¤Ł à¤²à¤¤
à¤²à¤¨ à¤°à¤¤
à¤¤à¤® à¤¹à¤¤
Ġà¤¶ à¤µà¤¯
à¤µ à¤ł
Ġà¤ħ à¤¹à¤¦
Ġà¤Ĺ à¤Ĺà¤°
à¤¿ à¥ĭà¤Ĥ
Ġà¤ĸà¤° à¤ĸ
Ġà¤ªà¤ķà¤¡ à¤¨
à¤Ĺà¤° à¤¹
Ġà¤ª à¤ªà¤¡
à¤° à¤Ĩà¤¤
Ġà¤ı à¤²à¤µ
Ġà¤ªà¤° à¤µà¤²
Ġà¤ĩ à¤¬à¤°
Ġà¤ı à¤ĸ
à¤ĩà¤¨ à¤¬
à¥ŀ à¤²
Ġà¤ľà¤¯ à¤ĺ
Ġà¤Ĳ à¤²à¤¨
Ġà¤¶ à¤Ĺà¤²
Ġà¤¬à¤ĩ à¤ł
à¤°à¤¸ à¤°à¤ķ
à¤¡ à¤¨à¤°
Ġà¤¹à¤° à¤¡
Ġà¤ıà¤« à¤ıà¤¸
à¥Ī à¤
Ġà¤¨ à¤ķà¤°
Ġà¤¸à¤Ń à¤ķ
Ġà¤²à¤Ĺ à¤¯
à¤ªà¤° à¤ª
à¥į à¥Ĥ
Ġà¤° à¤°
Ġà¥« à¥¯
à¤ĩ à¤ıà¤¸
à¤¯à¤¨ à¤µ
à¤ıà¤® à¤ıà¤«
Ġà¤¸à¤«à¤²à¤¤ à¤®
à¤¢ à¤ķà¤°
à¤µ à¤¬à¤°
à¤¤à¤ķ à¤¨
à¤Ĩà¤Ī à¤ĵ
Ġà¤ħà¤§ à¤®
Ġà¤¡ à¤£
à¤Ł à¤£
Ġà¤Ĺ à¤Łà¤ķ
Ġà¤ħà¤ª à¤¦à¤¸
Ġà¤¨à¤Ĺà¤° à¤¸
à¤ķ à¤¹à¤®
à¤µ à¤Ĺà¤¤
à¤¶ à¤ĸ
Ġà¤Ľ à¤°à¤¹à¤°
à¤Ĩà¤Ī à¤¯
à¥« à¥«
à¤®à¤ļ à¤°à¤£
Ġà¤¸à¤¬ à¤¦
à¤ļà¤² à¤®
à¥Īà¤ ¾
à¤¶ à¤ħà¤ª
Ġà¤°à¤¹ à¤¯
Ġà¤¤à¤² à¤Ľà¤Ł
Ġà¤ıà¤Ĩà¤Ī à¤¬
à¤Ĺ à¤¨à¤²
à¥ľ à¤¬
à¤¨à¤¤ à¤Ī
Ġà¤Ĩà¤ł à¤µà¤²
à¤°à¤® à¤¹
Ġà¤· à¤°
à¤ª à¤¶à¤¨
Ġà¤Ĺà¥Ŀ à¤¨
à¤°à¤¨ à¤Ł
Ġà¤¨à¤µà¤² à¤ĸ
à¤¨à¤® à¤¯
Ġà¤īà¤¨ à¤¨
Ġà¤Ńà¤Ł à¤ķà¤²
Ġà¤¸à¤° à¤ķà¤°
à¤²à¤µ à¤Ł
Ġà¤Ń à¤¯à¤®
Ġà¤ı à¤ıà¤®à¤Ł
Ġà¤ıà¤ķ à¤¸à¤®
Ġà¤ħà¤ª à¤£
à¤² à¤µà¤ķ
Ġà¤¡à¤ķ à¤µà¤°
Ġà¤ĩà¤¨ à¤µà¤°
Ġà¤ķà¤° à¤ľ
Ġà¤§ à¤¨à¤¸
Ġà¥ŀ à¤²
à¤Ĩ à¤ªà¤¨
à¤Ķ à¤¨
à¤Ī à¤¤
Ġà¤ĵ à¤ıà¤®à¤Ĩà¤°
Ġà¤®à¤Ŀ à¤§
Ġà¤ª à¤²à¤¸
à¤² à¤µà¤²à¤ķà¤°
à¤µà¤£ à¤ķ
à¥ĩ à¥Ī
à¤ª à¤Ĩà¤¨
à¤ħ à¤ĩ
à¤®à¤¦ à¤ª
à¤° à¤¹à¤°à¤£
Ġà¤¨à¤Ĺà¤° à¤¨
à¤Ĥ à¤¿
Ġà¤¨ à¤µà¤¸à¤®
Ġà¤ķ à¤¨à¤µ
à¤² à¤ļà¤ķ
Ġà¤Ī à¤°à¤«
à¤Ĩ à¤Ł
Ġà¤ĩà¤² à¤¸
Ġà¤¬ à¤ķà¤²
à¤ļ à¤°à¤¤
à¤ª à¤Ń
à¤¸ à¤®à¤¨
à¤¦ à¤Ńà¤°
Ġà¤ħà¤§ à¤ľà¤²
Ġà¤² à¤Ń
Ġà¤¹à¤ł à¤¯
à¤ĩ à¤°à¤²
à¤¯ à¤ĸ
à¤² à¤µà¤¨
Ġà¤¦à¤² à¤Ĺà¤¤
Ġà¤Ī à¤§à¤¨
Ġà¤¥ à¤°à¤¥
à¤ķà¤° à¤¸
Ġà¤Ľà¤² à¤ķà¤¤
Ġà¤Ĩ à¤¶à¤¨
à¤¤ à¤²à¤µ
à¤² à¤ªà¤¨
Ġà¤ıà¤¨ à¤ıà¤®à¤¸
à¤ļ à¤°à¤¸
Ġà¤ħà¤ļ à¤®
à¤Ĭ à¤¥
Ġà¤¦à¤° à¤ľ
Ġà¤ĩà¤¸ à¤¹
à¤Ł à¤ł
à¤°à¤¶ à¤ķ
à¤²à¤¨ à¤Ĺà¤°
à¤¸ à¤ıà¤®à¤ıà¤²
Ġà¤ĩà¤¨ à¤Ł
Ġà¤µ à¤®
à¤²à¤Ĺ à¥Ŀ
Ġà¤ħà¤Ĺ à¤®
Ġà¤¥ à¤µ
à¤ķ à¤¹à¤¤
à¤² à¤°à¤¸à¤¨
Ġà¤Ĩà¤Ī à¤¶
Ġà¤ķà¤¹ à¤²à¤¨
à¤² à¤¤à¤°
Ġà¥¬ à¥©
Ġà¤ıà¤¸ à¤ıà¤«
à¥® à¥¦
Ġà¥¨à¥¦à¥¦ à¥¨
Ġà¤ľà¤® à¤ĺà¤Ł
à¤¹ à¤ļà¤°
Ġà¤¤ à¤ĸà¤¨
Ġà¤Ĩà¤Ī à¤ĵ
Ġà¥¬ à¥¬
à¤µà¤² à¤ľ
Ġà¤¸à¥ŀ à¤²
à¤¯à¤£ à¤¦à¤¤
à¤¶ à¤¬à¤¨
à¥Ģ à¤¿
Ġà¤Ĩ à¤ĩà¤µ
Ġà¤ı à¤ĵ
Ġà¤µ à¤²à¤¯
Ġà¤į à¤®
Ġà¥¨à¥« à¥¦
à¤Ī à¤¨à¤²
Ġà¤ļà¤¹ à¤ķà¤¤
à¤ķ à¤ĸ
Ġà¤Ń à¤¡à¤ķ
Ġà¤ħ à¤Ī
à¤µà¤¨ à¤¹
à¤µà¤¶ à¤¯à¤¨
à¤¨à¤ķ à¤²
Ġà¤ıà¤ľ à¤¬
Ġà¤ķà¤Ł à¤²à¤°
à¥° à¥°
Ġà¤ĵ à¤·à¤§
Ġà¤§à¤¨ à¤ªà¤¤
à¤ªà¤° à¤Ł
Ġà¤ĵ à¤ıà¤²
Ġà¤¸à¤¹ à¤ļà¤°
à¤°à¤¶ à¤²
Ġà¤Ĩ à¥ŀ
Ġà¤ħà¤¸à¤¹ à¤ľà¤¤
Ġà¤Ĩà¤² à¤®à¤Ĺ
à¤Ĺ à¤Ľ
à¤ı à¥ŀ
à¤Ĺ à¤¨à¤°
à¤ī à¤¸à¤µ
à¤Ĺ à¤§à¤°
Ġà¤² à¤Ļà¤ķ
Ġà¤¬à¤² à¤Ńà¤¦
à¥ĭ à¤¿
Ġà¤ıà¤ķ à¤Ĺ
à¤²à¤¦ à¤¹
Ġà¤¨ à¤ķà¤¸
à¤¤à¤¨ à¤¬à¤¡
à¤°à¤£ à¤®
Ġà¤²à¤ĸà¤¨ à¤µ
Ġà¤¬à¤² à¤µà¤¤
à¤¡ à¤ıà¤ķ
à¤ľ à¤¯à¤²à¤ķ
Ġà¤¬à¤¦à¤° à¤ª
Ġà¤ı à¤¹à¤®
Ġà¤ķà¤² à¤°à¤µ
à¤¸ à¤¬à¤²
Ġà¤ıà¤ļ à¤Ĩà¤°à¤Ł
Ġà¤ĺ à¤¬à¥ľ
à¥ĺ à¤¦
Ġà¤§ à¤§à¤ķà¤¤
à¤ķ à¤§à¤°
Ġà¤Ĩà¤® à¤ļ
Ġà¤ľà¤¨ à¤ļ
Ġà¤¬ à¤¤à¤°
Ġà¥® à¥«
Ġà¤ªà¤Łà¤ķ à¤¨
Ġà¤ĩà¤¨ à¤¶
Ġà¤ıà¤« à¤Ĩà¤°à¤ª
à¥ħ à¥Ĥ
Ġà¤ªà¤µà¤¨ à¤ª
à¤¡ à¤°à¤ķ
Ġà¤ħà¤ª à¤ĺà¤Łà¤¨
à¤¹à¤° à¤¸
à¤¶à¤¨ à¤§
à¤Ńà¤µà¤¤ à¤¯
Ġà¤Ńà¤°à¤¤ à¤¨
à¤ļ à¤µà¤Ł
à¤ı à¤¨à¤µ
Ġà¤Ī à¤ıà¤¸à¤Ĩà¤Ī
Ġà¥¨à¥¦à¥¦ à¥©
à¤¦à¤° à¤ļ
Ġà¥§à¥® à¥¯
Ġà¤ı à¤ıà¤¨à¤ıà¤¸
à¤¹ à¤²à¤µ
Ġà¤¬ à¤Ľà¤°
à¤ī à¤§à¤°
à¥Ľ à¤¦
Ġà¤¦ à¤®à¤£
à¤² à¤ĵ
Ġà¤¶ à¤ķà¤²
Ġà¤ıà¤¸ à¤ĵà¤ª
Ġà¤«à¤« à¤ķ
Ġà¤¹à¤® à¤¹
à¤¬ à¤¹à¤¨
à¤¶à¤¨ à¤®
Ġà¤ıà¤¸à¤ıà¤² à¤Ĩà¤°
à¤ľà¤¨ à¤ª
Ġà¤īà¤ł à¤ķ
Ġà¤ıà¤« à¤ıà¤¸à¤ıà¤¸
Ġà¤¬ à¤Łà¤°à¤«
Ġà¤ļà¤² à¤²
Ġà¤ļà¤°à¤£ à¤¦
à¤ıà¤ļ à¤ľ
Ġà¤¡ à¤ķà¤ª
Ġà¤ı à¤¶à¤²
Ġà¤¯ à¤µà¤¤à¤®
à¤¤ à¤¤à¤®
à¤ĸ à¤Ĺ
Ġà¤ĳ à¤Ĺà¤¸
Ġà¤ķà¤°à¤ķ à¤Ł
à¤£ à¤Ń
à¤®à¤¨ à¤ª
à¤¨ à¤¦à¤°
à¤µ à¤Ĺà¤£
à¤ıà¤ļ à¤Ł
à¤ķ à¤Łà¤ķ
Ġà¤ķ à¤ıà¤²
Ġà¤¨ à¤°à¤Ńà¤ķ
à¤¶ à¤µà¤¨
à¤£ à¤¶
à¤ĺ à¤ķà¤°
à¤°à¤¬ à¤²à¤¤
à¤µà¤¨ à¤¤
Ġà¤ķà¤¬ à¤¹
Ġà¤¸à¥ŀ à¤²à¤¤
Ġà¤¶ à¤ķà¤¤
Ġà¤¥ à¤ªà¤ķ
à¤¹à¤° à¤Ł
à¤¥ à¤Īà¤¸
Ġà¤Ĩà¤Īà¤ıà¤¸ à¤ıà¤®
Ġà¤ªà¤¡ à¤°
Ġà¤ıà¤ķ à¤ķ
à¤° à¤²à¤¤
à¤¦ à¤§
à¤ªà¤Ł à¤ķà¤°
Ġà¤¬à¤² à¤ķ
à¤¯à¤¨ à¤Ĺà¤°
Ġà¤ļ à¤°à¤¤
à¤°à¤¦ à¤ľ
Ġà¤¨ à¤°à¤ķà¤Ł
à¤¸ à¤£
Ġà¤§à¤¨ à¤¬à¤²
Ġà¤ĩ à¥Ľà¤°
à¤ĵ à¤¶
Ġà¤ĳ à¤¥à¤°
Ġà¤§à¤¨ à¤ª
à¤¹ à¤®à¤²
Ġà¤¸ à¤¨à¤¤
à¤£ à¤®à¤¯
à¤ķ à¤ªà¤¤
à¤¸à¤° à¤¨
Ġà¤ķ à¤ļà¤¨
Ġà¤ı à¤¹à¤¨
à¤¯à¤¨ à¤²
à¤ªà¤° à¤°
à¤µà¤¨ à¤²
à¤²à¤ľ à¤Ĺà¤¤
Ġà¤¶ à¤ļ
Ġà¤Ĩà¤Ī à¤Ĩà¤Īà¤ª
à¤° à¤ªà¤¨
Ġà¤ľà¤¬ à¥ľ
à¥§ à¥«
à¤¯à¤ª à¤°à¤ķ
Ġà¤Ĩà¤° à¤ıà¤ıà¤¸
à¤°à¤£ à¤¤à¤¯
Ġà¤°à¤¸ à¤Ńà¤°
Ġà¤Ń à¤Ńà¤ķ
à¤Ĺ à¤¸à¤°
à¤¤à¤° à¤ĺ
à¤¸ à¤Ĭà¤¦
Ġà¤ıà¤ļ à¤Ĩà¤°à¤ı
à¤¹ à¤¬à¤¤
Ġà¤ħà¤® à¤°à¤Ń
Ġà¤Ĩà¤Īà¤ı à¤ıà¤«
Ġà¤ĸà¤° à¤¨
à¤µ à¤Ĺà¤¢
à¤¶ à¤īà¤¤
à¤ľà¤¨ à¤ķà¤°
Ġà¤¤à¤°à¤« à¤¦
Ġà¥® à¥ª
à¤¬ à¤ķà¤¤
Ġà¤ī à¤ķà¤¤
à¤¤ à¤ĺ
Ġà¤¹à¤® à¤¦
Ġà¤Ł à¤°à¤ķ
Ġà¤Ł à¤²à¤¨
à¤¦à¤° à¤¬à¤¨
à¤°à¤ķ à¤Łà¤¨
à¤² à¤ħà¤ª
à¤ħ à¤ľà¤¯
Ġà¤ħ à¤¸à¤ķ
Ġà¤Ń à¤Īà¤²
Ġà¤®à¤¸ à¤ĸà¤°
à¤µ à¤³
à¤¡ à¤°à¤¤
à¤¦à¤° à¤ħà¤¸à¤²
Ġà¤Ĩà¤° à¤ıà¤ļ
Ġà¤ıà¤® à¤Ĩà¤Īà¤ª
à¤Ł à¤Ĺà¤°
Ġà¤®à¤² à¤®à¤²
Ġà¤¨à¤µ à¤īà¤¦
à¤°à¤¬ à¤¡
Ġà¤¹ à¤¤à¤°
à¤µ à¤·
Ġà¤° à¤ľà¤¸
à¤°à¤¦ à¤ķ
à¤Ī à¤¬à¤°
Ġà¤° à¤¸à¤ª
à¤¥ à¤ķà¤°
à¤¤ à¤Ł
Ġà¤Ĭ à¤²
à¤ī à¥Ľ
à¥Ī à¥ĩ
à¤ıà¤² à¤¡
à¤¡ à¤ĸ
à¤¡ à¤²à¤ķ
Ġà¤ıà¤¨à¤Ĩà¤° à¤ıà¤ļà¤ıà¤®
Ġà¤Ī à¤ıà¤®à¤¯
Ġà¤ıà¤¨ à¤ıà¤¬
à¤ªà¤£ à¤ĸ
Ġà¤¸à¤¨ à¤Ĺ
Ġà¤²à¥ľ à¤ķà¤°
Ġà¤Ĳ à¤µ
à¤ļà¤¨ à¤µ
Ġà¤µà¤¸ à¤Ī
à¤Ł à¤ķà¤²
Ġà¤ľà¤¨ à¤¸à¤®à¤¸
Ġà¤ľ à¥ľà¤¤
Ġà¤ı à¤ıà¤«à¤¸
Ġà¥Ń à¥®
à¤ĺà¤Łà¤¨ à¤ķ
à¤ķ à¥Ľ
à¤®à¤¶ à¤°à¤£
Ġà¤®à¤ļ à¤²à¤¤
à¤¤à¤¨ à¤¸
Ġà¤¬ à¤Łà¤²
Ġà¤¬à¤¦à¤¨ à¤¸
Ġà¤ł à¤ł
Ġà¤¦ à¤°à¤¦à¤°
Ġà¤ļà¤°à¤£ à¤ľ
Ġà¤®à¥ĺ à¤¸à¤¦
Ġà¤ķà¤° à¤½
à¤Ĩà¤° à¤Ī
Ġà¤ľà¤¨ à¤ªà¤ķ
Ġà¤īà¤ª à¤ľà¤¤
Ġà¤¸à¤ķ à¤ªà¤ķ
à¤² à¤¯à¤®
à¤ķà¤° à¤ľ
Ġà¤īà¤¦ à¤Ĺ
à¤Łà¤® à¤ª
Ġà¤°à¤¬ à¥ľ
à¤¡ à¤£
Ġà¤ı à¤Łà¤ķ
Ġà¤ĵ à¤£à¤®
Ġà¤Ĩà¤°à¤ıà¤² à¤ıà¤¸à¤ª
à¤ķà¤° à¤ķ
à¥ľ à¤¸à¤µ
à¤¦ à¤¨à¤ķ
Ġà¥¬ à¥Ń
Ġà¤ĩ à¤®à¤¦
Ġà¤ħ à¤¯à¤¨
Ġà¤® à¤ĸà¤¨
Ġà¤§à¤°à¤® à¤ª
Ġà¤Ĩ à¤¹à¤°
à¤µà¤° à¤¦
Ġà¤¬ à¤Ĺà¤°
Ġà¤· à¥ľà¤¯
Ġà¤Ĭ à¤ĸ
Ġà¤ıà¤®à¤ıà¤² à¤¡
Ġà¤ıà¤«à¤Ĩà¤Ī à¤ıà¤ļ
Ġà¤ıà¤¯à¤° à¤¹
à¤¹ à¤¨à¤¸
Ġà¤Ī à¤ıà¤²
Ġà¤ĵ à¤³
à¤° à¤Ķà¤¨
à¤¯à¤ķ à¤®
Ġà¤®à¤Ī à¤¯
Ġà¤ĩà¥ĺ à¤¬
Ġà¤ķà¤ķ à¥ľ
à¥ģ à¤
Ġà¤¤ à¤ī
Ġà¤ł à¤¨à¤ķ
Ġà¤īà¤§ à¤®à¤¸
Ġà¤¤ à¤®à¤¤à¤®
à¥ľ à¤¦
Ġà¤Ī à¤ıà¤®à¤ı
à¤¦ à¤°à¤µ
à¥ģà¤ ¾
Ġà¤ħà¤ł à¤ĸ
Ġà¤¤ à¤°à¤¤
à¤ľà¤¨ à¤µ
Ġà¤Ĺà¤£ à¤µ
à¤ķà¤² à¤Ł
à¤īà¤¦ à¤¯à¤ª
Ġà¤Ĩà¤¤ à¤¤
Ġà¤Ĭà¤ªà¤° à¤µ
Ġà¤ķ à¤¸à¤®à¤¸
Ġà¤Ĭ à¤¬à¤°
à¤²à¤¤ à¤ª
à¤§ à¤ĺ
à¤ª à¤¦à¤°
Ġà¤¡ à¤¹à¤°
Ġà¤ľ à¤ķà¤°
à¤ķà¤° à¤¦
Ġà¤¨à¤° à¤¹à¤°
à¤µ à¤½
Ġà¤ľà¤Ĺ à¤¬
à¤¬à¤° à¤¸
Ġà¤ªà¤² à¥ľ
à¤¤à¤µ à¤ª
à¤¶ à¤ªà¤¤
Ġà¤¸à¤°à¤ķ à¤¤
Ġà¤¹ à¤ī
à¤ķà¤² à¤¹
à¤ĭ à¤£
Ġà¤Ĺà¤ľà¤¨ à¤µ
à¤Ŀ à¤ķà¤¤
Ġà¤īà¤¦ à¤¦
Ġà¤ĸ à¤ªà¤°
à¤ı à¤ĵ
à¤¯ à¤¦à¤¨
à¤¹à¤² à¤¸
à¤ķ à¤ĩà¤¨
Ġà¤¸à¤° à¤µà¤¨
à¤ĸ à¤§
à¥ģ à¥ģà¤Ĥ
Ġà¥§à¥¨ à¥¦
à¤ı à¤²à¤¬
Ġà¤« à¤ļ
à¤¿à¤Ĥ à¤Ĥ
à¤ĩ à¤®à¤¸
à¤Łà¤° à¤¨à¤°
Ġà¤Ĩà¤° à¤Ī
à¤¦ à¤Ĺà¤°
Ġà¤ĩà¤¨ à¤ĸ
à¤² à¤µà¤¸
Ġà¤®à¤Ĺ à¤¹à¤°
Ġà¤ķà¤¦ à¤®à¤¤
Ġà¤¹à¥ľ à¤ªà¤¨
à¤· à¤¬
Ġà¤µ à¥ľ
Ġà¤ħà¤² à¤¬à¤®
Ġà¤¹à¤¥ à¤Ĺ
à¤¤ à¤¹à¤°
à¤¦ à¤¯à¤¸
à¥ģà¤Ĥ à¥°
Ġà¤¡ à¤µà¤²à¤ªà¤®
à¤¯ à¤Ĺà¤£
Ġà¤īà¤² à¤Łà¤¨
à¤¡ à¤¸à¤°
à¤²à¤Ń à¤¤
Ġà¥§à¥¯à¥¯ à¥¦
à¤ıà¤ļ à¤ıà¤«
Ġà¤µà¤¨ à¤ķà¤°
Ġà¤¶ à¤Łà¤°à¤¸
à¤§à¤¨ à¤®
à¤ļ à¤ļ
à¤ľà¤¸ à¤®à¤¨
à¤Ĺà¤° à¤¸
Ġà¤°à¤£ à¤ķ
Ġà¤ıà¤¸ à¤ıà¤®à¤¡
à¤Ĺà¤°à¤® à¤Ĭ
Ġà¤Ŀà¤¨à¤ķ à¤ĩà¤¯
à¤ĩà¤¸ à¤µ
à¤ı à¤¨à¤ķ
Ġà¤° à¤®à¤¤
Ġà¤ķ à¤²à¤¨
Ġà¤®à¤¨ à¤¶
Ġà¤µ à¤¯à¤ķ
Ġà¤ĸà¤Ł à¤ķà¤¤
à¤ļ à¤Ń
Ġà¤ħ à¤¡à¤²
Ġà¤®à¤¦à¤¨ à¤ª
Ġà¤¨à¤ľà¤« à¤Ĺà¤¢
Ġà¤Ĩà¤° à¤Ĩà¤Ī
Ġà¤ĵ à¤®à¤°
Ġà¤ıà¤¨ à¤ıà¤¨
Ġà¤ıà¤®à¤Ĩà¤Ī à¤ıà¤®
à¤ľà¤° à¤ª
à¥Ļ à¤²
à¤¸ à¤Ĩà¤Ī
à¤¤ à¤ªà¤°
à¤®à¤¨ à¤®
Ġà¤¸à¤¬ à¤ľ
Ġà¤¸ à¤Ļ
Ġà¤ľ à¤ĩà¤¸à¤¨
Ġà¤¸à¤¬ à¤¹
Ġà¤²à¤ĸà¤¨ à¤ī
à¤ľà¤Ĺ à¤£
Ġà¤²à¤¯ à¤¬à¤¦
à¤¸ à¤µà¤¨
à¤ĩ à¥ŀ
à¤² à¤Ľ
Ġà¤ī à¤©
à¤® à¤łà¤¤
à¤° à¤ĵ
Ġà¤Ĩà¤° à¤Ĩà¤Īà¤ıà¤«
à¤Ĺà¤¨ à¤Ĩà¤°
à¤¡à¤° à¤Ĩà¤°
¾ à¥ĭ
à¤ ¾à¥ĭ
Ġà¤®à¤¶ à¤µà¤°
Ġà¤Ĩà¤¸ à¤«
Ġà¥ĺ à¤¸
à¤¯ à¤ŀ
à¤¨à¤¦ à¤£
Ġà¤ķà¤² à¤®à¤ķ
Ġà¤Ĭ à¤īà¤®
Ġà¤Ĩà¤īà¤Ł à¤Ĺ
Ġà¤Ń à¤°à¤ķ
à¤£ à¤²
à¤½ à¤ª
Ġà¤¦à¤®à¤¦ à¤®
à¤ŀ à¤µà¤²
Ġà¤¬à¤¹ à¤¤à¤°
à¤Ĺ à¤Ĩà¤īà¤Ł
Ġà¤Ĩ à¤¬à¤¦
à¥Ļ à¤°
Ġà¤ĩ à¤¦à¤²
à¤°à¤¤ à¤¸
Ġà¤¦à¥ŀ à¤¨
Ġà¤¶à¤µ à¤¦
à¤ļà¤² à¤Ĺ
Ġà¤īà¤¦ à¤Ĺà¤®
à¤Ĺà¤° à¤Ĺà¤¢
à¤Ĺà¤° à¤¨
à¤ľ à¤ľà¤¨
Ġà¤° à¤Łà¤¨
à¤Ĩ à¤°à¤¯
Ġà¤ıà¤¨ à¤¯
à¤Łà¤° à¥ŀ
Ġà¤ļ à¤®à¤°
Ġà¤ıà¤¨ à¤ıà¤®à¤¡
à¤¶ à¤°à¤®
Ġà¤ª à¤ĩà¤¸
Ġà¥¬ à¥®
Ġà¤¿ à¥ĩ
à¤° à¤ıà¤¶
à¥Ľ à¤°à¤¨
à¥į à¥ĭ
Ġà¤¸à¤° à¤§à¤¨
Ġà¤Ńà¤° à¤²
Ġà¤Ĩà¤§ à¤°
à¤ľà¤¬ à¤°à¤¦à¤¸
à¤¨ à¤®à¤ķ
à¤¶ à¤Ĺà¤µ
Ġà¤ĩ à¤Ĺà¤²
à¤ıà¤² à¤ıà¤¨
à¤¸à¤° à¤µ
à¤· à¤Ńà¤°
Ġà¥¯ à¥ª
à¤° à¤ľà¤¨à¤ķ
à¤ĩà¤² à¤®
Ġà¤«à¤° à¤ľ
à¤² à¤¢
Ġà¤®à¤¹ à¤Ĺ
Ġà¤ľà¤¬à¤° à¤ľà¤¸
à¤Ĩ à¤®à¤²
Ġà¥¬ à¥¯
Ġà¤¸ à¤ł
Ġà¤Ĩà¤Ī à¤®
à¤Ĺà¤² à¤Ĺ
à¤·à¤® à¤£
Ġà¤ªà¤ļ à¤¡
Ġà¤ı à¤µà¤²
Ġà¤Ł à¤®à¤°
Ġà¤Ĺà¤° à¤ľà¤¤
à¤§ à¤Ńà¤ķ
Ġà¤§ à¤µ
Ġà¤²à¤Łà¤ķ à¤ķà¤°
Ġà¤Ī à¤ĸ
à¤Ĺ à¤Ŀ
Ġà¤§à¤¡ à¤ķà¤¨
Ġà¤¨à¤Ĺà¤° à¤ªà¤°
à¤¦à¤° à¤°
à¤¸à¤¤ à¤¦
à¥ĩà¥ĩ à¥ĩ
Ġà¤ıà¤¨ à¤Ĩà¤ĩà¤ı
Ġà¥ Ł
à¤ķ à¤ªà¤°
à¤¯ à¤ĺ
à¤¯à¤¨ à¤ľ
à¤¹ à¤£à¤¤
Ġà¥¯ à¥«
Ġà¤Ĩà¤° à¤ıà¤¸à¤ª
à¤¯ à¤µà¤¨
à¤µ à¤®à¤¯
Ġà¤ĺ à¤¨à¤®
à¤Ĺà¤® à¤£
à¤ĸ à¤¸à¤¤
à¤Ł à¤Ĺà¤¨
Ġà¤¤ à¤ķà¤¤
Ġà¤ĩ à¤ľà¤²
Ġà¤ı à¤¤à¤¬
Ġà¥§à¥® à¥®
Ġà¤² à¤ļà¤ķ
Ġà¤¸à¤« à¤¦à¤°
Ġà¤¥ à¤¤
à¤°à¤ķ à¤¶
Ġà¤ħà¤° à¤ª
Ġà¤°à¤ľ à¤¬
Ġà¤¹à¤¡ à¤¤
Ġà¤ıà¤®à¤ıà¤® à¤Ł
Ġà¤¦ à¤¨à¤ķ
à¤®à¤¤ à¤µ
à¤µ à¤ķà¤²
Ġà¤ıà¤ıà¤¨à¤ıà¤¸ à¤Ĩà¤Ī
à¤ı à¤¸à¤¨
Ġà¤®à¤¸ à¤²à¤¤
Ġà¤¹à¥ľà¤ķ à¤®
Ġà¤Ĺ à¤µà¤²
à¤Ľ à¤ķ
Ġà¤Ĩà¤² à¤®à¤¬
Ġà¤¤à¤Ł à¤¬à¤¨
à¤® à¤¶à¤ķ
Ġà¤¹ à¤¸à¤®
Ġà¤ħà¤ª à¤¹à¤°
à¤Ł à¤ĵà¤µà¤°
à¤¸à¤¬ à¤Ĺ
à¥Ľ à¤®à¤°
Ġà¤¸à¤ĺ à¤¨à¤¤
Ġà¤ħ à¤©
à¤¯à¤® à¤¸
Ġà¤¦à¤® à¤ķà¤²à¤ķà¤°
à¤¸ à¤ĳà¤Ł
Ġà¤¬à¤¦à¤¹ à¤ľà¤®
Ġà¤Ĩà¤¨ à¤°
Ġà¤Ĩà¤¸ à¤µ
Ġà¤ļà¤² à¤ķ
à¤µà¤¤ à¤ª
à¤Ķ à¤·à¤§
Ġà¤ħà¤Ĭ à¤°
Ġà¤ıà¤« à¤ľ
à¤¹ à¤Ĺà¥Ŀ
à¤¨ à¤§à¤°
à¤ĵ à¤Ī
Ġà¤ĩà¤¤ à¤¸
Ġà¤ĳ à¤ī
à¤²à¤® à¤¡
à¤Ĩ à¤ļ
Ġà¤Ł à¤¶à¤¨
Ġà¤¹à¤¡ à¤¸à¤¨
à¤Ńà¤µ à¤¶
à¤£ à¤ĺ
Ġà¤¤ à¤¶à¤°
Ġà¤Ĩà¤Ī à¤ıà¤¨à¤¡
Ġà¤ıà¤¨à¤Ĩà¤Ī à¤ĵà¤ıà¤¸
Ġà¤¸ à¤¸à¤®
Ġà¤ĸ à¤°à¤®
Ġà¤ħà¤² à¤¬à¤°
Ġà¤¥ à¤Ĺ
à¤« à¤ľà¤Ī
à¤¯à¤° à¤¸à¤¸
à¤ıà¤¨ à¤ıà¤¸à¤¸
Ġà¤Ŀà¤¨ à¤Ŀà¤¨
à¤°à¤Ń à¤°
Ġà¤ªà¤ļ à¤ªà¤¨
à¤¦à¤° à¤¹
à¥§ à¥ª
à¤¸ à¤ĩ
Ġà¤¡ à¤«
Ġà¤¥à¤ķ à¤ķà¤°
à¤² à¤°à¤µ
à¤ļà¤¨ à¤ľ
Ġà¤Ĺà¤Ĺà¤¨ à¤¦
Ġà¤ī à¤«à¤¨
Ġà¤Ł à¤Łà¤ķ
Ġà¥Ľ à¤²
Ġà¤Ĺ à¤ĩ
Ġà¥ŀ à¤¤
à¤° à¤īà¤¤
à¤® à¤ħà¤ª
à¤µ à¤ªà¤°
à¤ľ à¤¹à¤°
Ġà¤ĵ à¤ªà¤²
Ġà¤® à¤¯à¤¸
à¤¶à¤¨ à¤¬
Ġà¥ĺ à¤¦
Ġà¤ªà¤µ à¤Ī
à¤¯à¤® à¤¹
Ġà¤Ĩà¤¹ à¤¹
Ġà¤ħà¤² à¤«
Ġà¤Ĭ à¤¬à¤¡
Ġà¤ħà¤® à¤ļ
Ġà¤¡ à¤¸à¤Ł
Ġà¤Ĩ à¤ļà¤°
à¤·à¤¯ à¤Ĺà¤¤
Ġà¤Ĩà¤Ĺ à¤¨
Ġ à¥ĥ
à¤Ĺà¤® à¤ª
à¤² à¤®à¤¤
Ġà¤²à¤® à¤¹
Ġà¤Ĩà¤µ à¤Ńà¤Ĺà¤¤
Ġà¤ħà¤° à¤ľ
Ġà¤Ĺ à¤¬à¤°
Ġà¤Ł à¤¤
Ġà¤ıà¤® à¤¯
Ġà¤° à¤¸à¤®
Ġà¤¸à¤°à¤²à¤¤ à¤®
à¤¥à¤² à¤Ĺà¤¡
Ġà¤Ĺà¤ľ à¤ªà¤¤
Ġà¤°à¤¨ à¤Ł
Ġà¤¶à¤¤ à¤ª
à¤°à¤µ à¤®à¤¯
à¤Ń à¤ķà¤°à¤£
à¤ıà¤« à¤Ĩà¤°
Ġà¤ħà¤¬ à¤¹
Ġà¤ĳ à¤µ
à¤¦à¤¨ à¤ª
Ġà¤¬à¥ľ à¤¬à¥ľ
Ġà¤¦à¤ĸà¤² à¤ħ
Ġà¤Ĩ à¤®à¤°
à¤°à¤¤ à¤Ń
à¤µà¤Ł à¤ĸ
à¤Ľ à¤ªà¤°
Ġà¤ªà¤¤à¤Ŀ à¥ľ
à¤¡ à¤®à¤°
à¤Ĩà¤µ à¥Ľ
Ġà¤ļà¤¢ à¤¨
à¤§ à¤¹
à¤¶à¤¨ à¤ĸ
Ġà¤ı à¤ıà¤®à¤¸
Ġà¤ĸ à¤ľà¤°
à¤ī à¤¥à¤µ
à¤īà¤¨ à¤¹
Ġà¥ŀ à¤ķ
Ġà¤ľà¤¯ à¤Ĺ
Ġà¥¯ à¥®
à¥§ à¥©
à¤¥ à¥ľ
Ġà¤ħà¤ª à¤¯à¤¶
Ġ à¥ĭà¤Ĥ
Ġà¤Ĺ à¤¨à¤®
Ġà¤ªà¤¥ à¤Ń
Ġà¤Ī à¤ıà¤®
Ġà¤¹à¤® à¤īà¤®
Ġà¤ªà¤² à¤Ńà¤°
à¤·à¤§ à¤°à¤¤
Ġà¤¨à¤° à¤ªà¤¤
à¤¤ à¤¬à¤²
à¤µ à¤Ľ
à¤¡ à¤ħà¤²
à¤Ń à¤²à¤¤
Ġà¤Ĩà¤ī à¤°
Ġà¤Ĺ à¤«à¤²à¤¤
Ġà¤¦à¤¹ à¤ķà¤¤
à¥¨ à¥«
Ġà¤īà¤¦à¤¯ à¤Ń
Ġà¤Ĩà¤Īà¤ıà¤« à¤ıà¤¸à¤¸
Ġà¤Ĺ à¤ľà¤ķ
Ġà¥Ľ à¤¹à¤¨
Ġà¤° à¤¸à¤¨
Ġà¤ıà¤« à¤Ĩà¤°
Ġà¤ļà¤ª à¤²à¤¤
à¤¨à¤¤ à¤¶
à¤ª à¤¹à¤¸
Ġà¤¸ à¥ľà¤¨
Ġà¤ħà¤¤ à¤¹à¤°
à¤¹ à¤¸à¤ª
à¤¬ à¤¬à¤¡
à¤®à¤ķ à¤¦
à¤ı à¤¹
à¥į à¤¾à¤¾
à¤§à¤¨ à¤µ
Ġà¤ıà¤¨ à¤ıà¤«à¤ıà¤²
Ġà¤Ĳ à¤¶à¤¬
Ġà¤µà¤° à¤µà¤°
à¤ķ à¤¸à¤®à¤¯
à¤Ĺà¤² à¤¦
Ġà¤īà¤¦ à¤¯à¤µ
Ġà¤¸à¤® à¤¥
Ġà¥¯ à¥¬
Ġà¤ı à¤ıà¤ķ
à¤¯ à¤µà¤¨à¤ª
Ġà¤ħà¥ŀ à¥ļ
à¤® à¤Łà¤¨
Ġà¤ĸ à¤°à¤µ
Ġà¤ıà¤®à¤° à¤ľ
Ġà¤ķà¤®à¤² à¤ľ
à¤Ī à¤Ĩà¤°à¤¸
à¤Ĥ à¥Ģ
Ġà¤Ĵ à¤°
Ġà¤¬ à¤ĸà¤°
Ġà¤¨à¤¯à¤¨ à¤¤
Ġà¤© à¤¯
à¤¦à¤° à¤Ĺà¤¢
Ġà¤« à¤¯
Ġà¤¶à¤¬ à¤¦
Ġà¤Ĳà¤¤ à¤¬
à¤¬à¤¸ à¤ª
à¤° à¤Ĺà¤¨
Ġà¤ª à¤µà¤¤
Ġà¤ĸ à¥Ľ
Ġà¤ī à¤¶
Ġà¤ıà¤« à¤ıà¤«
à¤¸ à¤ĳà¤«
Ġà¤ıà¤«à¤ıà¤¸à¤ıà¤¸ à¤ıà¤Ĩà¤Ī
Ġà¤ĺ à¤¬à¤¡
Ġà¥§à¥® à¥«à¥Ń
à¤ħ à¤¨à¤¸
à¤Łà¤°à¤ķ à¤¨
à¤¦ à¤¯à¤°
à¤Ĺ à¤µà¤¸
Ġà¤ı à¤ļà¤ķ
Ġà¤ļà¤Ł à¤Ĺ
Ġà¤¹à¤®à¤¸ à¥ŀà¤°
Ġà¤¨à¤° à¤µà¤°
Ġà¤Ĥ à¤¿
Ġà¤Ł à¤£
à¤³ à¤¤
Ġà¤ķà¤¹ à¤²à¤Ĺ
Ġà¤®à¤ļ à¤²à¤¨
Ġà¤ħà¤¸ à¤µ
à¤®à¤² à¤ĸà¤¨
à¤·à¤£ à¤¤
Ġà¤¹à¤°à¤¦ à¤¯
à¤ľà¤¨ à¤ľ
Ġà¤² à¤¹à¤¨
Ġà¤ıà¤ķ à¤ªà¤ķ
à¥¦à¥¦ à¥¦à¥¦
Ġà¤¦ à¤°à¤¦
à¤¯ à¤¡à¤°
à¥Ģ à¥į
à¤ī à¤ī
Ġà¤ıà¤¨ à¤Ĺ
à¤¤ à¤¬à¤¦
à¤¯à¤® à¤ª
à¤°à¤¤ à¤°à¤¤
à¤ķ à¤ĳà¤«
Ġà¤Ŀà¤ª à¤Łà¤®
à¤° à¤ıà¤®
Ġà¤¸à¤¬ à¤Ł
à¤ķà¤° à¤°
Ġà¥Ń à¥Ń
à¤ħ à¤ľà¤®
Ġà¤¸à¤® à¤¶
à¤Ĭ à¤¤
Ġà¥ĺ à¤¤à¤°
à¥Ĳ à¥Ĳ
Ġà¥¬ à¥§
à¤² à¤¦à¤°
à¤¸à¤® à¤µ
Ġà¤ļ à¤¤à¤®
Ġà¤¾ à¥Ģ
à¤® à¤¬à¤¹
Ġà¤¸ à¥Ļ
Ġà¤Ĩà¤° à¤ıà¤ķ
à¤¶à¤¨ à¤ľ
Ġà¥Ń à¥ª
à¤°à¤¬ à¤¹
Ġà¤ł à¤¸
Ġà¤¬à¤°à¤¨ à¤µ
Ġà¤ĸà¤Ł à¤ªà¤Ł
Ġà¥§à¥¯à¥® à¥¦
Ġà¤°à¤¹ à¤¬à¤°
Ġà¥Ļ à¤²
Ġà¤ĩà¤° à¤¡
à¤ĩ à¤¥à¤¨
à¤µà¤¨ à¤¨
Ġà¤¸ à¤ªà¤¤
à¤ĵ à¤Ĩà¤ĩ
Ġà¤ľà¤® à¤¦à¤Ĺ
à¤¹ à¤®à¤¦
Ġà¤¦ à¤®à¤¯
à¤Ī à¤Ĩà¤°
à¤¼ à¥Ĥà¤ģ
à¤¦ à¤°à¤¦
à¤ĩ à¤ĵà¤µà¤°
Ġà¤ħ à¤Łà¤µ
Ġà¤ıà¤¨ à¤ıà¤ķ
Ġà¤īà¤¦ à¤¯à¤¸
à¤ĩà¤¬à¤° à¤¨
à¤ļ à¤Ĺà¤µ
à¤¦ à¤®à¤¨
à¤ŀ à¤ķ
Ġà¤īà¤ľ à¤¬
Ġà¤¦à¤² à¤ªà¤¤
à¤¤à¤¨ à¤Ĺ
Ġà¤īà¤Ń à¤¯à¤ļà¤°
à¤Ĩà¤ľ à¤ķà¤²
à¤µ à¤Ľà¤¤
à¤¢ à¤µ
Ġà¤Ĩà¤Ī à¤ıà¤¨
Ġà¤ ³
Ġà¤§à¥ľ à¤ķà¤¤
à¤ İ
à¤µà¤¨ à¤ļà¤ķ
Ġà¤ħ à¤Łà¤°
à¤ĩà¤® à¤ª
Ġà¤Ĩà¤° à¤ıà¤ıà¤«
à¤°à¤ª à¤Łà¤¨
à¤Łà¤¨ à¤¸
à¤ĩà¤¡ à¤°à¤®
à¤¨ à¤¤à¤°
à¤¤ à¤Ĺà¤°
Ġà¤® à¤°à¤¹à¤²
Ġà¤ı à¤ıà¤Ĩà¤Ī
à¤ĵ à¤Ĩà¤°
Ġà¥Ļ à¤¤à¤°à¤¨
¾ à¥ĭà¤Ĥ
à¤ ¾à¥ĭà¤Ĥ
Ġà¤ķà¤Ł à¤Ĩà¤īà¤Ł
à¤ħ à¤¡
à¤Ī à¤ĸ
à¤¯à¤£ à¤¤
Ġà¤¬à¤¨ à¤¬
Ġà¥Ľ à¤ķ
à¤°à¤¬ à¤¤
à¤¡ à¤Ľ
Ġà¤ħà¤¹ à¤¹à¤¹
Ġà¤ķà¤° à¤ľà¤Ī
Ġà¥Ń à¥¬
à¤® à¤Ĺà¤²
à¤¨à¤® à¤§
Ġà¤ªà¤¨ à¤ĺà¤Ł
à¤¦à¤® à¤¸
à¤µ à¤ĩ
Ġà¤¸à¤¤ à¤²à¤ľ
Ġà¤ķà¤° à¤¥
Ġ à¥Į
Ġà¤Ī à¤ıà¤¨à¤Ł
à¤Ĺ à¤¬à¤¹
Ġà¤ī à¤Ŀ
Ġà¤Ķ à¤§
à¤µà¤² à¤§à¤°
Ġà¤ıà¤« à¤Ĩà¤Īà¤ª
à¤ĩ à¤ķà¤¨
à¤ķ à¤ĳà¤Ł
à¤²à¤¨ à¤µ
Ġà¤¶à¤² à¤ľà¤®
à¤¥à¤® à¤ª
Ġà¤° à¤ļà¤ķà¤°
à¤Ĳ à¤²
Ġà¤¯ à¤Ĺ
Ġà¤ıà¤¸ à¤ıà¤®à¤ı
à¤¤ à¤¡à¤¬
à¤¸à¤° à¤²
à¤¯à¤° à¤°
à¤ĩà¤Ł à¤²à¤°
Ġà¤¸à¤® à¤ª
à¤ªà¤ķ à¥ľ
Ġà¤īà¤® à¥ľà¤¤
Ġà¥ŀ à¤¸à¤²
Ġà¤Ĭ à¤īà¤¨
à¤ķà¤Ł à¤¸
Ġà¤¬à¤¢ à¥ĺà¤°
à¤²à¤ªà¤ķ à¤µ
à¤¡à¤¤ à¤¬
à¤® à¤¯à¤ķ
à¤µ à¤ĸ
à¤ĩà¥Ľ à¤°à¤®
Ġà¤¦ à¤¦à¤°
à¤¹ à¤ı
Ġà¤ĩ à¤Ľ
à¥Ń à¥¦
Ġà¤ı à¤¦
Ġà¤Ĩà¤Ĭ à¤Ł
Ġà¤¶ à¤°à¤®à¤¨
à¤ĺ à¤łà¤¨
Ġà¤ıà¤¨ à¤¹
à¥ļ à¥Ľ
Ġà¤¶à¤°à¤£ à¤®
Ġà¤ħ à¤¤à¤¨
Ġà¤Ĩà¤Ĺ à¤¬à¤¬
Ġà¤£ à¤®
à¤¤à¤ľ à¤®
à¤°à¤® à¤®
Ġà¤Ĩà¤° à¤ĵà¤¬
à¥© à¥«
Ġà¤Ĩà¤Ī à¤Łà¤®
Ġà¤Ĩà¤µ à¤²
Ġà¤ĵ à¤°à¤¤
Ġà¤® à¤ļà¤¤
Ġà¤ª à¤µà¤°
à¤Ĺ à¤¥
Ġà¤ı à¤ıà¤ı
à¤Ŀ à¤ª
Ġà¥§à¥¯ à¥«à¥¦
à¤ªà¤ķ à¤ķ
Ġà¤ıà¤® à¤Ĩà¤ĩà¤ª
à¤į à¤«
Ġà¤ĵ à¤ł
Ġà¥§à¥¯à¥¯ à¥¯
Ġà¤¤à¤¦à¤¨ à¤¨
Ġà¤² à¤·
à¤£ à¤ľà¤¨
Ġà¤ıà¤¨à¤Ī à¤ıà¤«à¤Ł
Ġà¤Ĩà¤Īà¤ıà¤¸à¤ıà¤¸ à¤ıà¤«
Ġà¤īà¤ª à¤¤
à¥ľ à¤Ń
à¤§à¤ª à¤°à¤ķ
à¤¸ à¤ħà¤ªà¤¨
Ġà¤¨ à¤°à¤µà¤£
à¤¤à¤¨ à¤¯
Ġà¤Ĩà¤Īà¤Ĩà¤Ī à¤ıà¤«à¤ıà¤²
Ġà¤Ĩ à¥ļ
à¤¹ à¤²à¤ķ
à¤¯ à¤Ĺà¤¤
Ġà¤¥ à¤ªà¤²
Ġà¤Ķ à¤Ł
Ġà¤¦à¤² à¤¸
Ġà¤ķà¤Ī à¤²
Ġà¤ľà¤° à¤¨à¤²
Ġà¤¬à¤¸ à¤µ
à¤® à¤Łà¤ķà¤°
Ġà¤ķà¤Ľ à¤µ
Ġà¤ķà¤ł à¤®
Ġà¤ªà¤°à¤® à¤¬
Ġà¤īà¤ª à¤ķà¤²
Ġà¤¶à¤¤ à¤ªà¤¥
Ġà¤¹à¤° à¤ļ
Ġà¤ıà¤² à¤Ĩà¤°
à¤Łà¤ķ à¤¨
à¤Ĺà¤¨ à¤¹à¤°
à¤ī à¤¨à¤®
à¤« à¤ª
Ġà¤Ĭ à¤¸à¤°
Ġà¤ªà¤°à¤® à¤§
Ġà¤ıà¤« à¤ĵà¤ıà¤«
Ġà¤°à¤£ à¤¥
à¤ĺ à¤¸
Ġà¤¦ à¤¦à¤²
à¤¿ à¥ĭ
à¤ļ à¤Ī
à¤ī à¤«
à¤ī à¤ªà¤ļ
Ġà¤ª à¤ĩ
Ġà¤° à¤¸à¤²
Ġà¤ıà¤®à¤ıà¤¸ à¤ľ
à¤µ à¤§à¤¨
Ġà¤®à¤° à¤ĺà¤Ł
Ġà¤ķà¤Ł à¤ĺ
Ġà¤¬ à¤ķà¤¤
Ġà¤µ à¤¨à¤ķ
Ġà¤ķà¤® à¤²à¤ķ
à¤Ĭ à¤®
Ġà¤ªà¤° à¤ĸà¤¤
Ġà¤¨ à¤²à¤µ
Ġà¤¬ à¥Ľ
à¤ľ à¤µà¤°
à¤«à¤° à¤µà¤°
à¥Ľ à¤°à¤²
Ġà¤ıà¤ļ à¤ıà¤¸à¤ıà¤¸à¤¸
Ġà¥® à¥®
Ġà¥Ľ à¥Ļ
Ġà¤ıà¤¡ à¤ľ
Ġà¤ı à¤²à¤¯
à¤¨à¤¨ à¤µ
à¤§ à¤¹à¤¸
à¤¬à¤Ī à¤ķà¤°
à¤ľà¤° à¤¬
à¤£ à¤ªà¤ķ
à¤²à¤ļ à¤Ł
à¤ħ à¤Łà¤²
Ġà¤«à¤¡ à¤¨à¤µ
à¤²à¤Ĺ à¤Ńà¤Ĺ
à¤ıà¤ļ à¤Ĩà¤°
Ġà¤¨à¤Łà¤µà¤° à¤²
à¤¨ à¤ıà¤ķ
Ġà¤ķà¤¹ à¤ķ
à¤¨à¤¤ à¤²
Ġà¤Ķ à¤µ
à¤¸à¤¨ à¤µ
à¤£ à¤ļ
Ġà¤Ĩ à¤°à¤£
à¤Ĺ à¤¹à¤¬
à¤®à¤² à¤ķ
Ġà¤ıà¤ļ à¤ıà¤®à¤¡
Ġà¤Ń à¤®
Ġà¤¬ à¤Ĺà¤¡
Ġà¤Ĩà¤Īà¤ı à¤¨à¤¸
à¥Ļ à¤¤
Ġà¤® à¤ķà¤µ
à¤Ńà¤µ à¤ľà¤¨
Ġà¤ī à¤°à¤²
Ġà¤¦ à¤¡
à¤ł à¤¬
Ġà¤²à¤ķ à¤®à¤²
à¤¬à¤² à¤Ł
à¤µà¤² à¤Ĺ
à¤Ĩà¤Ī à¤ıà¤®à¤ıà¤¸
à¤Ĺà¤® à¤Ń
à¤¥à¤² à¤Ĺ
à¤ķ à¤¨à¤¸
Ġà¤ı à¤Ĩà¤°à¤ıà¤®
à¥ĥ à¤¿
Ġà¤ħà¤Ĺ à¤¨
Ġà¤¹ à¤¸à¤¦
à¤°à¤¸ à¤²
Ġà¤Ĩà¤ĩà¤ıà¤¸ à¤Ĩà¤ĩ
à¤§ à¤µà¤ª
à¤° à¤¯à¤®
Ġà¤ķà¤° à¤¬à¤²
à¤¨ à¤ħ
Ġà¤ªà¤° à¤¸à¤°
à¤¯ à¤°à¤ķà¤Ł
à¤Ł à¤ħà¤Ł
à¤¬ à¤«
Ġà¤¦ à¤Ī
Ġà¤ıà¤« à¤Ĩà¤Īà¤Ĩà¤Ī
à¤° à¤Ķà¤°
Ġà¤ıà¤® à¤Ĩà¤Īà¤¸
Ġà¥Ń à¥©
Ġà¤¤ à¤µà¤°
Ġà¤¸à¤¬ à¤ĩ
Ġà¤ıà¤ıà¤¸ à¤Ĩà¤ĩ
Ġà¤ıà¤®à¤ıà¤¸ à¤¡
à¤ħ à¤¹à¤¹
Ġà¤¸à¤ļ à¤²
à¤²à¤¬ à¤¦
Ġà¤ĵ à¤ķà¤²
à¤° à¤°à¤¹
Ġà¤ıà¤ļ à¤ıà¤®
Ġà¤ħà¤µà¤¨ à¤¤
à¤ķà¤ª à¤¡
Ġà¤ıà¤² à¤ıà¤®
à¤Ĩ à¤ĸà¤°
à¤ıà¤¨ à¤ıà¤ļ
Ġà¤« à¤°à¤¦
à¤µ à¥Ľ
Ġà¤ı à¤Ĩà¤°à¤ĵ
à¤°à¤¹ à¤¸à¤¨
Ġà¤® à¤®à¤²
à¤ķ à¤ªà¤¨
Ġà¤ķà¤¹ à¤²à¤ķ
Ġà¤¹à¤® à¤ªà¤°
Ġà¤ıà¤ļ à¤ıà¤«
Ġà¤µ à¤¦à¤¨
Ġà¤¹à¤° à¥ľ
à¥Ģ à¥Ĭ
à¤¨ à¤ľà¤®
Ġà¥® à¥¬
à¤ī à¤¸à¤®
à¤Ĩà¤Ī à¤Ĩà¤Īà¤Ł
Ġà¤ĸà¤¡ à¤¸
Ġà¤· à¤¯
Ġà¤ķ à¤¤à¤²
Ġà¤īà¤¸ à¤¬
à¤¦à¤Ĺ à¤¢
Ġà¤ļà¤° à¤ļ
à¤¶ à¤¯à¤¤
Ġà¤ľà¤¯ à¤Ń
Ġà¤īà¤ªà¤¨ à¤¯à¤¨
à¤µà¤¸ à¤¹
Ġà¤ıà¤ķ à¤µà¤ļà¤¨
Ġà¤ıà¤¨à¤ıà¤ļ à¤Ĩà¤°à¤¸
à¤ıà¤² à¤ıà¤®
Ġà¤®à¤Ŀ à¤²
à¤¨à¤ķ à¤¦
Ġà¤ī à¤ħà¤ª
à¤ĩà¤¨ à¤«
Ġà¤ħà¤ª à¤°à¤¦à¤¨
Ġà¤¬ à¤ĸà¤¤
Ġà¤ķ à¥ŀà¤¨
Ġà¤°à¤£ à¤Ľ
Ġà¥§à¥¯à¥¯ à¥®
à¤ļà¤¨ à¤¤
Ġà¥§à¥¯à¥¯ à¥§
Ġà¤² à¤Īà¤ķ
Ġà¤¤ à¤ªà¤¶
à¥§ à¥¬
à¤¤ à¤®à¤¤
Ġà¤ľà¤¨à¤ª à¤¦à¤µ
Ġà¥® à¥¨
Ġà¤ªà¤° à¤Ĺ
à¤Ĺà¤° à¤µ
Ġà¤ħà¤ļ à¤°
à¤¤à¤¨ à¤¬
Ġà¤ª à¤ķà¤°
Ġà¤¬à¤° à¤ľ
Ġà¤¯ à¤µà¤°
Ġà¤ļ à¤Łà¤µ
à¤° à¤¬à¤¸
à¤ķ à¤®à¤£
à¤¦ à¤Ĺà¤²
Ġà¤¨à¤ķà¤² à¤ļ
à¤µ à¤¦à¤¯
à¤ĩà¤Ł à¤¬
à¤²à¤ķ à¤£
Ġà¤ħà¥Ľ à¤¹à¤°
Ġà¤ł à¤¸à¤ķ
Ġà¤ľà¤Ĺà¤¤ à¤¸
à¤¶à¤¨ à¤Ĺà¥Ŀ
à¤¨à¤® à¤°
à¤§ à¤²à¤ķ
Ġà¤¤à¤° à¤°
à¤ĳ à¤¡
à¤ĵ à¤ıà¤²à¤Ł
Ġà¤§à¤°à¤® à¤²
à¤ķ à¤¥à¤¨
à¥ĥ à¤
Ġà¤Ĩ à¤Ĩà¤¹
à¤¸ à¥ŀ
à¤ľ à¤£
à¤¦ à¤ķà¤¨
à¤¯à¤¨ à¤¬
à¤¸ à¤ıà¤¸
Ġà¤ľà¤² à¤¡à¤®à¤°
Ġà¤¤ à¥ŀ
Ġà¤ĵ à¤Ĩà¤Īà¤¸
à¥ĥà¤ ¾
à¤¨ à¤°à¤¸
Ġà¤īà¤ħà¤ª à¤²à¤¬
Ġà¤² à¤ķà¤°
Ġà¤ķà¤° à¤ĺ
Ġà¤°à¤ķ à¤µ
à¤ľà¤® à¤¶
Ġà¤Ĩà¤° à¤Īà¤¸
Ġà¤ıà¤¬ à¤Ł
à¤²à¤« à¤¤
Ġà¤¶ à¤ľ
à¥ŀ à¤¹à¤®
Ġà¤°à¤ķ à¤¬à¤°
à¤¤ à¤ĵ
à¤« à¤²à¤ķ
Ġà¥ļ à¥Ľ
à¤¡ à¤¨à¤ķ
Ġà¤ªà¤° à¤®à¤²
à¤Ī à¤¬à¤²
Ġà¥Ń à¥¯
à¤ª à¤§
à¤ĺ à¤Ī
Ġà¤ī à¤®à¤¨
Ġà¤ıà¤ķ à¤Ľà¤¤
Ġà¤®à¤ľ à¤¹à¤°
à¤¦ à¤Ł
à¥ĭ à¥ĭ
Ġà¤ķà¤¨ à¤ĸà¤²
Ġà¤ħ à¤¹à¤ķ
Ġà¤°à¤¨ à¤Ĩà¤īà¤Ł
à¥¨ à¥¦à¥¦
Ġà¥¯ à¥Ń
Ġà¤Ńà¤ľà¤¨ à¤²
Ġà¤®à¤Ĭ à¤°
à¤®à¤° à¤¨à¤ľ
à¤¯à¤° à¤Ĺ
à¤¤à¤ķ à¤¥
Ġà¤ħà¤Ĺà¤° à¤ļ
Ġà¤ľà¤Ĺ à¤ª
Ġà¤ħà¤¨ à¤¹à¤¦
à¤¯à¤¨ à¤Ł
à¤µà¤ļ à¤°à¤£
à¤¨à¤® à¤£
Ġà¤ıà¤ļ à¤ıà¤¸à¤¸
à¤¡à¤² à¤®
à¤µà¤ľ à¤µ
Ġà¥ĺ à¤¸à¤®
Ġà¥Ń à¥§
à¤Ł à¤²à¤¨
Ġà¤ħ à¤ĩà¤²
à¤¨à¤¦ à¤¸
à¤°à¤µ à¤¦
Ġà¤¬ à¥Ļ
Ġà¤ª à¤Ī
Ġà¤« à¤¹à¤®
Ġà¤ª à¤¸à¤®
Ġà¥§à¥¨ à¥«
Ġà¤ı à¤µà¤¨
à¤Ĩ à¤ĩà¤¯
Ġà¤ħà¤ª à¤°à¤®
à¤ķ à¤Łà¤¨
Ġà¤Ł à¤²à¤¤
Ġà¤Ĺà¤² à¤Ĺà¤²
à¤· à¤¹
Ġà¤°à¤£ à¤¥à¤®
Ġà¤Ĺ à¤¡à¤°
à¤¦ à¤¶à¤ķ
à¤ĵ à¤¹
Ġà¤ıà¤¸à¤ı à¤Ĩà¤°
à¤Ľ à¤ł
à¤¸ à¤Łà¤¤
à¤¡ à¤ı
à¤ĵ à¤«
Ġà¤µ à¤·à¤°
à¤¡à¤² à¤µ
à¤² à¥ľ
à¤ĩ à¤ĩ
à¤ĩà¤¡ à¤¸
à¤ļà¤¨ à¤ª
à¤®à¤°à¤¤ à¤¨
Ġà¤ı à¤ıà¤®à¤¡
Ġà¤ĩà¤¨ à¤°à¤µ
à¤¦à¤¬ à¤¦
Ġà¤®à¤¤ à¤²à¤µ
à¤¨ à¤Ĭ
Ġà¤¸à¤¹ à¤¸à¤ª
à¤ľ à¤¬à¤°
Ġà¤ľà¤² à¤ľà¤²
Ġà¤ıà¤¨ à¤¡à¤¬
Ġà¤¹ à¤¨à¤ķ
à¤£ à¤¹
Ġà¤¸à¤¨ à¤¬
à¤ª à¤µà¤ķ
à¤§ à¤¨à¤ķ
Ġà¤ħà¤¸ à¤Ĺ
Ġà¤Ĩà¥Ľ à¤®à¤Ĺà¥Ŀ
Ġà¤ªà¤° à¤°
Ġà¤¸à¤ľ à¤µ
à¤« à¤µ
Ġà¤ıà¤¡ à¤¹
à¤¨à¤¨ à¤Ĺà¤°
à¤¦à¤¨ à¤®
à¤¦ à¤µà¤°
Ġà¤« à¤²à¤µ
Ġà¤· à¤¤
à¤¤ à¤®à¤¨
à¤ıà¤¨à¤ıà¤² à¤¡
Ġà¤ıà¤®à¤ıà¤® à¤ıà¤«
à¤°à¤¹ à¤ķ
Ġà¤®à¤¤ à¤ª
Ġà¤®à¤¶ à¤°à¤«
Ġà¤ĩà¤¨ à¤¤
Ġà¥® à¥©
à¤² à¤¬à¤²
Ġà¤«à¤° à¤¹à¤¤
Ġà¤¬à¤ľ à¤µ
Ġà¤¯ à¤®à¤ķ
à¤µà¤° à¤Ł
Ġà¤¸à¤¦ à¤ķ
Ġà¤¤ à¥Ļ
à¤īà¤¡ à¤«
Ġà¤¤ à¤¡à¤ª
Ġà¤ıà¤¨à¤ıà¤ļ à¤ª
à¤¸ à¤Ĩà¤°
Ġà¤µ à¤µà¤µ
à¥¨ à¥ª
Ġà¤°à¤¤à¤¨ à¤Ĺà¤¢
Ġà¤ħà¤° à¤¨à¤¬
Ġà¤¬à¤² à¤¹
à¤¡ à¤Ĺà¤¢
à¤ļà¤² à¤ª
à¤Ńà¤² à¤Ĺà¤¢
Ġà¤ıà¤¸ à¤ĵà¤ıà¤¸
Ġà¤µà¤¨ à¤Ń
à¤· à¤®à¤¯
Ġà¤¨ à¤µà¤¤
à¤« à¤°à¤®
à¤¹ à¥ŀ
à¤² à¤¸à¤¤
Ġà¤¸à¤¨ à¤«
à¤°à¤µ à¤¸
à¤°à¤® à¤Ĺ
à¤¯à¤® à¤°
Ġ à¥ĩà¤Ĥ
à¤¹ à¤¥
Ġà¤ĵ à¤¦
Ġà¤ªà¤Ł à¤ķà¤¤
à¤« à¤ľ
à¤½ à¤¹
Ġà¤¶à¤¹à¤¨ à¤µ
Ġà¤īà¤²à¤Ŀ à¤ķà¤°
Ġà¤ı à¤Ĩà¤Īà¤Ĩà¤°
à¤Ń à¤¯à¤¤
Ġà¤Ĩà¤¯ à¤¡
Ġà¤į à¥ŀ
Ġà¤Ĩ à¤¹à¤²
à¤Ń à¤ľ
à¤¶à¤¨ à¤Ĺà¤°
Ġà¤Ĳ à¤¬à¤ķ
Ġà¥ŀ à¤Ł
Ġà¤Ńà¤ľà¤¨ à¤ª
à¤® à¤Ĩ
à¤¶ à¤°à¤¦
à¥Ĥ à¤¿
à¤² à¤§à¤°
Ġà¤ıà¤® à¤Ĩà¤Īà¤ıà¤¸
à¤· à¤«à¤²
Ġà¤® à¤¬
Ġà¤¬à¤¦ à¤ľ
à¤ł à¤¹
Ġà¥¯ à¥§
Ġà¤ķà¤® à¤¨
à¤¦ à¤«
à¤ķà¤¸à¤® à¤¯à¤ª
Ġà¤ķ à¤ľà¤²
à¤µà¤¤ à¤Ń
à¤ıà¤® à¤ıà¤ļ
Ġà¥ ħ
Ġà¤¬ à¤Ń
à¤¬à¤¨ à¤Ĺà¤°
à¤ķ à¤¶à¤ķ
Ġà¤°à¤¨à¤° à¤ħà¤ª
Ġà¤ħà¤Ĺ à¤¹à¤¨
Ġà¤ľà¤Ĺà¤¤ à¤Ĺ
à¤§ à¤Ĺà¤®
à¤¸à¤° à¤¦
à¤¿ à¥ģ
Ġà¤® à¤ŀ
Ġà¤² à¥Ľ
Ġà¤¹à¤° à¤¹
Ġà¤°à¤¨ à¤¬
Ġà¤¤à¤ĸà¤¤ à¤ª
Ġà¤ªà¥ľ à¤ķà¤°
Ġà¥® à¥§
Ġà¤ĩ à¤°à¤®
à¤² à¤ķà¤²
à¤ı à¤¥
à¤Ī à¤Łà¤°
Ġà¤¤à¤° à¤µ
à¤ªà¤Łà¤¨ à¤®
Ġà¤Ĩà¤Īà¤Ĩà¤Ī à¤ıà¤®à¤¸
à¤ŀ à¤¨
à¥Īà¥Īà¥Īà¥Ī à¥Īà¥Īà¥Īà¥Ī
à¤Ĺà¤¸à¤° à¤ķà¤°
à¤² à¤ĸà¤¨
à¤®à¤² à¤ľ
à¤¡ à¤ıà¤«à¤ıà¤¸
Ġà¤®à¤ł à¤°
Ġà¤ĩ à¤¹à¤²
à¤¹ à¤²à¤¨
Ġà¤°à¤®à¤¨ à¤¦
Ġà¤Ł à¤µà¤°
Ġà¥§à¥¯à¥Ń à¥§
à¤¤à¤® à¤¸
à¤² à¤¸à¤®
à¤¸ à¤ķà¤²
à¤¬à¤° à¤¹
Ġà¤ħà¤¬ à¤¸
à¤®à¤ħ à¤ľà¤¬
Ġà¤¦ à¤¸à¤°
à¤ģ à¥Ĥ
Ġà¤¶ à¤ª
à¤ķ à¤Ľ
Ġà¤¸à¤°à¤ķ à¤¶
à¤¸à¤° à¤ĸ
Ġà¤ħà¤« à¤²
à¥¯ à¥¦
Ġà¤Ĩ à¤Ľ
Ġà¤ıà¤¸ à¤ıà¤ª
Ġà¤· à¤®
à¤Ĺ à¤ªà¤°
à¤¨ à¤ħà¤®
à¤ıà¤² à¤ıà¤Ł
à¥Ģ à¥ĩà¤Ĥ
à¤Ł à¤¶à¤°
Ġà¤¶ à¤¹à¤²
Ġà¤ĵ à¤Ĩà¤°
à¤ľà¤¨ à¤¹
Ġà¤ľà¤¯ à¤ľà¤¯à¤ķ
Ġà¥® à¥Ń
Ġà¤ħà¤®à¤¨ à¤®à¤£
à¤°à¤¨ à¤°
Ġà¤¹à¥ĺ à¤¦
à¥ģà¤Ĥ à¤Ĥ
Ġà¤¦à¤¬ à¤¤
à¤¦ à¤¤à¤°
à¤ķ à¤¬à¤²
Ġà¤Ĩà¤¦ à¤®à¤ķà¤¦
Ġà¤Ĺ à¤Ń
à¤ħ à¤®à¤¤
Ġà¤ķà¤® à¤°à¤¬
à¤µà¤¨ à¤ļà¤°
à¤¦ à¤ĺ
à¤ĩ à¤¯à¤°
à¤Ľ à¥ľà¤¨
Ġà¥§à¥¯à¥® à¥ª
Ġà¤¬ à¤®à¤ķ
à¤Ĭ à¤«
à¤µà¤° à¤¶
Ġà¤ĵ à¤¨à¤ķ
à¤¶ à¤²à¤ķ
à¤² à¤ĵà¤µà¤°
à¤²à¤® à¤ĸ
à¤²à¤¤ à¤²
à¤¨à¤ı à¤ľà¤°
à¤¨ à¤°à¤µ
Ġà¤Ī à¤¸à¤¬à¤Ĺ
à¤²à¤° à¤¹
à¤Ī à¤ĳà¤ķ
Ġà¤ķà¤¡ à¤ª
à¥Ļ à¤¬à¤°
à¤¬à¤¨ à¤Ł
Ġà¤īà¤Ń à¤¯
à¤¹à¤¨ à¤°
Ġà¤ħà¤µà¤² à¤®
Ġà¤ĺ à¤Ĺ
à¤¹ à¤ªà¤°
Ġà¤Ķ à¤ª
à¤Łà¤® à¤¸
à¤ªà¤£ à¤ķ
à¤ļà¤ķ à¤¶
Ġà¥ĺ à¤¦à¤°
Ġà¤¨à¤µ à¤¬
Ġà¤ªà¤ļ à¤¹à¤¤
Ġà¤¦ à¤¹à¤ķ
Ġà¤ı à¤Ĺà¤°
Ġà¥§à¥¯à¥¯ à¥¨
Ġà¤ĩà¤¸ à¤¤à¤°à¤¹
à¤¼ à¥Īà¤Ĥ
Ġà¤ķà¤°à¤¤ à¤²
à¤¹à¤® à¤¯
à¤īà¤ª à¤²à¤¬
à¤µ à¤ĩà¤¯
à¤¨à¤² à¤Ĺ
à¤®à¤ļ à¤ķ
Ġà¤ī à¤Ī
Ġà¤¯ à¤ľà¤¨
à¤° à¥Ľ
à¤¤à¤° à¤ĸ
à¤Ĩ à¤ľà¤®
à¤· à¤Ł
à¥¨ à¥§
Ġà¤¡ à¤¹
Ġà¤ħà¤§ à¤ķà¤ļà¤°
Ġà¥¯ à¥©
Ġà¤°à¤¹ à¤¬
à¤¡ à¤ĳà¤«
Ġà¤ľà¤² à¤ķà¤²
Ġà¤ħà¤ª à¤ĺà¤°
Ġà¤®à¤¸à¤² à¤ķà¤°
Ġà¤ļà¤¤à¤° à¤¥
à¤ķà¤° à¤¬
Ġà¤ĺà¤° à¤ĺà¤°
Ġà¤Ĩ à¤²à¤µ
à¤Ľ à¤®
à¥ª à¥«
Ġà¤¹ à¤²à¤¨
Ġà¤¸à¤« à¤°à¤¨
¾ à¥ģ
Ġà¤µ à¤¨à¤°
Ġà¤¤ à¤ĩà¤¯
à¤® à¤¥à¤¨
à¤ ¾à¥ģ
Ġà¤ĳà¤ª à¤ĩ
Ġà¤ıà¤¸ à¤¡à¤¬
Ġà¤ı à¤ıà¤¸à¤¡
à¤Ł à¤Ī
Ġà¤· à¤®à¤¤
à¤Ĺ à¤ĸ
Ġà¤ķà¤° à¤ĩ
Ġà¤®à¤Ŀ à¤Ĺ
à¤¸à¤² à¤¯
à¤ª à¤°à¤¦
à¤¶ à¤°à¤µ
Ġà¤ħà¤Ĺà¤° à¤ķà¤°
à¤Ī à¤ıà¤¨
Ġà¤ķà¤ķ à¤¹à¤°
Ġà¥§à¥® à¥¦
à¤Ĺ à¤¹à¤°
à¤¨à¤ķ à¤®
Ġà¤¸à¤¤ à¤¸
Ġà¤ħà¤²à¤Ĺ à¤ħà¤²à¤Ĺ
Ġà¤Ŀ à¥ľà¤¤
à¤ĸ à¤²à¤¤
à¤¨ à¤ıà¤ľ
à¤Ķ à¤¦
à¤° à¤°à¤¤
Ġà¤¦ à¤ª
à¤ł à¤¯
Ġà¤§à¤° à¤ªà¤ķà¥ľ
à¤® à¤ıà¤ķ
Ġà¤°à¤¤à¤¨ à¤¸
Ġà¤Ĩà¤Ī à¤¡à¤¬
à¤ª à¤µà¤¤
à¤Ĩà¤ĩ à¤ıà¤®
Ġà¤Ĩà¤Ī à¤ıà¤¨à¤ıà¤²à¤¡
Ġà¤ľà¤® à¤°
à¥Ľ à¤ª
Ġà¤ħà¤ĸ à¤°à¤¤
à¤ļ à¤ħà¤ª
Ġà¤ľà¤¨ à¤ķà¤µ
Ġà¥§à¥¯à¥¬ à¥¦
Ġà¤ı à¤ĸà¤¨
à¤Ł à¤¹à¤¨
Ġà¤Ĩà¤Ī à¤Ĩà¤°à¤¡
Ġà¤ª à¤ļà¤°
Ġà¤Ĳ à¤¹
Ġà¤ľà¤ķ à¥ľà¤¨
Ġà¤Ĩ à¤¶à¤ķ
à¤¡ à¥ĺ
à¤¬à¤² à¤®
Ġà¤ĵà¥Ŀ à¤¨
Ġà¤¥ à¤¡
Ġà¤ľ à¤£
Ġà¤Ĩà¤Ī à¤ĵà¤Ł
Ġà¤ħà¤Ĺ à¤£
Ġà¤į à¤«
Ġà¤¹à¤° à¤·
Ġà¤ķà¤¹ à¤µ
Ġà¤ıà¤® à¤ıà¤¡
à¤Ĭ à¤Ł
Ġà¤¬à¥ľ à¤¬
à¤Ī à¤¯à¤¤
Ġà¤ı à¤·
Ġà¤° à¤µà¤¨
à¤°à¤¤ à¤Ĺ
Ġà¤ıà¤® à¤Ĩà¤Īà¤ľ
Ġà¥ł à¤·
Ġà¤¬à¤¤ à¤¯
Ġà¤®à¤° à¤²
à¤¡ à¤ªà¤¤
à¤°à¤ĸ à¤°à¤¤
Ġà¥§à¥® à¥Ń
à¤°à¤® à¤§
Ġà¤Īà¤¯à¤° à¤°
Ġà¤Ĳ à¤¥à¤²
Ġà¤ªà¥Ŀ à¤µ
Ġà¤ħà¤Ł à¤²à¤¬
Ġà¤ıà¤ıà¤¨ à¤Ĩà¤ĩ
à¤µà¤¨ à¤ªà¤°
à¤Ĺà¤¤ à¤®
à¤¨à¤µ à¤¶
Ġà¤ħà¤¸ à¤«
Ġà¤ªà¤ļ à¤®à¤¢
à¤ľ à¤ļ
à¤ł à¤¡
à¤ıà¤² à¤Ī
Ġà¤ĩà¤¸ à¤¬à¤Ĺ
à¤ĺ à¤¨à¤Ĺà¤°
Ġà¤¤ à¤®à¤ķ
à¤Ń à¤µà¤¸
à¤· à¤ķà¤¨
à¤ª à¤²à¤ķ
à¤Ľ à¤¹
Ġà¤Ĳ à¤¡à¤µ
Ġà¤¸à¤° à¤¬à¤°
Ġà¤² à¤µà¤¸
Ġà¥¯ à¥¨
Ġà¤Ķ à¤ı
Ġà¤¸à¤¨ à¤¶
à¤§à¤µ à¤Ĺà¤¢
Ġà¤Ĺ à¤Ļ
Ġà¤¤ à¤°à¤¦
à¤ıà¤ļ à¤ıà¤¸à¤ıà¤²
à¥§ à¥¦à¥¦
Ġà¤« à¤¨à¤ķ
Ġà¤ªà¤¥ à¤ª
Ġà¤ķ à¤µà¤²
Ġà¤ķà¤¬ à¤¸
Ġà¤ıà¤² à¤ıà¤²à¤ª
à¤¢ à¤°à¤ª
à¤Ł à¤¬à¤²
à¤Ń à¤¹
à¤¸à¤® à¤¬à¤°
à¤ĺ à¤ª
Ġà¤Ĩà¤® à¤Ĩà¤¦à¤®
Ġà¤Ĩà¤¯ à¤Łà¤®
Ġà¤ľà¤Ĺà¤° à¤¨
à¤¹ à¤°à¤ķ
à¤µ à¤¦à¤¨
à¤ļ à¤«
Ġà¤į à¤¸
à¤ļ à¤®à¤¹
Ġà¤¬à¤¨ à¤¯
à¤Ł à¤ħà¤¨
Ġà¤ıà¤ļ à¤ĵà¤¡
à¤² à¥ľà¤ķ
Ġà¤ĺ à¤°à¤ķ
Ġà¤Ĳ à¤Ĺ
Ġà¤¶à¤¹ à¥Ľ
Ġà¤ĵ à¤°à¤®
à¤¡à¤° à¤¬à¤°
Ġà¤Ī à¤ıà¤¸à¤Ł
Ġà¤ľà¤² à¤ªà¤°
Ġà¤µà¤ľà¤¨ à¤¦
Ġà¤¤à¤« à¤¸
à¤°à¤Ń à¤µ
à¤¹ à¤¸à¤°
à¤¯à¤£ à¤®
Ġà¤Ŀà¤Łà¤ķ à¤¨
à¤¨ à¤ľà¤¨
Ġà¤ı à¤Ĩà¤Īà¤Ł
Ġà¤¸à¤® à¤¯à¤®
à¤Łà¤° à¤¬à¤°
Ġà¤¹à¤¸à¤¨ à¤Ĺ
à¤Ĩà¤Ĩ à¤Ĩà¤Ĩ
à¤¹à¤£ à¤ľ
Ġà¤ıà¤¨à¤ıà¤ļ à¤ıà¤¸
Ġà¤ĳ à¤ĸ
à¤²à¤ª à¤¹
Ġà¤ĳ à¤®à¤²
à¥Į à¥Ī
Ġà¤ıà¤® à¤¡à¤¬
à¤¡ à¤ıà¤®
Ġà¥§à¥® à¥¬
Ġà¤¹ à¤ľà¤°
à¤²à¤ķ à¤®à¤²
à¤¤à¤® à¤¹
à¤¬ à¤ķà¤¤à¤°
Ġà¤ıà¤² à¤ĵà¤¯
à¤ªà¤¨ à¤°
à¤ļà¥ľ à¤ĸ
Ġà¤īà¤¨ à¤¤
Ġà¤® à¤ĸà¤¦
Ġà¤Ľ à¤Łà¤¨
à¤¢ à¤²
à¥Ľ à¥ŀ
Ġà¤²à¤ª à¤ķà¤¨
Ġà¤µ à¤¬
¾ à¥ī
à¤ ¾à¥ī
à¤¦à¤° à¤¨
Ġà¤Ĩà¤īà¤Ł à¤¬
Ġà¤Ī à¤¹
Ġà¤ħ à¤łà¤¨
à¤¸à¤² à¤¸à¤²
Ġà¤µà¤¡à¤¨ à¤Ĺà¤°
à¤ıà¤¸ à¤ıà¤¨
à¤Īà¤ıà¤¸ à¤ıà¤²
Ġà¤ħà¤ľ à¤¯à¤ª
Ġà¤ķà¤¬à¤° à¤Ī
Ġà¤ıà¤Ĩà¤Ī à¤ıà¤«à¤ıà¤«
Ġà¤² à¤Ī
à¤° à¤ļà¤°
à¤¤ à¤®à¤²
Ġà¤®à¤ķà¤° à¤¸
à¤¬ à¤ł
à¤¯à¤® à¤£
à¤ħ à¥Ľ
à¤¦ à¤¯à¤¨
Ġà¤ĩà¤¨ à¤Ĺ
à¤Ŀ à¤£
Ġà¤¶à¤° à¤Ī
Ġà¤ª à¤ªà¤°
à¤¤ à¤Ĺà¤¢
Ġà¤¡à¤¬ à¤¡à¤¬
à¤Ľ à¤¦
Ġà¤® à¤¯à¤ª
Ġà¤ħà¤§ à¤ªà¤ķ
Ġà¤¸à¤¨ à¤¥
Ġà¥ŀ à¥ĺ
à¤ª à¤ł
Ġà¤Ĩà¤®à¤² à¤ķ
à¥įà¤Ĥ à¤¿
à¤¬ à¤ĺà¤°
Ġà¤Ĺà¥Ŀ à¤¤
Ġà¤ħà¤µà¤¤ à¤²
à¥Ģ à¥Ģ
Ġà¤®à¤ª à¤§
à¤ķà¤Ń à¤µà¤¨
à¤Ī à¤¨à¤°
Ġà¤¨à¤ķ à¤¬
à¤¦à¤° à¤¬à¤²
Ġà¥§à¥¯à¥¯ à¥Ń
Ġà¤ı à¤ıà¤²
à¤Ĩ à¤¯à¤ķà¤°
Ġà¤ıà¤¸à¤ıà¤ļ à¤ľ
Ġà¤ªà¤¢ à¤µ
Ġà¥Ľ à¤«à¤°
à¤ķà¤¤ à¤¤
Ġà¤ľ à¤Ń
Ġà¤ıà¤Ĩà¤Ī à¤¯
à¤¡ à¤Ń
à¤« à¤¸à¤²
Ġà¤Ľ à¤Ľ
à¤¥ à¤µà¤¤
Ġà¥§à¥¯à¥¯ à¥¬
Ġà¤¡ à¤ªà¤Ł
à¥§ à¥Ń
à¤Ł à¤ªà¤°
Ġà¤¬à¤¹ à¤¸à¤¬
à¤¤ à¤ķà¤°à¤£
Ġà¤ı à¤ıà¤¸à¤ıà¤®
Ġà¤ıà¤¡ à¤¨
Ġà¤°à¤ĸ à¤²
à¤Ĳ à¤Ł
Ġà¤ı à¤ıà¤®à¤ª
à¤Ķ à¤°à¤¤
Ġà¤Ķà¤° à¤¸
Ġà¤ķà¤° à¤°à¤¹
Ġà¤ħà¤ª à¤ł
à¤° à¤Ĩà¤°
à¤¤ à¤µà¤¤
Ġà¤Ĩ à¤³
à¤²à¤µ à¤¶
Ġà¤¹ à¤ļ
à¤°à¤¦ à¤¶
Ġà¤ĵ à¤Īà¤¸
Ġà¤ĳ à¤īà¤Ł
Ġà¤® à¤¡à¤Ĺ
Ġà¥® à¥¯
Ġà¥«à¥¦à¥¦ à¥¦
Ġà¤ļà¤¢ à¤©
Ġà¤ı à¤¬à¤°
Ġà¤ķà¤² à¤ķà¤²
à¥ľ à¤¸
Ġà¤¸à¤¹ à¤¯à¤¤
Ġà¤ıà¤² à¤ıà¤ķ
à¤²à¤¨ à¤ķà¤°
à¤¦à¤ķ à¤¶
Ġà¤ł à¤Ń
à¤ĩà¤® à¤Ł
Ġà¤ı à¤ªà¤¨
Ġà¥§à¥¯à¥® à¥¯
Ġà¤¹à¤® à¤¬
Ġà¤ĳ à¤¯
Ġà¤ħà¤² à¤ª
à¤ıà¤ļ à¤Īà¤ıà¤²
Ġà¥§à¥¯à¥¯ à¥©
à¤¹à¤° à¤Ĺà¤¢
à¤°à¤£ à¤ª
Ġà¤Ĩà¤ĩà¤¡ à¤²à¤°
à¤¯ à¤¶à¤ķ
à¤¡à¤² à¤Łà¤¨
Ġà¤ıà¤² à¤ıà¤ļà¤¬
Ġà¤¸à¤¹ à¤ħà¤¸
Ġà¤§ à¤ª
à¤¨ à¤¬à¤¡
Ġà¤¤à¤¨ à¤ķà¤°
Ġà¤¬ à¤ķà¤¨
Ġà¤¹à¤® à¤¸à¤«
à¤¸à¤¨ à¤¦
Ġà¤¬ à¤Ĺà¤µ
Ġà¤¸à¤® à¤¬à¤¨
Ġà¤Ł à¤ªà¤°
à¤² à¤°à¤®
Ġà¤Ĩà¤° à¤ıà¤¨à¤Ĩà¤Ī
Ġà¤ ¾à¤Ĥ
Ġà¤®à¥ľ à¤Ī
à¤Ĺ à¤¡à¤¨
à¤¡ à¤ĵà¤µà¤°
à¤¯à¤¦ à¤²
à¤°à¤¤ à¤®à¤¨
Ġà¤ĩà¤¨ à¤«à¤°
à¤Ĩà¤° à¤ıà¤¸à¤ıà¤¸
à¤ľ à¤°à¤®
Ġà¤Ĩ à¤ķà¤²
Ġà¤¸à¤° à¤¬
à¤®à¤¶ à¤¹
à¤²à¤ķà¤° à¤¤
à¤ĵ à¤ªà¤¨
à¤¡à¥ļ à¤¢
Ġà¤īà¤ªà¤¸à¤° à¤ª
Ġà¤¸à¤ķ à¤¸
Ġà¤²à¤¡ à¤¤
à¤¤ à¤ľà¤²
à¥© à¥©
à¤¸ à¤¹à¤¸
à¤½ à¤¨
à¤ł à¤ľà¤¨
à¤¸à¤¹à¤° à¤¸
à¤¯à¤® à¤ķ
à¤¤ à¤ĩ
à¤¥ à¤µà¤°
Ġà¤ĺà¤° à¤¬
à¤°à¤¦ à¤®
Ġà¤¤à¥ĺ à¤¦
Ġà¤ľà¤¹à¤° à¤ĸ
à¤³ à¤ķ
Ġà¤ħà¤§ à¤ĸ
à¤¹à¤¨ à¤¨
à¤ļ à¥Ŀ
Ġà¤ıà¤¨ à¤ıà¤²
Ġà¤¦à¤° à¤¯
Ġà¤£ à¤¯
Ġà¤Ĩ à¤Ĳ
à¤Ī à¥Ľ
Ġà¤Ĩà¤¯ à¤¦
à¤ķà¤² à¤ª
Ġà¤Ĩà¤Ī à¤¸à¤ķ
à¤ĸà¤¨ à¤µà¤°
Ġà¤¬à¤¡ à¤µ
à¤Īà¤ıà¤¸ à¤Ĩà¤°à¤¸
Ġà¤ķà¤² à¤Ľ
Ġà¤¤à¤°à¤¬ à¤¤à¤°
à¤¸ à¤ıà¤²à¤ª
à¤²à¤ķ à¤ĩ
Ġà¤ıà¤¸à¤ıà¤¸ à¤ıà¤ļ
Ġà¤ľ à¤Ĺà¤²
à¥¨ à¥®
Ġà¤īà¤¤ à¤ªà¤¨
à¤°à¤¬ à¤ļà¤¨
à¤Ī à¤ıà¤®à¤¸
Ġà¤¸à¤° à¤¬à¤¤
à¤® à¤¤à¤°
à¤µà¤¤ à¤¤
Ġà¤Ľ à¤®à¤¤
à¤¦à¤¬ à¤°à¤®
Ġà¤ķ à¤§
Ġà¥§à¥¯à¥¯ à¥«
Ġà¥§à¥¯à¥Ń à¥«
à¤¹ à¤Łà¤¨
à¤ī à¤¥à¤®
Ġà¤¬à¤¨ à¤Ĺ
Ġà¤¶à¤°à¤£ à¤¸
à¤ĺ à¤ľ
à¤®à¤° à¤ľ
Ġà¤īà¤¬ à¤°à¤¤
à¤Ĺà¤° à¤²
à¤ĩà¤ªà¤° à¤¥
Ġà¤ªà¤° à¤§
à¤°à¤¤ à¤¤
Ġà¤¬à¤² à¤µà¤¨
Ġà¤¶à¤¤ à¤Ń
Ġà¤¤à¤¹ à¥Ľ
à¤ıà¤ļ à¤Īà¤¡
Ġà¤«à¥ľ à¤«à¥ľ
Ġà¤ªà¤ķ à¤ķà¤°
à¤Ī à¤¡à¤°
Ġà¤ľà¤Ĺ à¤µ
à¤¶à¤¨ à¤µ
à¤µà¤¤ à¤ľà¤¨
à¤°à¤² à¤²
à¤¯ à¤Ĺà¤°
Ġà¤ļ à¤¹à¤¤
Ġà¤ªà¤° à¤Ĺà¤Ł
à¤° à¤¥à¤ķ
à¤µà¤² à¤¸
Ġà¥§à¥¯à¥Ń à¥¦
Ġà¤µ à¤ĸ
Ġà¤¤ à¤¸à¤¦
à¤²à¤Ŀ à¤¤
à¤ķà¤° à¤Ĺ
Ġà¤¸à¤® à¤¯à¤ķ
Ġà¤¬ à¤¬à¤¨
Ġà¤ħ à¤ľà¤¸
à¤« à¤ľà¤¦
à¥ģà¥ģ à¥ģ
Ġà¤¸ à¤¨à¤²
Ġà¤ħà¤ª à¤²à¤ķ
à¤¨ à¤ĸà¤°
à¤Ĺà¤¨ à¤¦
à¤¦ à¤¯à¤µ
Ġà¤ī à¤°à¤¦
à¤¯à¤² à¤ª
Ġà¤¬à¥ľ à¤Ĺ
Ġà¤¬ à¤Ńà¤¨
à¤Ĭ à¤Ĺ
Ġà¤ı à¤ıà¤¸à¤¸
à¤Ĩ à¤ħ
à¤ıà¤¸ à¤ıà¤ļ
à¤Ł à¤¬à¤°
à¤Ĺà¤° à¤ĸ
Ġà¥§à¥¯à¥ª à¥®
Ġà¤Ķ à¤·
à¤Ĺà¤¡ à¤©
à¤¯ à¤¤à¤°
Ġà¤ķ à¤¦à¤²
à¤Ī à¤Ń
à¤Łà¤¨ à¤Ł
à¥ĺ à¤®
Ġà¤ĸà¥ľ à¤Ĺ
à¤ľà¤² à¤ª
Ġà¤ħà¤®à¤° à¤īà¤ľ
à¤Ķ à¤§
Ġà¤īà¤¦ à¤¬
à¤ľà¤¨ à¤¸à¤®
Ġà¥§à¥¯à¥¬ à¥¨
à¤µà¤² à¤ķ
Ġà¤īà¤¡ à¤¤
à¤Ĭ à¤¡à¤°
Ġà¥§à¥¯à¥Ń à¥Ń
à¤°à¤¸ à¤¹
Ġà¤ıà¤² à¤ıà¤¨
à¤Ĩà¤ľ à¤®à¤Ĺà¤¢
Ġà¤ħà¤¨ à¤¯
Ġà¤ļà¤¢ à¤¤
Ġà¤ĳ à¤Ĺ
à¤Ĳ à¤¶
Ġà¤§à¤¨ à¤Ĺà¤°
à¤ĩà¤ªà¤° à¤ª
à¤ıà¤¸à¤ıà¤¸ à¤¬
Ġà¤¹à¤® à¤¸à¤¬
à¤¤ à¤ªà¤¨
à¤¸à¤° à¤ª
Ġà¥Ľ à¤µ
à¤¡ à¤³
à¤¨ à¤ĩ
Ġà¤° à¤Ĭà¤«
Ġà¤¯ à¤¬
Ġà¥§à¥§ à¥¦
Ġà¤ķ à¤¯à¤²
à¤Łà¤ķ à¤ª
Ġà¤ªà¤Łà¤ķ à¤ķà¤°
Ġà¥ļ à¤¦à¤°
à¤¤à¤°à¤« à¤²à¤ķ
à¤Ĺ à¤®à¤Ĺ
à¤Ĺà¤° à¤Ĺà¥Ŀ
Ġà¤°à¤¦à¤° à¤«
à¤®à¤ħ à¤µà¤¤
Ġà¤¹à¤² à¤«
Ġà¤į à¤ķ
Ġà¤° à¤®à¤²
Ġà¤ħà¤Łà¤ķ à¤¨
à¥ĭ à¥į
Ġà¤¹à¤° à¤°
Ġà¤Ĩà¤Ī à¤Ĩà¤Īà¤ıà¤¸
Ġà¤ªà¤ļ à¤ªà¤¦à¤°
à¤ķà¤° à¤ĸ
Ġà¤Ĩà¤¨ à¤¦
Ġà¤¬à¤¦ à¤°à¤µ
Ġà¤¤à¤¨ à¤¯
Ġà¤ħà¤§ à¤¨
Ġà¤ļà¤¢ à¤ķà¤°
à¥Į à¤ģ
à¤°à¤¨ à¤¹
Ġà¤¤à¤¸ à¤¬
Ġà¤ªà¤Ĺà¤¡ à¤£
Ġà¤ĺ à¤°à¤®
à¤°à¤¶ à¤¹à¤°
à¤Ł à¤²à¤¬
Ġà¤°à¤« à¤¤
Ġà¤Ŀà¤²à¤ķ à¤¨
Ġà¤ķà¤¨ à¤ĸ
Ġà¤¸ à¤¸à¤®à¤¯
Ġà¤¦ à¤ľ
Ġà¤ıà¤ķ à¤¹
Ġà¤¬à¤¤ à¤ķà¤¹
Ġà¤¨à¤Ĺ à¤°à¤ķ
Ġà¤ıà¤ķ à¤²à¤ª
Ġà¤ī à¤¬à¤ķ
à¤§à¤¨ à¤¬
Ġà¤ıà¤¸ à¤Īà¤ľ
Ġà¥§à¥¦ à¥§
à¤ª à¤ļà¤°
à¤Ĩ à¤ł
à¤µà¤° à¤¯
à¤¬à¤² à¤µ
à¤Ī à¤ªà¤°
Ġà¤ĳ à¤²à¤µ
Ġà¤ľà¤¨ à¤¶à¤¤
Ġà¤ľà¤¨ à¤Ķà¤·à¤§
Ġà¤Ĺà¤² à¤«
à¤¹à¤° à¤°
Ġà¤¡ à¤«à¤²
à¤Ĩ à¤°à¤¨
à¤ªà¤² à¤ª
à¤² à¤°à¤ķ
à¤¯ à¤²à¤¨
Ġà¤ıà¤¨ à¤ıà¤µ
Ġà¥§à¥¯à¥¯ à¥ª
à¤ıà¤« à¤Ī
à¤· à¤¯à¤°
Ġà¤ľà¤¨à¤¸ à¤¹à¤¯
à¤° à¤ľà¤¸
à¤° à¤°à¤¸
à¤īà¤¨ à¤Ĺ
à¤° à¤ĩ
Ġà¤Ĩà¤¯ à¤¶à¤°
Ġà¤ł à¤ķà¤°
à¤Ĺ à¤£à¤¤
à¤ľà¤¨ à¤°à¤²
à¤ķà¤² à¤¸
Ġà¤ī à¤¡à¤¨
Ġà¤ĭà¤£ à¤®
Ġà¤«à¤Łà¤ķ à¤¨
Ġà¤µ à¤°à¤ķ
Ġà¤ķà¤² à¤ļ
Ġà¤Ĺà¤µ à¤Ī
Ġà¤īà¤ª à¤¬à¤¨
Ġà¤ĵ à¤ĸà¤°
Ġà¤Ńà¤Ĺ à¤¶
à¤¯à¤® à¤²
Ġà¤¨à¤° à¤¬
à¤²à¤¹ à¤ł
Ġà¤® à¤®à¤¨
Ġà¤Ł à¤ħà¤ª
à¤°à¤¥ à¤®à¤¦
Ġà¤° à¤īà¤°
à¥Ĥ à¥ħà¤Ĥ
Ġà¤ıà¤ļ à¤ıà¤²
Ġà¤ĵ à¤®à¤µ
Ġà¤®à¤¨ à¤¤
Ġà¤¸à¤¹ à¤¸à¤µ
Ġà¥ĺ à¤µ
Ġà¤¸à¤¬ à¤Ĺ
Ġà¤ıà¤¯à¤° à¤®
à¤¨à¤µ à¤¯
à¤® à¤ªà¤¦
Ġà¥ŀ à¤¨
Ġà¤ħà¤² à¤ľ
Ġà¤¯ à¤¤à¤¨
Ġà¤ħà¤Ń à¤¯à¤¦
à¤°à¤¹ à¤ª
Ġà¤ĸà¥ľ à¤Ĺà¤ª
Ġ à¥ī
Ġà¤®à¤¨ à¤¹à¤°
à¤¸à¤ķ à¤®
à¤ļà¤¨ à¤®
Ġà¤ħà¤Ĺ à¥ľ
Ġà¤ıà¤®à¤ıà¤ļ à¤Ĩà¤°à¤¡
Ġà¤ª à¤¯à¤°
Ġà¤ıà¤µà¤° à¤Ĺ
à¤¯à¤¸ à¤¤
Ġà¤ī à¤Ĺà¤²à¤µ
à¤¯à¤¯à¤¨ à¤ķà¤°
Ġà¤Ńà¤¡ à¥ĺ
Ġà¤ıà¤² à¤«
Ġà¤¬à¤¦ à¤¦
à¤® à¤°à¤¹
Ġà¤ıà¤¡ à¤Ĺà¤°
à¤¡ à¤²à¤¬
Ġà¤ļà¤° à¤¬
Ġà¤Ĩà¤¦à¤° à¤ª
à¤ĸ à¤«
Ġà¤«à¤² à¤«
à¤ķà¤¸ à¤¤
Ġà¤Ĭà¤§ à¤®à¤ª
Ġà¤¸à¤® à¤¦à¤°
Ġà¤¤ à¤¸à¤¨
Ġà¤¸ à¤¨à¤µ
Ġà¤Ĩ à¥Ŀà¤¤
Ġà¥§à¥¯à¥® à¥«
à¤¸ à¥ľà¤ķ
à¤¡ à¤ĩà¤¤
à¤®à¤¨ à¤²
Ġà¤ĩà¤² à¥Ľ
Ġà¤Ĩ à¤µà¤¸
Ġà¤īà¤ªà¤¸ à¤ļ
Ġà¤¬ à¤īà¤Ĩ
à¤µà¤¨ à¤°à¤ķ
Ġà¤¹à¤µ à¤¯
à¤¨à¤ķ à¤¨
Ġà¤§à¤¨ à¤¹
Ġà¤ľà¤¨ à¤Ĩ
Ġà¤Ĩà¤Ī à¤ıà¤¸à¤¸
à¤¹à¤¹ à¤¹
Ġà¤ĸ à¤±
Ġà¤¤à¤° à¤¸à¤¨
à¤¨ à¤ķà¤¤
à¤¥ à¤Ī
Ġà¥® à¥¦à¥¦
à¤® à¤ı
à¤ļ à¤ĸ
Ġà¤ıà¤¸ à¤ıà¤¸à¤ı
Ġà¤Ĺà¤° à¤²
Ġà¤¹ à¤¦à¤¯
à¤µ à¤®à¤£
Ġà¤¶ à¤¨à¤²
à¤¨à¤¸à¤® à¤µ
Ġà¤¹ à¤£
Ġà¤Ĺ à¤°à¤µ
Ġà¤« à¤ıà¤®à¤ª
à¤ľà¤¯ à¤ľ
Ġà¤ħà¤ļ à¤¯à¤¨
à¤¨ à¤ħà¤ª
à¤¡ à¤Ĩà¤īà¤Ł
Ġà¤Ī à¤ıà¤ıà¤¸
à¤·à¤£ à¤Ńà¤°
à¤¸à¤¨ à¤ª
Ġà¤ħà¤Łà¤ķà¤² à¤¬
Ġà¤ıà¤¸à¤ıà¤¸ à¤ĵ
à¤µ à¤¯à¤¸
à¤ľ à¤®à¤¸
à¤®à¤¨ à¤ľ
Ġà¤¤ à¤ľà¤µ
Ġà¤§ à¤¨à¤¨
à¤¬à¤¹à¤° à¤¹
à¤Ĥ à¥į
Ġà¤°à¤¦ à¤¦
Ġà¤¨à¤¬ à¤®
Ġà¤ħà¤¨ à¤¶
à¤ĩà¤ľ à¤®
à¤¡à¤² à¤Ĺà¤¢
Ġà¤ĺà¤Ł à¤¸
Ġà¤µà¤¨ à¤°à¤ķ
Ġà¤ªà¤¨ à¤Ĺà¤¢
Ġà¤¦à¤°à¤¸ à¤ħà¤²
Ġà¤® à¥ļà¤°
Ġà¤ıà¤®à¤ı à¤¨à¤¸
Ġà¤ĺ à¤¨à¤¸
Ġà¤Ķ à¤¤
Ġà¤Ł à¤¸à¤Ł
à¤¯ à¤¹à¤®
Ġà¤§à¤¨ à¤¦
Ġà¤ķà¤ª à¤²à¤°
Ġà¤Ĩà¤ı à¤¶
Ġà¤ħà¤° à¤Ĺ
Ġà¤ħà¥ŀ à¤µ
Ġà¤Ŀ à¤¬
Ġà¤²à¤Ľ à¤®
Ġà¤¸à¤® à¤¯à¤°
Ġà¤¬à¤ľ à¤²
Ġà¤° à¤ĵ
Ġà¤ĵà¤µà¤° à¤¨
Ġà¥Ń à¥¦à¥¦
Ġà¤¤à¤² à¤ªà¤¡
Ġà¤Ľ à¤Ī
à¤ķà¥ľ à¤®
Ġà¤ħà¤¨ à¤¶à¤¨à¤ķ
à¤°à¤® à¤¶à¤ķ
à¤¦à¤¨ à¤¤
à¥ĭ à¤
Ġà¤®à¤¨ à¤¬
à¥¨ à¥¬
à¤²à¤¸ à¤ķà¤°
Ġà¤¬à¤ľ à¤¬à¤ľ
Ġà¤īà¤¬à¤° à¤ķà¤°
à¤¥à¤¦ à¤£
à¤ıà¤² à¤Ĩà¤Ī
Ġà¤°à¤¤à¤¨ à¤ľ
Ġà¤ı à¤ıà¤®à¤ľ
Ġà¤īà¤¡ à¤©
à¤²à¤Ŀ à¤¡
à¤£ à¤ļà¤¨
à¤¯ à¤ħ
à¤ļ à¤¨à¤ķ
Ġà¤®à¤¹ à¤µ
à¤Ĺà¤¤ à¤¯
Ġà¤Ĩ à¤ħà¤¹
Ġà¤®à¤¹ à¤¨à¤¤
Ġà¥©à¥¨ à¥©
Ġà¤¤ à¤¡à¤ķ
Ġà¤ļà¤Łà¤ķ à¤¨
Ġà¤ķ à¥ŀ
Ġà¤Ķ à¤¡
Ġà¤® à¤Ľà¤°
à¤¶ à¤®à¤¯
à¤ªà¤ķ à¤ª
Ġà¥Ľ à¤¨
à¤¶ à¤°à¤¤
à¤°à¤£ à¤¹
à¤ı à¤ķà¤¤
Ġà¤¯ à¤·
Ġà¤ł à¤Ĺà¤¤
Ġà¤¹ à¤Ĩ
à¤ı à¤²à¤°
Ġà¤Ĩà¤° à¤Ĩà¤°à¤¸
Ġà¤²à¤ªà¤ķ à¤ķà¤°
Ġà¤ľ à¤¥
Ġà¤¬à¤¨ à¤ķà¤Ł
à¤ľà¤¨ à¤Ĺ
à¤ ´
à¤¤ à¤ĭà¤·
à¤ľà¤® à¤¬à¤°
à¤®à¤ķà¤° à¤¨
Ġà¤²à¤µà¤£ à¤¤
Ġà¤¹à¤° à¤ĸ
Ġà¤ħà¤Ł à¤ķà¤¤
à¤ļ à¤ķà¤²
Ġà¤ķ à¤ªà¤°
Ġà¤¬à¤¸ à¤Ī
à¤°à¤¹à¤£ à¤¶
à¥¨ à¥©
Ġà¤ĵ à¤Ĩà¤°à¤ıà¤¸
à¤¸à¤¨ à¤¸
à¤¥à¤² à¤®
à¤ľà¤° à¤ķà¤°
à¤¶ à¤¯à¤²
Ġà¤ħà¤° à¤¬à¤¨
Ġà¤ĸà¤¡ à¤Ĺ
Ġà¤ª à¤ªà¤²
Ġà¤ļà¤°à¤£ à¤¸
Ġà¤ıà¤¨à¤Ī à¤Īà¤Ł
à¤¹à¤° à¤Ĺ
à¤¬à¤ļ à¤ªà¤¨
Ġà¤² à¤°à¤ľ
Ġà¤Ĺ à¤²à¤¬à¤¹
Ġà¤ĳ à¤°à¤ķ
à¤² à¤°à¤¤
à¤² à¤µà¤¤
à¤¹à¤° à¤ĺà¤°
Ġà¤ĩ à¤Łà¤µ
à¤¨ à¤¹à¤®
Ġà¤¦ à¤ĩà¤¯
à¤ľ à¤°à¤¸
à¤¸à¤« à¤²à¤¤
à¤Ĺ à¤¬à¤°
Ġà¤¬à¤² à¤¬à¤¨
à¤¡à¤° à¤¡
à¤° à¤¨à¤ķ
à¤° à¤ļà¤ķ
à¤ĩà¤¨ à¤ıà¤ª
Ġà¤¸ à¤¸à¤¦
Ġà¤Ĩ à¥Ł
Ġà¤Ĩà¤ĩ à¤¦
Ġà¤° à¤ľà¤°à¤ª
Ġà¤®à¤¸ à¤¹
à¤¤à¤¨ à¤µà¤°
Ġà¤Ĭ à¤Ĭ
à¤¨ à¤µà¤¨
Ġà¤² à¤¢
Ġà¤ī à¤Īà¤ķ
Ġà¤ķà¤¹à¤² à¤¥
Ġà¤Ĩà¤Ĺ à¤µ
à¤°à¤£ à¤¸
Ġà¤ķà¤² à¤Ĺ
à¤¹à¤°à¤¤ à¤Ĺà¤¢
Ġà¤Ĩà¤° à¥Ľ
à¤¯à¤£ à¤Ĺà¤¢
Ġà¤ļà¤ķ à¤®à¤ķ
Ġà¤ªà¤°à¤Ń à¤£
Ġà¤ĵà¤³ à¤ĸ
à¥ĭà¤ ¾
à¤ª à¤¬à¤¦
Ġà¤ª à¤²à¤µ
Ġà¤Ĺà¤ľ à¤²à¤ķ
à¤¹ à¤Ńà¤°
à¤Ĺ à¤łà¤ķ
Ġà¤²à¤µ à¤®
Ġà¥§à¥® à¥«
Ġà¤ªà¤¦ à¤®à¤¶
Ġà¤ķà¤Ł à¤¡
à¤ıà¤¸à¤Ī à¤ıà¤¸
à¤® à¤Ńà¤¦
à¤ª à¤Ĩà¤°
à¤·à¤£ à¤¬
Ġà¤īà¤¦ à¤¯à¤°
Ġà¤¦à¤² à¤¬à¤²
Ġà¤¬à¤¦ à¤ĩ
Ġà¤Ĺà¤° à¤ľà¤¨
à¤° à¥ľ
Ġà¤¡ à¤¸à¤¨
à¤° à¤ľà¤²
Ġà¤µ à¥ļ
Ġà¤ĸ à¤°à¤ķ
à¤Ĺ à¤®à¤°
Ġà¤¨ à¤ļà¤¨
Ġà¤ķà¤® à¤¤
Ġà¤¬à¤² à¤ĸ
à¤ Ĵ
Ġà¤ĩ à¤°à¤ķ
Ġà¤ĵ à¤Īà¤ıà¤®
à¤ĩ à¤ķà¤¸
Ġà¤Ĩà¤® à¤µ
à¤ŀ à¤¶
Ġà¤ħà¤° à¤¥
à¤®à¤ķ à¤¹
à¤¨ à¤ĩà¤¯à¤¨
à¤¥à¤² à¤Ĺà¥ľ
à¤· à¤®à¤²
à¤ľà¤® à¤£
Ġà¤ı à¤¤à¤¦
Ġà¤«à¥ľ à¤ķà¤¨
à¤ķ à¤ķà¤°à¤£
Ġà¤ĸà¤° à¤ļ
à¤µà¤° à¤°
à¤ıà¤¨ à¤ıà¤¸à¤ıà¤¸
Ġà¤ıà¤²à¤ıà¤² à¤¡
Ġà¤ķ à¤³
Ġà¤¤ à¤¦à¤¬
Ġà¤ıà¤Ĩà¤Ī à¤ľ
à¤« à¤¯
Ġà¤ķ à¤¯à¤¨
à¤« à¤°à¤¸à¤¨
à¤Łà¤° à¤¯
à¤¤ à¤ªà¤®
Ġà¤ħà¤¤ à¤²
Ġà¤Ĩà¤ı à¤²
à¤ªà¤ķ à¤¬
Ġà¤ªà¥ľ à¤²
Ġà¤ıà¤®à¤ıà¤® à¤ı
Ġà¤ĳ à¤¯à¤¸
à¤² à¤ħà¤¨
à¤ķ à¤¬à¤¡
Ġà¤ľà¤¨ à¤¤à¤¨
Ġà¤ħà¤¸à¤® à¤®
à¤ĩ à¤Ĩ
Ġà¤¦ à¤²à¤¨
Ġà¤¹à¤® à¤¦à¤®
à¤Īà¤ħ à¤²à¤°
Ġà¤Ĺ à¤Ĳ
à¥¨ à¥Ń
à¤ķ à¤ľà¤¨
Ġà¤ıà¤² à¤Ĩà¤Īà¤¯
Ġà¤¹à¤¥à¤ķ à¥ľ
Ġà¤°à¤¹ à¤²à¤¨
Ġà¤ħà¤® à¤¦
à¤µà¤Ł à¤¤
à¤µà¤¨ à¤Ĺ
à¤· à¤ķà¤¤
Ġà¤¬à¤¦ à¤ļà¤²à¤¨
à¤ª à¤Ī
à¤¿à¤¼ à¤Ĥ
Ġà¤ıà¤¨à¤ıà¤¸à¤ıà¤¸ à¤ĵ
à¤Ł à¤®à¤¨
Ġà¤Ĳà¤¡ à¤µà¤°
à¤° à¥ĺ
à¤¡ à¤ıà¤¸
Ġà¤ªà¤Ł à¤¤
à¤·à¤¯à¤µ à¤Ł
à¤Ĭ à¤ªà¤¨
à¤Ĺ à¤ĳà¤¨
à¤¥ à¤Ł
Ġà¤µà¤° à¤¸
à¤ıà¤®à¤Ī à¤Ĩà¤°
Ġà¤ıà¤ķ à¤°à¤¸à¤¤
Ġà¤ķ à¤ŀ
Ġà¤ħà¤µ à¤¯à¤¸
à¤ªà¤² à¤Łà¤¨
Ġà¤Ĩà¤° à¤ıà¤®à¤ıà¤²
Ġà¤Ĭ à¤Ĭà¤Ĭ
Ġà¤ıà¤Ĩà¤Ī à¤¡
Ġà¤° à¤¸à¤°
à¤ĩ à¤«à¤°
à¤ħ à¤ľà¤¬
Ġà¤ªà¤¦ à¤®à¤ª
Ġà¤ĵ à¤ķà¤¨
Ġà¤¸à¤Ł à¤ķà¤°
Ġà¤¨ à¤ľà¤²
à¤¤à¤° à¤®à¤¹
Ġà¤¤à¤°à¤¹ à¤ķ
Ġà¤Ī à¤¤
à¤ı à¤²à¤¯
Ġà¤¬à¥Ŀ à¤µ
à¤¬à¤¨ à¤¦
à¤ıà¤¨ à¤ĵ
Ġà¤¸à¤Ĺ à¤³
Ġà¤ªà¤¹à¤² à¤ķà¤¦à¤®
Ġà¤ķà¤¬ à¤¤à¤ķ
Ġà¥ĺ à¤²à¤®
à¤ľ à¤¯à¤®
Ġà¤ıà¤¸ à¤ıà¤²à¤¸
Ġà¤ľà¤® à¤µ
à¤¸à¤® à¤ĸ
Ġà¤®à¤° à¤¯à¤®
à¤Ł à¤¦à¤°
à¤²à¤¤ à¤«
Ġà¤Ĩà¤®à¤ľà¤¨ à¤¤
à¤· à¤¨à¤Ĺà¤°
Ġà¤ĸà¤° à¤¡
Ġà¤¥ à¤¯
Ġà¤ĵà¤µà¤° à¤Ĩà¤²
Ġà¤¸à¤® à¤°à¤ķ
à¤¯ à¤¬à¤¹
Ġà¤¢ à¤ķà¤¤
à¤Ŀ à¤¨à¤ª
à¤¦à¤° à¤Ń
Ġà¤ªà¤Ł à¤Ł
à¤īà¤ª à¤Ń
à¤ħà¤« à¤ľ
Ġà¤¸à¤¹à¤ľà¤¨ à¤µ
Ġà¤Ŀ à¤Ĺà¥ľà¤¤
Ġà¤Ī à¤Īà¤ľ
Ġà¤¤ à¤¶à¤ķ
à¤µà¤¤ à¤ķ
Ġà¤ľ à¤¸à¤ķ
Ġà¤¸à¤ķ à¤½
Ġà¤¢ à¤¹à¤¤
à¤ķà¤Ł à¤ª
à¤² à¤¯à¤ķ
à¤ĵ à¤¢
à¤ĺ à¤¨à¤¨
Ġà¤Ĩà¤Ī à¤ıà¤®à¤ª
Ġà¤Ĺ à¤ķ
Ġà¤Ĺ à¥Ľ
à¤§ à¤¸à¤¤
à¤ļ à¤°à¤µ
à¤¼à¥ĩ à¤ĥ
à¤·à¤° à¤ķà¤°
Ġà¤Ĩ à¥ŀà¤¤
à¤¤à¤¨ à¤¸à¤®
Ġà¤ľà¤¸ à¤µà¤¨
à¤ıà¤¸à¤ıà¤¸ à¤ıà¤¸à¤¬
à¤¯à¤¤ à¤¤
Ġà¤¦à¤® à¤ĺ
Ġà¤®à¤¦à¤¨ à¤Ĺ
Ġà¤¸ à¤£
Ġà¤°à¤¹ à¤½
Ġà¤§à¤° à¤ķà¤°
Ġà¤¹ à¤¸à¤¤
Ġà¤Ń à¤ľà¤¤
Ġà¤¡ à¤¡
à¤¬ à¤ıà¤®
Ġà¤¸à¤°à¤ķ à¤¨
Ġà¤Ķ à¤¨à¤²
à¤Ī à¤ıà¤«à¤ı
Ġà¤ł à¤¤
Ġà¤ħà¤ķ à¥ľà¤¨
à¤ıà¤¸à¤ıà¤¸ à¤ıà¤¸à¤¸
à¤® à¤ıà¤¸
Ġà¤¹ à¤¬à¤²
à¤¦ à¤ľà¤¨à¤ķ
à¤®à¤² à¤°
Ġà¤· à¤ľ
Ġà¤Ĩà¤Ī à¤ıà¤¨à¤ı
Ġà¥§à¥¯à¥¬ à¥«
Ġà¤ı à¤ĸà¤°
Ġà¤ł à¤°
à¤ª à¤ĩà¤¯
Ġà¤¡ à¤¡à¤²
Ġà¤Ĩ à¤©
à¤ªà¤° à¤ļ
à¤ıà¤¯à¤° à¤Ł
à¤ķ à¤Ĩà¤²
à¤ĩà¤Ł à¤«
à¤ªà¤ª à¤ªà¤ª
Ġà¥§à¥¯à¥Ń à¥¨
Ġà¤ĵ à¤ļ
à¤²à¤¬ à¤¨
à¤µ à¥ŀ
Ġà¤ī à¤¥
à¤¸ à¤ľà¤¨à¤ķ
à¤°à¤¸ à¤Ń
à¤¶à¤¨ à¤«
à¤Ī à¤¸à¤µ
Ġà¤ªà¤Ł à¤µà¤°
à¤½à¤½ à¤½
à¤°à¤¨ à¤µ
à¥ª à¥©
Ġà¤ĵà¤Ĩà¤° à¤ĵà¤ª
à¤®à¤¤ à¤ª
Ġà¤ł à¤°à¤ķ
Ġà¥§à¥¯à¥® à¥Ń
à¤¨ à¤Ľ
Ġà¥§à¥¬ à¥¦
à¤Ĩ à¤Ń
Ġà¤Ĳ à¤¨à¤ķ
à¤Ł à¤ªà¤¨
Ġà¤Ĺ à¤°à¤¦
Ġà¤ĺ à¤±
Ġà¤ħà¤® à¤°à¤¬
Ġà¤Ĩà¤ī à¤Łà¤ķà¤®
Ġà¤¬ à¤²à¤¤
Ġà¤¨à¤°à¤ķ à¤ļà¤¤
à¤ı à¤£
à¤Ī à¤¥
Ġà¤¶ à¥ĺ
Ġà¤¨à¤µ à¤ħ
Ġà¤¸à¤¦à¤° à¤²
à¤µ à¤®à¤¹
à¤·à¤¤ à¤¯
à¤°à¤« à¤°
à¤µà¤¸ à¤ķà¤°
à¤Ĭ à¥Ľ
Ġà¤ľà¤¨ à¤Ĺ
à¤Ĭ à¤ªà¤°
à¤ıà¤¸à¤Ĩà¤Ī à¤¡
à¤¯à¤¤ à¤ķ
Ġà¤ıà¤¸ à¤ıà¤¨à¤¸
à¤µ à¤®à¤¨
à¤ĸà¤¨ à¤Ĺà¤°
à¤¶ à¤¤à¤ķ
Ġà¤®à¤¨à¤ª à¤¸à¤¨
Ġà¤Ĺà¥ľ à¤Ĺà¥ľ
à¤¨ à¤Łà¤¨
à¤Ĺà¤° à¤Ĺ
Ġà¤Īà¤¯à¤° à¤¬à¤¡
à¤²à¤¹ à¤Ł
à¤°à¤£ à¤ķ
Ġà¤ħà¤«à¤ľà¤² à¤Ĺ
à¤¬ à¤Ľà¤¤
Ġà¤Ĩà¤° à¤ıà¤¨à¤ıà¤¸
à¥¬ à¥«
Ġà¥§à¥© à¥¦
Ġà¤ľà¤« à¤°à¤¯
à¤¤ à¤µà¤²
Ġà¤¨ à¤¯à¤¤
Ġà¤²à¤¡ à¤¡
à¤¯à¤¨ à¤¨
à¤ıà¤¨à¤ı à¤ıà¤¨à¤ıà¤ķ
à¥Ī à¥ĩà¤Ĥ
Ġà¤ķ à¥Ľ
à¤ķ à¤¨à¤ķ
à¤¨ à¤ļà¤¨
Ġà¤īà¥ľ à¤ķà¤°
à¤Ī à¤®à¤°
Ġà¤ļ à¤ķà¤µ
¾ à¥¢
à¤ ¾à¥¢
à¤Ł à¤ľà¤¨
Ġà¤ıà¤ķ à¤°à¤¸
Ġà¤¹à¤² à¤§à¤°
Ġà¥§à¥¨ à¥®
Ġà¤ľà¤² à¤¶à¤ķ
à¤Ĭ à¤§
à¤® à¤ªà¤²
Ġà¤ķà¤¶ à¤®
Ġà¤ħà¤¨ à¤¤
à¤ĩà¤¬à¤° à¤Ĺ
Ġà¤« à¤®
Ġà¤ı à¤Ĩà¤°à¤¸
à¤ıà¤¸à¤ıà¤² à¤Ĩà¤°
à¤· à¤°à¤¹
à¤ı à¤Ĩà¤ĩ
à¤Ĺ à¤ªà¤Ł
à¤£ à¤¡à¤²
à¤Īà¤ħ à¤·
Ġà¤¡ à¤°à¤¹à¤®
à¤Ĳ à¤¬
Ġà¤¨ à¤¬à¤°
Ġà¤ªà¤Ł à¤ªà¤¡
à¤¡à¤ķ à¤µà¤°
Ġà¤µ à¤°à¤¦à¤°
Ġà¤ªà¤ķà¤¡ à¤ķà¤°
Ġà¤¬à¤ķ à¤¬à¤ķ
Ġà¤ī à¤¬à¤¡
Ġà¤¸à¤Ń à¤°à¤µ
Ġà¤ħà¤¨ à¤Ĺà¤¢
Ġà¤¤ à¤Łà¤°
à¤ĩà¤® à¤®
Ġà¥§à¥¦ à¥«
Ġà¤ķà¤¨à¤ķ à¤ĩà¤¯
à¤µ à¤Ĺà¥Ŀ
Ġà¤ĩ à¤®à¤ķ
Ġà¤¸à¤¹ à¤¸à¤ļ
à¤¶à¤µ à¤¦
Ġà¤ł à¤Ł
à¤ıà¤² à¤Īà¤¡
Ġà¤ħà¤Ń à¤¨à¤ª
Ġà¤¬à¥ľ à¤ª
Ġà¥©à¥Ń à¥¦
Ġà¤¯ à¤ļ
Ġà¤¨ à¤¸à¤²
Ġà¤ıà¤ķ à¤ķà¤µ
Ġà¤Ĭ à¤ª
à¤Ŀ à¤¡
Ġà¤ł à¤²à¤µ
à¤² à¤Łà¤°
à¤°à¤¤ à¤Ĺà¥Ŀ
à¤° à¤¹à¤¤
à¤¿à¤Ĥ à¥°
à¤¨à¤¤ à¤¦
Ġà¤ħà¤Ĺ à¤ľà¤²
Ġà¤ķ à¤ªà¤¨
Ġà¤Ĩà¤² à¤ĩà¤£
Ġà¤¡ à¤²à¤®
à¤ıà¤¸ à¤Ĩà¤°à¤Ł
Ġà¤¨à¤µ à¤ľà¤µ
à¤¨ à¤Ĩà¤īà¤Ł
Ġà¥§à¥¯à¥® à¥®
à¤Ł à¤Ľ
à¤¶à¤¤ à¤¤
Ġà¤¤à¤° à¤ª
à¤µ à¤¬à¤¨
à¤°à¤ķ à¤£
Ġà¤µ à¤ķà¤°
Ġà¤ıà¤² à¤ıà¤ļ
à¤ķà¤® à¤²à¤¨
Ġà¤®à¤ķà¤° à¤§
à¤·à¤ķ à¤Ĺà¤£
Ġà¤ªà¤°à¤¬à¤¤ à¤¸à¤°
Ġà¤¸ à¤¢
Ġà¤ħà¤² à¤¹
Ġà¤Ńà¤Ł à¤Ł
à¤ĺ à¤£
à¤ļà¤° à¤¬
Ġà¤Ľà¤² à¤Ľà¤²
à¤ħà¤ķ à¤¬à¤°
Ġà¤² à¤°à¤ķ
à¤¶ à¤¯à¤¨
à¤Ń à¤«à¤²
Ġà¤Ĺ à¤ķà¤°
à¤Ī à¤Ĩà¤ĸà¤°
Ġà¥ ½
à¤·à¤£ à¤ķà¤°
Ġà¤ħà¤¨ à¤¡
Ġà¤®à¤¹ à¤ľà¤¬
à¤Ł à¤ªà¤¤
Ġà¤Ĺà¤² à¤Ĺ
à¤µà¤ķ à¤®à¤¨
à¤°à¤² à¤ĸà¤¨à¤Ĭ
Ġà¤Ĭ à¤¦
à¤¡ à¤ĩ
Ġà¤ĸ à¤®à¤°
Ġà¤ĸ à¤ķ
Ġà¤¬à¤¹ à¤®à¤¨
à¤² à¤ªà¤Ł
à¤¬ à¤¦à¤°
à¤¼ à¤¼à¤¾
à¤ħ à¤®à¤°à¤¨
à¤¸à¤² à¤Ĺ
Ġà¤Ī à¤Īà¤ıà¤¸à¤ıà¤²
Ġà¤¸ à¤ĸà¤¨à¤Ĭ
Ġà¤ĩ à¤¶à¤ķ
Ġà¤¸à¤°à¤¸ à¤¤
à¤µà¤¶ à¤°à¤£
à¤® à¤·
à¤ķ à¤¸à¤°
Ġà¤ħà¤¨ à¤ªà¤°
Ġà¤² à¤«à¤¡
à¤ªà¤° à¤¡
à¤¸à¤ķ à¤Ł
Ġà¤¤à¤¬ à¤¹
Ġà¤ĭ à¤ķ
Ġà¤ıà¤ļ à¤Īà¤¸
à¤Ĩà¤° à¤ıà¤¨
à¤Ĺ à¤¬à¤¨
Ġà¤ı à¤¥à¤°
à¤Ĭ à¤¡
Ġà¤Ĺ à¤ľà¤µ
à¤ī à¤ł
Ġà¤īà¤ªà¤¦ à¤Ł
à¤ĩà¤« à¤²à¤®
à¤¦à¤°à¤¤ à¤®
à¤¨à¤¸ à¤ª
Ġà¤® à¤®à¤Ĺ
à¤Ī à¤ľà¤¹
Ġà¤Ĺà¤¦à¤° à¤ª
Ġà¤°à¤¹ à¤Ĺ
à¤µà¤¸ à¤¤
à¤µà¤°à¤¤ à¤¨
à¤°à¤µ à¤Ĺ
à¤¹à¤² à¤Ĺ
à¤Ī à¤Īà¤ĵ
à¤ı à¤ıà¤ķ
à¤ĩà¤® à¤«
à¤°à¤ļ à¤°à¤£
Ġà¤ĵà¤µà¤° à¤ª
à¤ľà¤¤à¤¨ à¤Ĺà¤°
à¤¶ à¤¯à¤¶
Ġà¤ıà¤® à¤ĵà¤ª
Ġà¤ıà¤² à¤Ĩà¤Īà¤ľ
Ġà¤ļà¤ķ à¤¬à¤¨
Ġà¤¸à¤ķà¤² à¤¡
Ġà¤ªà¤ķà¥ľ à¤µ
Ġà¤¦ à¤Ĺà¤¡
à¤§ à¤ŀ
Ġà¤¶à¤ķ à¤¶
à¤¦ à¤¹à¤¦
Ġà¤¦à¤¹ à¤¶
Ġà¤ħà¤© à¤¨
Ġà¤¨ à¤Ĺà¤µ
Ġà¤°à¤¸ à¤®à¤²
Ġà¤®à¤¹ à¤¶
à¤¯à¤ķ à¤¨
à¥¬ à¥¬
à¤® à¤Ľà¤²
Ġà¤ĳ à¤²à¤®
à¤ľ à¤¡à¤¨
à¤® à¤ľà¤ª
à¤ī à¤®à¤°
Ġà¤¬à¤¦ à¤¤
Ġà¤¦à¤°à¤ķ à¤¨
à¤¤ à¤ı
Ġà¤ªà¤¤à¤¨ à¤¶
Ġà¤ıà¤ļ à¤ıà¤ļ
Ġà¤ıà¤¸à¤ıà¤¸ à¤ľ
à¤ľà¤¬à¤² à¤ª
à¤ħà¤° à¤°
Ġà¤Ĩ à¤ħà¤¹à¤¹
Ġà¤Ł à¤ķà¤²
à¤ķà¤² à¤¶
Ġà¤ıà¤ļ à¤ıà¤®à¤ıà¤¸
Ġà¤ħà¤ľ à¤Ĺ
Ġà¤¨ à¤¯à¤®
à¤¬à¤¨ à¤¡
à¤£à¤¨ à¤«à¤²
à¤¨à¤® à¤Ĺ
Ġà¤¶ à¤Ļ
Ġà¤° à¤ªà¤ı
Ġà¤ķ à¤¤à¤ķ
à¥ľ à¤ķà¤¨
Ġà¤Ĩà¤Īà¤ıà¤¸ à¤ı
Ġà¥§à¥¯à¥® à¥©
Ġà¤¨ à¤²à¤¸
à¤ľà¤µ à¤²à¤¨
Ġà¤² à¤Ļ
Ġà¤Ķ à¥Ľ
Ġà¤¸à¤² à¤Ĺ
à¤¤ à¤ªà¤°à¤¸
Ġà¤ı à¤°à¤£
à¤¡à¤® à¤¹
à¤¤ à¤²à¤®
à¤¤ à¥ĺ
à¤¡ à¤Ŀ
Ġà¤ķà¤ļ à¤¡
Ġà¤¤à¤ķ à¤¬
Ġà¤ĩ à¤²à¤¨
à¤ıà¤« à¤ıà¤®
Ġà¤ķ à¤¤à¤¨
Ġà¤ĩà¤¯à¤° à¤°
Ġà¤¬à¤¨ à¤¸
à¤ī à¤ªà¤¨
à¤¤ à¤®à¤ķ
à¤Ī à¤ıà¤¶
Ġà¤ıà¤ķ à¤µ
Ġà¤Ĺà¤¹ à¤®à¤°
à¤³ à¤µ
Ġà¤ľà¤¨ à¤¯
Ġà¤£ à¤¨
à¤²à¤¬ à¤¡
à¥ŀ à¤°à¤ª
Ġà¤ĸ à¥ľà¤ķ
Ġà¤ķà¤¹ à¤ķà¤¹
à¤¸à¤ķ à¤ķà¤°
à¤®à¤² à¤ª
à¤¸à¤ª à¤²
à¥ģ à¥°
à¤ªà¤¨ à¤ĸ
à¤¨à¤ª à¤¬
Ġà¤ķà¤¸ à¤¯
Ġà¤ĵà¤ıà¤² à¤ıà¤ķ
Ġà¤¬à¤° à¤²
à¤¨à¤¬à¤° à¤¸
Ġà¥§à¥« à¥¦à¥¦
Ġà¤Łà¤ļ à¤ª
Ġà¤ªà¤¦à¤ķ à¤§
Ġà¤ª à¤£à¤¨
Ġà¤² à¤ªà¤²à¤ª
à¤¶ à¤«à¤¹à¤®
à¤¡à¤² à¤ª
Ġà¤®à¤² à¤¹
Ġà¤®à¤¸ à¤µ
à¤ħ à¤·
à¤§à¤° à¤ķà¤°
à¤ħ à¤ħ
à¥ª à¥¬
à¤®à¤£ à¤ľ
Ġà¤Ĩà¤ĩ à¤°à¤¨
à¤ķ à¤ĵà¤²
Ġà¤ıà¤¸ à¤ıà¤ıà¤¸
Ġà¤ľ à¤ĩà¤¹
à¤ĵ à¤Ĩà¤Īà¤ª
Ġà¤ľà¤Ĺ à¤¦à¤Ĺ
à¤®à¤¨ à¤Ī
Ġà¤°à¤Ĺ à¥ľà¤¤
Ġà¤¸à¤Ń à¤¸
à¤¨ à¤ªà¤¨
à¤® à¤ªà¤¨
Ġà¤¤à¤¨ à¤ª
Ġà¤Ĩà¤° à¤ıà¤¸à¤ıà¤«
Ġà¤¶à¤°à¤¤ à¤ļ
Ġà¤ªà¤° à¤¯
Ġà¤īà¤ª à¤µà¤°
Ġà¤¹à¤² à¤¦
Ġà¤ħà¤¹ à¤¸à¤¨
à¥ĺ à¤Ī
Ġà¤ıà¤®à¤ıà¤¨ à¤ıà¤«
à¤®à¤¨ à¤¹
Ġà¤Ĭà¤Ł à¤ªà¤Ł
à¤¦à¤¨ à¤¬
Ġà¤ļà¤®à¤ķ à¤ķà¤°
Ġà¤ıà¤¸à¤ıà¤¸ à¤Ĩà¤°
à¤¦à¤¯ à¤¹
à¤¨à¤ķ à¤ļ
Ġà¤¨ à¤ķà¤Ł
Ġà¤§à¤¨ à¤ľ
à¤ĩà¤¨ à¤ª
Ġà¥§à¥ª à¥¦
à¤ıà¤® à¤ıà¤µ
à¤¤ à¤ªà¤¦
à¤ŀ à¤¸
à¤¦ à¤·
Ġà¤µ à¤ĺ
à¤°à¤µ à¤¡
Ġà¤Ĩà¤Ī à¤Īà¤Īà¤Ī
Ġà¥ļà¤²à¤¤ à¥ŀà¤¹à¤®
à¤¹ à¤¨à¤ķ
Ġà¤ıà¤« à¤ĵ
à¤¤à¤° à¤Ĺ
Ġà¤ľà¤² à¤ļà¤°
Ġà¤µ à¤§à¤µ
à¥Ģà¤Ĥ à¤ĥ
Ġà¤ıà¤« à¤¡à¤¬
Ġà¤īà¤ª à¤®à¤¨
à¤Ĩ à¤ĩà¤µ
à¤ķà¤° à¤¹
à¤Łà¤² à¤¹
Ġà¤ľà¤¦ à¤ıà¤¸
à¤Ĩ à¤ĩà¤¨
Ġà¤ıà¤¸à¤ıà¤² à¤ª
Ġà¥§à¥¯à¥« à¥¬
Ġà¤µ à¤ķà¤¤
Ġà¤Ĭ à¤¤
Ġà¤ľ à¤°à¤®
Ġà¤ķà¤® à¤²à¤ª
Ġà¤®à¤°à¤ķ à¥Ľ
Ġà¥§à¥¯à¥¬ à¥Ń
Ġà¥ł à¤¤
Ġà¤¤à¥ŀ à¤¸
à¤Ĺà¤¡ à¤¤
Ġà¤Ńà¤° à¤¥à¤¨
Ġà¤²à¤ª à¤ķà¤¤
Ġà¤² à¤½
Ġà¤ļ à¤¦à¤°
Ġà¤Ŀà¤° à¤Ŀà¤°
Ġà¤ıà¤« à¤ıà¤¸à¤¬
à¤®à¤°à¤£ à¤¶à¤ķ
à¤¹ à¤ķà¤¤
à¤ľà¤¯ à¤Ĺà¤¢
à¤®à¤£ à¤ª
à¥ģ à¥ħà¤Ĥ
à¤¡à¤°à¤ķ à¤µà¤°
à¤§ à¥ľà¤ķ
à¤µ à¤¥à¤¨
Ġà¤ļ à¥ľ
Ġà¥© à¥¦à¥¦à¥¦
à¤°à¤¤ à¤®à¤¹
Ġà¤®à¤¨ à¤Ĺà¥Ŀ
Ġà¤Ń à¤µà¤°
Ġà¤¬à¥Ŀ à¤ļà¥Ŀ
Ġà¤ıà¤®à¤ıà¤¸ à¤Ĩà¤Ī
à¤¹à¤« à¤Ł
Ġà¤¸ à¤Łà¤ķ
Ġà¥§à¥¯à¥® à¥¨
Ġà¤īà¤ª à¤²à¤Ń
Ġà¥§à¥¯à¥Ń à¥©
Ġà¤° à¤Łà¤¤
Ġà¤¬à¤¨ à¤®
Ġà¤ķà¤® à¤£
à¤°à¤£ à¤¦
Ġà¤¦ à¤¸à¤®
à¤° à¤¥à¤°
à¤ªà¤¨ à¤¸
Ġà¥ļ à¥Ľà¤¬
Ġà¤¤ à¤Ī
à¤¤à¤¨ à¤¹
à¤®à¤£ à¤Ĺà¤¢
à¤¨à¤¸ à¤¬à¤°
à¤²à¤µ à¤£
à¤ĵ à¤ıà¤²
Ġà¤Ĳ à¤¨à¤²
à¤¯ à¤§à¤°
Ġà¤¨ à¤°à¤¹
Ġà¤¨à¤Ī à¤ĸ
Ġà¤ĩà¤ķ à¤¹à¤°
à¤Łà¤¸ à¤ıà¤ª
Ġà¤ķ à¤¡à¤ķ
Ġà¤Ķà¤° à¤ķ
Ġà¤¬à¤² à¤¸
Ġà¤µ à¤¡à¤ķ
à¤¦à¤¨ à¤¸
à¥¯ à¥¯
Ġà¤¨ à¤²à¤Ĺ
à¤µ à¤¯à¤µ
à¤°à¤µ à¤¯
à¤ª à¥Ŀ
à¤ķà¤Łà¤° à¤®à¤¨
Ġà¤ī à¤ķà¤²
Ġà¤Ĭ à¤¦à¤²
à¤ľà¤¸ à¤Ń
à¤µ à¤¢
Ġà¤¬ à¤®à¤°
Ġà¤īà¤ł à¤²
Ġà¤¨à¤¯ à¤ľ
Ġà¤° à¤Ī
Ġà¤ķà¤² à¤µà¤°
Ġà¤ħ à¤²à¤¨
à¤¯à¤° à¤¸à¤ķ
à¥ª à¥ª
Ġà¤¨à¤ľ à¤±
à¤¨ à¤ĸà¤Ł
Ġà¤Ĭ à¤«
à¤Ĩà¤Ī à¤ıà¤¸à¤¸
à¥ħ à¥ģ
à¤¨à¤Ń à¤µà¤¨
à¤ªà¤° à¤Ĺ
à¤¤à¤ķ à¤®
à¤¶à¤¨ à¤ļ
Ġà¤Ĩà¤Ĺ à¤¸
Ġà¤ħà¤¹ à¤µ
Ġà¥§à¥¯à¥Ń à¥¯
Ġà¥§à¥¯à¥ª à¥¯
Ġà¤µ à¤¢
à¤°à¤Ń à¤¸
à¤¹ à¤¬à¤°
Ġà¤īà¤ª à¤°à¤¤
à¤®à¤¤ à¤²
Ġà¤ıà¤¸ à¤Ĩà¤ĩ
à¤Łà¤² à¤ķ
à¤§à¤¨ à¤¸
à¤£à¤¨ à¤Ĺà¤°
Ġà¤¹à¤¡ à¤¬à¤¡
Ġà¤Ĩà¤¯ à¤Ĺ
Ġà¤ħà¤ķà¤² à¤¤à¤°
Ġà¤ľ à¤µà¤²
à¤ī à¤¸à¤¸
Ġà¤ıà¤¸ à¤Ĩà¤°à¤ıà¤¸
Ġà¤Ĩà¤ĩ à¤ıà¤Ĺ
à¤ī à¥ľ
à¤ī à¤Ĺà¤°
Ġà¤Ĩà¤Īà¤Ĩà¤Ī à¤ıà¤¸à¤¸
à¤ĩà¤¬à¤° à¤¸
Ġà¤¹ à¤½
Ġà¤ľ à¤ł
à¤³ à¤£
à¤°à¤¯ à¤¸
Ġà¤¤à¥ľ à¤ªà¤¨
Ġà¤Ĩà¤² à¤®à¤¨à¤Ĺà¤°
Ġà¤Ĩà¤Īà¤ı à¤ıà¤ıà¤«
Ġà¤Ĩ à¤ľà¤¨
à¤¦à¤° à¤Ł
à¤¯à¤¤ à¤µ
à¤Ĺà¤¤ à¤ª
à¤¨à¤µ à¤Ĺ
¾ à¥Ĭ
à¤ ¾à¥Ĭ
Ġà¥Ń à¥«à¥¦
Ġà¤īà¤¥à¤² à¤ª
à¤¯ à¤ħà¤¤
Ġà¤īà¤ļ à¤Ł
Ġà¤¬à¤¨ à¤ľ
Ġà¤ªà¤ª à¥ľ
Ġà¤ħà¤ļ à¤ķà¤ļ
Ġà¤ıà¤®à¤ıà¤® à¤Ĩà¤°à¤¡
Ġà¤ıà¤«à¤ı à¤ĵ
Ġà¤¯ à¤°à¤µà¤¦
à¤ľà¤¯à¤¨ à¤Ĺà¤°à¤®
à¤°à¤ª à¤²
Ġà¤¸à¤ķ à¤¯
Ġà¤ħà¤¸ à¤¤à¤¤
Ġà¤Ī à¤ıà¤¸à¤¡
Ġà¤ı à¤°à¤¨
à¥® à¥®
à¤ķ à¤¬à¤°
à¤¯ à¤ı
à¤¸à¤¨ à¤¨
à¤°à¤ķ à¤¸
à¤Ĺà¤® à¤¬
Ġà¤® à¤Ļ
Ġà¤¨ à¤ĩà¤¯
Ġà¤° à¤ķà¤¤
Ġà¤ĵ à¤Ī
à¤¨à¤ªà¤¤ à¤²
Ġà¥§à¥¯à¥® à¥¬
à¤® à¤Ĺà¤²à¤°
à¤² à¥ŀ
Ġà¤¯ à¤µà¤§
à¤Ń à¥ľ
à¤ī à¤¹
Ġà¤ĵ à¤¹à¤°
Ġà¤ĸà¤° à¤²
à¤«à¤« à¤«à¤«
à¤Łà¤² à¤¸
Ġà¤Ĩà¤Īà¤ıà¤® à¤Ł
Ġà¤Ĺà¤£à¤ªà¤¤ à¤¯
à¥ĭà¤Ĥ à¥ĩ
à¤¦à¤° à¤Ĺà¥Ŀ
Ġà¤Ńà¤Ł à¤Ĺ
Ġà¤¤ à¤ľà¤¨
à¤°à¤ķ à¤¥
Ġà¤Ī à¤Ĩà¤°à¤ª
à¥į à¤Ĥà¤¾
à¤®à¤° à¤ĸ
Ġà¤ıà¤« à¤Ĩà¤Īà¤ı
Ġà¤¶à¤¯à¤¨ à¤¯
Ġà¤ķà¤ª à¤Łà¤ª
à¤¬ à¤®à¤¨
Ġà¤·à¤¡ à¤¯à¤¨
Ġà¤ªà¤° à¤¸à¤¨
Ġà¤«à¤° à¤¬à¤°
Ġà¤ľà¤¨ à¤Ĩà¤¶
Ġà¤¤à¤° à¥ĺ
Ġà¤ķà¤µ à¤ķà¤¨
Ġà¤ĵà¤ªà¤¨ à¤¸
à¤¸ à¤ıà¤¨à¤ıà¤ıà¤¨à¤ıà¤ķ
Ġà¤Ĩà¤Ī à¤ıà¤«à¤¸
Ġà¥§à¥¯à¥¬ à¥¯
Ġà¤§à¤¨ à¤ŀ
Ġà¤ķà¤° à¤®à¤¬
à¤°à¤² à¤¯à¤ķ
Ġà¤ªà¤° à¤£
à¤Ńà¤Ĺ à¤µà¤¤
à¤¹à¤¬ à¤ľ
à¤° à¤¯à¤²
à¤Ĩ à¤ķà¤°
à¥© à¥Ń
Ġà¤µ à¤¯à¤µà¤¸
à¤ı à¤ķà¤²
Ġà¤ķà¤° à¤§à¤¨
à¤¤ à¤°à¤¤à¤®
à¥ª à¥¨
Ġà¤ı à¤Łà¤¨
Ġà¤ıà¤¸ à¤ıà¤¸à¤Ł
Ġà¤¸ à¤§à¤¨
Ġà¤¦à¤° à¥Ļ
à¤¨ à¤Łà¤°
Ġà¤Ĺ à¤µà¤¨
à¤ķà¤¨ à¤ķà¤°
Ġà¤§ à¤£
Ġà¤Ńà¤µ à¤Ń
Ġà¥¨à¥¦ à¥¬
à¤¨ à¤¯à¤°
Ġà¤¤à¤² à¤¸
Ġà¤ľ à¤¤à¤²
à¤Ĺà¤¨ à¤Ĺà¤°
Ġà¤ªà¥ľ à¤µ
Ġà¤µà¤¨ à¤Ĺ
Ġà¤¤à¥ĺ à¤¸
à¤° à¤Ĩà¤²
à¤ľ à¤®à¤¨
Ġà¤² à¤µà¤¯
à¤°à¤¥ à¤®à¤¤
à¤¸ à¤ħ
à¤¶ à¤ĳà¤Ł
Ġà¥§à¥¯à¥ª à¥¨
Ġà¤Ĩà¤¨à¤¨ à¤«
Ġà¤Ķà¤° à¤®
à¤ıà¤¸à¤Ī à¤Ĩà¤°
Ġà¤Ĳ à¤µà¤°
Ġà¤°à¤¤ à¤ľà¤Ĺ
à¥ª à¥®
Ġà¤ı à¤¹à¤°
à¤ĩ à¤ĵà¤¬
à¤Ł à¤¯à¤°
Ġà¤· à¤¹à¤°
à¤°à¤£ à¤®à¤¯
à¤ľà¤Ĺ à¤¹
Ġà¤ĩ à¤®à¤¤
Ġà¤« à¤¬à¤¤
Ġà¤Ĩà¤Ī à¤ıà¤®à¤ıà¤¸
Ġà¤ħ à¤Ŀ
Ġà¤« à¤¸à¤¹
à¤²à¤° à¤¬
Ġà¤Ĩà¤Īà¤ıà¤® à¤Īà¤Ĩà¤Ī
à¤° à¤ªà¤ķ
à¤ª à¤²à¤¤
à¤¥à¤ª à¤°à¤ķ
à¤£ à¤¶à¤ķ
à¤² à¤¶à¤°
Ġà¤ª à¤§à¤°
à¤ıà¤² à¤ıà¤«à¤Ĩà¤Ī
à¤¸ à¤¦à¤°
Ġà¤ĸà¤¨ à¤ķà¤¤
à¤¬à¤² à¤ķ
à¤¬ à¤ķà¤¨
Ġà¤ıà¤ļ à¤ıà¤¨
Ġà¤ıà¤¸ à¤ıà¤®à¤ĵ
Ġà¤¦ à¤·
à¤¶ à¤µà¤ª
Ġà¤ªà¤¡ à¤²
Ġà¤Ĩà¤® à¤Ł
à¤Ĳ à¤¤
à¤· à¤¯à¤®
Ġà¤Īà¤ıà¤² à¤ıà¤¸à¤ıà¤¸
Ġà¤ıà¤« à¤°
à¤° à¤Ĩ
Ġà¤ķà¤¤ à¤¹
Ġà¤Ĩà¤° à¤ıà¤¸à¤ıà¤®
à¤°à¤Ń à¤ľ
Ġà¤ı à¤ªà¤¸
à¤· à¤·
Ġà¤Ľ à¤Łà¤µ
Ġà¤ľà¤¨ à¤¦à¤°
Ġà¤ķ à¤ĩà¤¸à¤¨
à¥ª à¥Ń
Ġà¤Ĩà¤Īà¤Ī à¤ıà¤²à¤Ł
à¤¸à¤ķ à¤¸
Ġà¤Ĩà¤Ī à¤ıà¤²à¤ı
à¤²à¤ķ à¤¡
Ġà¤ħà¤ľ à¤®à¤¤
Ġà¥§à¥¯à¥® à¥§
Ġà¤ľ à¥ľà¤¨
Ġà¤ıà¤¨ à¤Ĩà¤°à¤ıà¤²
à¤°à¤® à¤Ī
Ġà¤ıà¤® à¤ıà¤¸à¤Ł
à¤ľ à¤Ĺà¤¨
à¥Į à¥°
Ġà¤ķ à¤ĸà¤¨
à¤ĺ à¤¶
Ġà¤¹ à¤·
Ġà¤°à¤¹ à¤£
Ġà¤§ à¤°à¤¦
Ġà¤īà¤ªà¤²à¤¬ à¤§
Ġà¤ħà¤Ĺà¤² à¤Ĺ
Ġà¤ķ à¤¯à¤°
à¤Ĩ à¤¯à¤²
à¤Ĩà¤Īà¤ıà¤« à¤ıà¤«
à¤£ à¤Ńà¤Ł
Ġà¤°à¤£ à¤¤
Ġà¤ľà¤¬ à¤²
à¤ħ à¤ķà¤¤
Ġà¤ªà¤° à¤®à¤¤à¤¤
à¤²à¤Ńà¤Ĺ à¥Ŀ
à¥ģ à¥Ĥ
Ġà¤ıà¤¸à¤ıà¤¸à¤Ĩà¤Ī à¤ıà¤«
Ġà¤ıà¤¨ à¤ĵ
à¤Ī à¤Łà¤²
à¤§à¤¨ à¤¹
à¤ıà¤« à¤Ĩà¤°à¤¡
Ġà¤īà¤¦ à¤¯à¤Ĺ
à¤ª à¤µà¤¨
à¤° à¤ıà¤ķ
à¤¹à¤ķ à¤®
Ġà¤īà¤¸ à¤°
Ġà¤¸à¤® à¤¬
Ġà¤Ĩ à¤Ŀ
à¥« à¥¦à¥¦
Ġà¤Ĩà¤Īà¤Ĩà¤Ī à¤Ĩà¤Īà¤Ł
à¤µà¤¨ à¤¡
Ġà¤¦ à¤°à¤ķà¤¤
Ġà¤Ĩà¤Ī à¤Ĩà¤°à¤¬
Ġà¤ħà¤ķ à¤¥
à¤ĩ à¤®à¤ķ
à¤°à¤¸ à¤µà¤ª
à¤ªà¤¤ à¤¯
à¤Ń à¤¶
Ġà¤Ī à¤¸à¤°
à¤Ł à¤ħ
Ġà¤ıà¤ļ à¤Ĩà¤Ī
à¤¶ à¤¤à¤°
à¤ĩ à¤§à¤°
Ġà¤Ĩà¤¯ à¤¸
Ġà¥§à¥¯à¥Ń à¥ª
à¤Ĺ à¤®à¤²
Ġà¤¸à¤® à¤°à¤µ
à¤¯à¤¬ à¤Ł
Ġà¤ķà¤¹ à¤ķà¤¶
Ġà¤®à¤² à¤¦
Ġà¤¨à¥ĺ à¤µ
à¤¡ à¥Ļ
Ġà¤ľà¤¨ à¤¸à¤°
Ġà¤Ĩà¤Īà¤ı à¤Īà¤ı
Ġà¤¸à¤¦ à¤¬
à¤ĩà¤Ł à¤Ĺ
à¤¤à¤° à¤Ń
Ġà¤ķà¤¸ à¤¡
Ġà¤¹à¤¡ à¤ª
Ġà¤ħ à¤ĩ
à¤¯à¤° à¤ļ
Ġà¤¬à¥Ŀ à¤Ī
Ġà¤ľà¤¯à¤® à¤²
à¤µ à¥ĺ
Ġà¤§ à¤°à¤¸
à¤« à¤¹
Ġà¤¤à¤ķ à¤®
Ġà¤ªà¤°à¤¤ à¤¦
Ġà¥§à¥¯à¥¬ à¥ª
à¤Ī à¤ĺ
à¤ı à¤ıà¤ļ
Ġà¤ļà¤°à¤£ à¤ķà¤®à¤²
à¤ªà¤° à¤¯
Ġà¤Ī à¤ıà¤«
à¤½ à¤¹à¤®
à¤ļ à¤§
Ġà¤ªà¤°à¤® à¤§à¤°
à¤Ī à¤Ŀ
Ġà¤ħà¤¸à¤¹à¤¨ à¤¶
Ġà¤Ĩà¤Ī à¤ıà¤®à¤ĵ
Ġà¤®à¤ķ à¤¦
à¤¯ à¤Ľ
Ġà¤Ĺ à¤ľà¤ª
Ġà¤ľà¤² à¤¬
Ġà¤®à¤¸ à¤°à¤¤
Ġà¤ľ à¤¸à¤¦
à¤µ à¤¤à¤°à¤£
Ġà¤ľ à¤ĺ
Ġà¤¦à¤² à¤®
Ġà¤ªà¤° à¤¸à¤¤
Ġà¤°à¤¹ à¤¥
à¤°à¤¦ à¤²
à¤°à¤® à¤²à¤¸
à¤ľà¤® à¤Ĭ
Ġà¤ĩ à¤Łà¤°
à¤ī à¤¸à¤¬
à¤® à¤ªà¤Ł
à¥Ĥ à¤
à¤Ĺ à¤¸à¤²
Ġà¤ĵ à¤Ĩà¤°à¤ľ
Ġà¤ĳ à¤¡à¤°
à¥© à¥¯
Ġà¤ħà¤µ à¤·
à¥¨ à¥¯
Ġà¤ħà¤ª à¤¶à¤Ĺ
à¥Ĥà¤ ¾
Ġà¤Ľ à¤¨à¤ķà¤°
à¤°à¤ª à¤¹
à¤ĺ à¤µà¤ľ
à¤½ à¤§
à¤ľà¤ª à¤¤à¤°
à¤¨ à¤Ĺà¤²
Ġà¤²à¤¹ à¤°à¤¤
à¤ķà¤ķ à¤ķà¤ķ
à¤¸à¤¨ à¤®
Ġà¤® à¤Ń
à¥Ĥ à¥Ģ
à¤ł à¤°à¤®à¤²à¤¸
Ġà¤ı à¤Ĺà¤²
Ġà¤°à¤¹ à¤ķ
à¥© à¥§
Ġà¤ª à¤ľà¤²
à¤ļ à¤°à¤ķ
Ġà¤Ĩà¤ĩà¤¸ à¤¬
à¤Ĥ à¥ĩà¤Ĥ
Ġà¤¹ à¤¥à¤¨
Ġà¤Ĺ à¤ĵ
Ġà¤ľà¤¯ à¤ļà¤¨
à¤ı à¤ıà¤®à¤ıà¤¸
à¤¨ à¤½
à¤¸ à¤Ĺà¤°
à¤Ĺ à¤Ńà¤¦
Ġà¤ıà¤¸ à¤Ĩà¤°à¤ª
à¤® à¤ľà¤¬
Ġà¤¹à¤ľ à¤ķ
Ġà¤¬ à¤¸à¤²
à¤Ĩ à¤¦à¤°
à¤¨ à¥Ľ
à¤² à¤°à¤¸
Ġà¤® à¥ŀ
Ġà¤ıà¤¸ à¤Ĩà¤°à¤ıà¤«
Ġà¤² à¤¦à¤¨
à¤ĩà¤² à¤ª
Ġà¤ĸà¤Łà¤ķ à¤¨
à¤ª à¤¤à¤¨
Ġà¤ıà¤¨ à¤ıà¤«à¤Ł
à¤°à¤¬ à¤ĸ
Ġà¤Ĺ à¤ĩà¤¯
à¤Ĺ à¤¦à¤²
Ġà¥§à¥¯à¥¬ à¥¬
à¤ľ à¤ı
à¥ĩ à¥ĭ
Ġà¤Ķ à¤²à¤ĸ
Ġà¤® à¤²à¤¸
Ġà¤Ĩà¤° à¤ıà¤«à¤¸
Ġà¤Ŀ à¤Ĺà¥ľà¤¨
à¤®à¤¨ à¤¨
à¤Ĺ à¤¤à¤°
à¤ıà¤¯à¤° à¤ª
à¤µ à¤ªà¤ķ
Ġà¤² à¤ĩ
à¤¯ à¤¡à¤²
Ġà¤µ à¤ĩà¤¸
à¤Ľ à¥ľà¤¤
à¤łà¤ķ à¤Ĺà¤£
à¤Ĩà¤ĩ à¤ĵà¤ıà¤¸
à¤ļ à¤ľ
Ġà¤®à¤°à¤¤ à¤¬
à¤Ł à¤ı
Ġà¤¦à¤° à¤ħà¤¸
Ġà¤Ŀ à¤ªà¤ķà¤¨
à¤¥à¤ª à¤°à¤¤
Ġà¤ĸ à¤°à¤¤
Ġà¤²à¥ľ à¤µ
à¤² à¤®à¤¸
à¤²à¤Ĺ à¤Ł
Ġà¥ļà¤° à¥Ľ
à¤īà¤ª à¤ķà¤°à¤£
à¤ķà¤² à¤²
à¤¬ à¤·
Ġà¤¸à¤ķ à¤Ł
Ġà¤ľ à¤°à¤µ
Ġà¤Ń à¤ĩ
Ġà¤ıà¤ļà¤ıà¤¸ à¤µ
à¤Ī à¤¸à¤°
Ġà¤Ĭ à¤ľ
à¤¤à¤µ à¤®
Ġà¤¸à¤² à¤µà¤Ł
Ġà¤ıà¤¸ à¤ıà¤¡
Ġà¤ħà¤µà¤§ à¤ª
Ġà¤ķ à¤ķà¤¸
à¥© à¥¬
à¤§à¤¨ à¤¨
Ġà¥Ľ à¤¯
Ġà¤Ĩà¤¯à¤ķà¤° à¤¦
Ġà¤¤à¤ķ à¤¸
Ġà¥§à¥¯à¥« à¥¨
à¤§ à¤¤à¤®
Ġà¤ı à¤ıà¤²à¤Ł
Ġà¤ĵ à¤ıà¤ļ
à¤Ĩà¤Ī à¤Ī
à¤® à¤§à¤°
à¤µ à¤Łà¤¨
à¤²à¤Łà¤¨ à¤Ĺ
à¤®à¤£ à¤¸
à¤°à¤ı à¤µà¤°
à¤® à¤¸à¤¤
à¤ıà¤« à¤ķ
Ġà¤§à¤° à¤¹à¤°
Ġà¤¸ à¤²à¤¤
à¤®à¤¸ à¤¹
à¤¨ à¤¬à¤²
Ġà¤ħà¥ŀ à¤°
Ġà¤ĳà¤ī à¤Łà¤«
à¤ª à¤Ĩà¤īà¤Ł
à¤¬ à¤ĩà¤¯
Ġà¤¸à¤² à¤¹
Ġà¥§à¥¯à¥Ń à¥¬
à¤°à¤µ à¤ľ
à¥© à¥¦à¥¦
Ġà¤ķà¤° à¤¹à¤²
Ġà¤īà¤¨ à¤ª
Ġà¤¬à¤° à¤Ľ
à¤Īà¤Īà¤Īà¤Ī à¤Īà¤Īà¤Īà¤Ī
à¤¶ à¤²à¤¨
à¤®à¤ļ à¤°à¤¨
à¤ıà¤¨ à¤ıà¤«
Ġà¤ħà¤¨ à¤¥à¤ķ
Ġà¤¤ à¤µà¤ķ
à¤Ł à¤ıà¤ķ
à¤Ĺà¥Ŀ à¤µ
à¤ĸ à¤®à¤§
Ġà¤¬à¤¨ à¤¬à¤¸
à¤°à¤¹ à¤ł
Ġà¤ħà¤¡ à¤¡
à¤ľà¤ķà¤¤ à¤¤
à¤° à¤²à¤ķ
Ġà¤ªà¤ļ à¤®à¥Ŀ
à¤¹à¤® à¤¸
à¤¨ à¤Ķà¤°
à¤ĸ à¤®à¤£
à¤¯ à¤¯à¤ķ
Ġà¤¶ à¤ľà¤°
Ġà¤ĸ à¤®à¤¨
à¤°à¤ª à¤¬
à¤¨ à¤®à¤²
Ġà¤ħà¤§ à¤ķ
Ġà¤ľ à¥ŀà¤°
à¥ľ à¤¹à¤²
à¤°à¤¨ à¤¨
Ġà¤Ĩà¤² à¤®à¤ª
Ġà¤Ĩà¤ĩ à¤Ĩà¤°à¤¸
à¤¤à¤° à¤§
Ġà¤¸à¤¬ à¤¡
à¤ª à¤¬à¤¤
à¤¿ à¥ĩà¤Ĥ
à¤¬ à¤ĩ
Ġà¤®à¤¹ à¤ķà¤¨
Ġà¤Ĩà¤° à¤ıà¤®à¤ıà¤¸
Ġà¤Ńà¤°à¤¤ à¤ľ
Ġà¤ľ à¤ĩà¤¤
à¤¿à¤Ĥ à¥į
Ġà¤ķà¤¹ à¤¹
Ġà¤¦ à¤¶à¤µ
Ġà¤¬à¤¡ à¤ķ
Ġà¤®à¤µ à¤Ī
à¥ĭ à¥Į
Ġà¤ħà¤Ĺà¤° à¤µ
Ġà¤ķà¤°à¤ķ à¤®à¤²
Ġà¤¬à¤¹à¤¨ à¤ļ
Ġà¤ľ à¤°à¤¤
à¤®à¤² à¤ķà¤°
à¥ŀ à¤¬
Ġà¤īà¤¡ à¤¦
Ġà¤Ńà¤Łà¤ķ à¤ķà¤°
à¤ĸ à¤Ńà¤°
à¤°à¤£ à¤¨
à¤°à¤® à¤ķà¤¤
Ġà¤ħà¤² à¤®à¤¸
à¤ļà¤¨ à¤¶à¤ķ
Ġà¤¨à¤µ à¤ļ
à¤¶ à¤§à¤°
Ġà¤ı à¤¹à¤¦
à¤¹ à¤²à¤¯
Ġà¤ªà¤°à¤® à¤ªà¤¦
Ġà¥§à¥¯à¥¬ à¥§
Ġà¤¿ à¥ĭ
Ġà¤°à¤® à¤Ī
à¤ıà¤¨à¤ıà¤ļ à¤Ĩà¤°à¤¸
Ġà¤ªà¤° à¥ŀ
Ġà¤¬à¤° à¤ĺ
à¤ªà¤ķ à¤ķà¤°
à¤ľà¤¤ à¤¦
à¤£ à¤µà¤°
à¤ļ à¤°à¤®
à¤¯à¤¨ à¤®à¤¸
Ġà¥§à¥¯à¥Ń à¥®
Ġà¤«à¤° à¤²
à¤¯à¤ľà¤¨à¤ķ à¤¬à¤¡
Ġà¤ķ à¤¤à¤®
à¥© à¥ª
Ġà¤ķà¤° à¤¸à¤ķà¤¤
à¤¼ à¥ĥ
Ġà¤ľà¤¨ à¤®à¤¦
Ġà¥© à¥«à¥¦
à¤ĵ à¤ıà¤Ĩà¤Ī
Ġà¤ħà¤ª à¤ļà¤¨
Ġà¤ħà¤« à¥Ľà¤²
Ġà¤Ł à¤°à¤®
Ġà¤°à¤¸ à¤¡
Ġà¥§à¥¯à¥© à¥¦
Ġà¤¬à¤ĩ à¤łà¤²
à¤¦ à¤¯à¤®
Ġà¤² à¤µà¤¨
à¤Ĺ à¤°à¤¤
Ġà¤ľà¤¨ à¤Ĺà¤£
Ġà¤²à¤¹à¤° à¤ª
Ġà¤¹à¤° à¤ªà¤²
à¤°à¤¹ à¤®à¤£
Ġà¤ľà¤¹ à¤¦
à¤° à¤¨à¤²
à¤°à¤¸ à¤¦
Ġà¥§à¥¯à¥« à¥«
à¤¹à¤¹ à¤¹à¤¹
à¤Ĩ à¤ªà¤¸
Ġà¤¬ à¤®à¤¨
Ġà¤¤ à¤¸à¤°
à¤§ à¤Ī
Ġà¤¸ à¤¯à¤®
Ġà¤Ķà¤° à¤ª
Ġà¤ĸ à¤Ļ
Ġà¥§à¥¯ à¥¨à¥¦
à¤¦à¤¤ à¤Ĺ
à¤°à¤¯ à¤¦
Ġà¤ıà¤Ī à¤ıà¤¨
Ġà¤ħà¤¦à¤° à¤ĸ
à¤· à¤¨à¤°
Ġà¤ıà¤¸ à¤ıà¤®à¤ª
Ġà¤Ĩ à¤¹à¤¨
à¤£ à¤ķà¤°à¤£
à¤Ļ à¤¨
Ġà¤¹ à¤¦à¤®
à¤ļ à¤ķà¤¨
Ġà¤¤à¤¹ à¤«
Ġà¤¤à¤ª à¤ķà¤°
Ġà¤Ĩà¤ı à¤¦
¾ à¥Īà¤Ĥ
à¤ ¾à¥Īà¤Ĥ
à¤¶à¤² à¤ª
à¤°à¤ªà¤¤ à¤²
Ġà¤°à¤ĸ à¤ķ
Ġà¤Ńà¤°à¤¤ à¤ķ
Ġà¤ħà¥Ļ à¤²
Ġà¤Ĩà¤Ī à¤ıà¤®à¤¸
à¤ıà¤¸à¤ıà¤¸ à¤¡
à¤ıà¤ļà¤ĵ à¤ª
Ġà¤Ĩà¤Īà¤ıà¤« à¤ıà¤«à¤Ĩà¤Ī
à¤¼ à¤¼à¥Ģ
à¤°à¤¸ à¤®à¤²
¾ à¥Ĥ
Ġà¤ıà¤¯à¤° à¤ıà¤¶
Ġà¤¬à¤ķà¤° à¤µ
à¤ ¾à¥Ĥ
Ġà¤ľ à¤ıà¤Ĺ
Ġà¤Ń à¤¬
à¤¯ à¤¥à¤²
à¤ī à¤¸à¤°
Ġà¤ĺà¤° à¤¨
à¤ħ à¤°à¤¶
à¤ıà¤« à¤ľ
Ġà¤ī à¤¢
Ġà¤ħà¤ļ à¤Ľ
Ġà¤ıà¤®à¤ıà¤¸ à¤ıà¤®
Ġà¤Ĳ à¤¬à¤Ł
Ġà¤° à¤«à¤²
à¤®à¤£ à¤¤
Ġà¤Ĩà¤Īà¤Ĩà¤° à¤ıà¤¨à¤ıà¤¸à¤ıà¤¸
Ġà¤ī à¥Ľ
à¥Ŀ à¤µ
à¤§ à¤°à¤µ
à¤°à¤¹ à¤®à¤ª
Ġà¤Ľ à¤²à¤ķà¤¨
à¤ĥ à¤ĥ
Ġà¤¤à¤¹ à¤µ
Ġà¤¶à¤ķà¤° à¤ª
Ġà¤¨ à¤¯à¤ķ
Ġà¤Ńà¤° à¤¥à¤°
Ġà¤¶à¤µ à¤Ĺ
à¤ķ à¤¯à¤¤
Ġà¤Ĩà¤Ĺ à¤Ī
Ġà¤§à¤°à¤¦ à¤¬
à¤¸ à¤Ĩà¤īà¤Ł
à¤Ĩà¤Ī à¤«
Ġà¤ĵà¤® à¤ľ
à¤¶à¤² à¤ĸà¤¨à¤Ĭ
à¤¶ à¤¡
à¥ĺ à¤²
Ġà¤¸à¤¬ à¤«
Ġà¤ıà¤ļ à¤Ĩà¤ĩà¤µ
Ġà¤Ń à¤ª
Ġà¤¯ à¤ķà¤¸
Ġà¤²à¤² à¤Ī
Ġà¤« à¥Ľà¤²
Ġà¤Ĩà¤Ī à¤ıà¤²à¤ĵ
Ġà¤¢ à¤¬
à¤° à¤°à¤µ
à¤° à¤ªà¤¸
à¤ħ à¤µà¤§
Ġà¤ļ à¤ĸà¤¤
à¤ıà¤¸ à¤ıà¤ķ
Ġà¤ıà¤® à¤Ĩà¤Īà¤¡
Ġà¤ı à¤ıà¤¸à¤ı
Ġà¥§à¥¦ à¥¨
Ġà¤¨à¤° à¤¬à¤²
Ġà¤¸à¤® à¤ļ
Ġà¤Ĭ à¤ł
Ġà¤ıà¤ļ à¤ıà¤®à¤Ł
à¤¯ à¤ľà¤®
Ġà¤ıà¤¸ à¤ıà¤Ł
Ġà¤ľ à¤®à¤ķ
Ġà¤° à¤ľà¤ª
Ġà¤īà¤ª à¤ľà¤¨
Ġà¤¬à¤¸ à¤¹
Ġà¤ķà¤ĩ à¤²à¤¨
Ġà¤Ń à¤Łà¤µ
à¤¥ à¤ļ
Ġà¤ıà¤² à¤ĩà¤¡
Ġà¤¸ à¤½
Ġà¤¸à¤ľ à¤§à¤ľ
à¤ıà¤¸à¤Ī à¤Ī
Ġà¤ħà¤ķà¤° à¤ķà¤°
Ġà¤ĵ à¤ıà¤«à¤ı
Ġà¤£ à¤µà¤¤
Ġà¤ħà¤¬ à¤¨
Ġà¤ĵ à¤¥
Ġà¤¹ à¤īà¤µ
à¤¡ à¤®à¤²
à¤²à¤¨ à¤°
Ġà¤¤à¤²à¤¬ à¤Ĺ
à¤² à¤¹à¤¸
Ġà¤Ķà¤° à¤°
Ġà¤ıà¤¯à¤° à¤¡
Ġà¤Ĩà¤ª à¤¹
à¤ŀ à¤µ
Ġà¤ł à¤²
à¥ľ à¤ķà¤¤
à¤¹ à¥ĺ
à¤Ľ à¤¯
à¤¹ à¤½
à¤® à¤²à¤¨
Ġà¤¤ à¤£
à¤¤à¤® à¤¦
Ġà¤¤ à¤²à¤ķà¤°
à¤ıà¤¸ à¤ıà¤Ł
Ġà¥§à¥¯à¥¬ à¥©
Ġà¤¶ à¤Ĭà¤°
à¤°à¤µà¤£ à¤¬
à¤¡à¤°à¤® à¤²
Ġà¤ĵà¤ıà¤² à¤Īà¤¡
à¤¹ à¤µà¤²
Ġà¤Ķà¤° à¤¨
à¤§ à¤ªà¤°
Ġà¤ı à¤Ĩà¤°à¤µ
Ġà¤ĺà¤¨ à¤ĺà¤¨
à¤Ń à¤Ń
à¤¹à¤¤ à¤ª
Ġà¤ĩà¤² à¤¹
Ġà¤ħà¤® à¤µ
à¤ľà¤¨ à¤¦
à¤¶ à¤ªà¤¥
à¤¡ à¤ł
Ġà¤¤à¤° à¤®
Ġà¤« à¤ķà¤¤
à¤®à¤¦à¤° à¤¶
à¥Ń à¥«
Ġà¥§à¥¨ à¥¨
Ġà¤Ĺà¤£ à¤ķ
Ġà¤Īà¤¶ à¤µà¤°
Ġà¥§à¥¯à¥ª à¥«
Ġà¤ĵ à¤°à¤¸
à¤°à¤²à¤ĸà¤¨à¤Ĭ à¤īà¤¦à¤¯à¤ª
Ġà¤®à¤¤ à¤¸
Ġà¤ķà¤¨ à¤ª
Ġà¤ħ à¤ļà¤¨
à¤ķà¤® à¤ľ
Ġà¤ļà¤¹ à¤ķà¤¨
Ġà¤¬à¤° à¤¡
à¤¦à¤µ à¤ķ
Ġà¤ıà¤¨ à¤Ĩà¤Īà¤ıà¤¸
à¤¦à¤ķ à¤£
à¤¨ à¤¬à¤¸
Ġà¤ķà¤® à¤²à¤¦
à¤¨ à¤¯à¤®
à¤° à¤¢
à¤ĳ à¤ª
Ġà¤® à¤Ĺà¤ľ
Ġà¤ķà¤® à¤²à¤Ĺà¤Ł
Ġà¤¸à¤° à¥ŀà¤°
Ġà¤Ĩà¤µà¤¶ à¤¯à¤ķ
Ġà¤ıà¤² à¤®
à¤¯à¤¸ à¤ļ
Ġà¤Ĩ à¤²à¤¯
à¥Ĳà¥Ĳ à¥Ĳà¥Ĳ
Ġà¤ķ à¤łà¤¨
à¤² à¤«à¤°
à¤Ł à¤¬à¤¸
Ġà¤° à¤ªà¤¤
Ġà¤Ĳ à¤«
à¤¶ à¤ķà¤²
à¤¶à¤¨ à¤¨
à¤°à¤µ à¤£à¤¤
Ġà¤Ĩà¤¯à¤° à¤¨à¤®
à¤°à¤¯ à¤£
Ġà¤ıà¤« à¤Ī
Ġà¤ĸ à¤Łà¤°
Ġà¤Ĭ à¤£
à¤Ĺ à¤¨à¤®
Ġà¤¸à¤® à¤ªà¤°
Ġà¤ªà¤ļ à¤ª
Ġà¤¨à¤µà¤² à¤Ĺà¤¢
Ġà¤¬à¤¸ à¤¬
à¤Ĺà¤łà¤¨ à¤ķà¤°
à¤¨ à¤¬à¤¨
à¤ĩà¤¨ à¤¹
à¤ľà¤« à¤°à¤¨à¤Ĺà¤°
à¤¶ à¤ķà¤¨
Ġà¤Ń à¤ľà¤ª
à¤¤à¤° à¤Ĺà¤¤
Ġà¤ıà¤¨ à¤ıà¤«à¤ı
Ġà¥§à¥¯à¥ª à¥¬
à¤¤à¤° à¤²
Ġà¤¸à¤®à¤° à¤ľ
à¤ı à¤¤à¤¨
Ġà¤¹à¤° à¤¬à¤°
à¥ŀ à¤°à¤µà¤°
Ġà¤¬à¤°à¤¹ à¤ľ
à¤¨ à¤¶à¤¨
à¤¦à¤¨ à¤²
Ġà¤ķà¤² à¤®à¤¬
à¤ĳ à¤īà¤Ł
Ġà¤«à¤¤ à¤¹à¤¸
Ġà¤ħà¤® à¤°à¤®à¤£
à¤°à¤¹ à¤ķà¤°
à¤ķà¤² à¤¯
Ġà¤¸à¤ķ à¤¦
à¤°à¤¤ à¤§
à¤°à¤£ à¤ľ
à¤Ł à¤¶à¤¨
Ġà¤¯ à¤°à¤¦à¤¨
à¤² à¤ħ
Ġà¤¸à¤®à¤° à¤¥
Ġà¥§à¥¯à¥¬ à¥®
Ġà¤¤ à¤¨à¤ķ
à¤Ĺà¤² à¤Ī
à¤ģ à¥ģ
Ġà¥§à¥Ń à¥¦
à¤ķ à¤³
Ġà¤ħ à¤²à¤¤
Ġà¤īà¤ª à¤°à¤µ
à¤ī à¤¦à¤¨à¤Ĺà¤°
à¤ĩà¤¨ à¤µ
Ġà¤¤ à¤¹à¤®
à¤¸à¤² à¤ĸ
Ġà¤ıà¤¨à¤Ĩà¤° à¤ľ
Ġà¤ħ à¤ŀ
à¤¯ à¤ªà¤ķ
à¤ħ à¤¨à¤¨
Ġà¤ıà¤Ĩà¤Ī à¤ıà¤®à¤ª
Ġà¤Ĩà¤Īà¤ıà¤® à¤¬
à¤® à¤Ĺà¤¤
à¤¶à¤² à¤Ĺà¤¢
Ġà¤ĸà¤¬à¤° à¤¸
Ġà¤ĩà¤ķà¤¤ à¤°à¤«
Ġà¤ªà¤Ł à¤¸à¤¨
Ġà¤ķà¥ľà¤ķ à¥ľ
à¤¨ à¥ĺ
à¤ª à¤ħà¤®
Ġà¤®à¤¹ à¤¥
Ġà¤ıà¤ħ à¤°à¤²
Ġà¤¸à¤¡ à¤¨
Ġà¥§à¥¨ à¥§
Ġà¤ķ à¤¦à¤µ
Ġà¤ħà¤Ń à¤ķ
Ġà¤¦ à¤ĵ
à¤°à¤Ń à¤Łà¤¨
Ġà¤ıà¤« à¤µ
à¤®à¤¨ à¤ķà¤°
à¤Ĩà¤Ī à¤ķ
Ġà¤¬à¤¸ à¤µà¤°
Ġà¤ıà¤¨ à¤ıà¤¸à¤ıà¤«
à¤Ĩà¤° à¤īà¤¤
Ġà¤īà¤§ à¤¡
Ġà¤°à¤£ à¤¸
Ġà¥§à¥¯à¥« à¥ª
à¤ĩà¤¨ à¤Ł
à¤¬à¤² à¤²
Ġà¥§à¥¯à¥« à¥Ń
Ġà¤¦à¤¬ à¤µ
Ġà¤¨à¤ķà¤¬ à¤ľà¤¨
à¤² à¤īà¤¤
Ġà¤¦ à¤°à¤¸à¤¨
Ġà¤ªà¤ļ à¥ľ
à¥ĩà¥ĩà¥ĩà¥ĩ à¥ĩà¥ĩà¥ĩà¥ĩ
Ġà¤Ĩ à¤±
Ġà¤ĳà¤« à¤¬
Ġà¤ĵ à¤ıà¤®à¤¸
Ġà¤¹à¤¶ à¤®à¤¤
Ġà¤« à¤¯à¤¦
à¥Į à¤¼
Ġà¤ıà¤Ĩà¤Ī à¤ıà¤¸à¤ıà¤«
à¤·à¤£ à¤¸
Ġà¤²à¤¹à¤° à¤¦
à¤Ł à¥ľ
Ġà¤ĩà¤¡ à¤²à¤°
à¤ł à¤£
à¤¸à¤¬ à¤¡
Ġà¤¶à¤¤à¤ķ à¤µ
à¤½ à¤¤
Ġà¤Ń à¤īà¤ľ
Ġà¤ī à¤§à¤¨
à¤Ł à¤¸à¤²
Ġà¤ľà¤® à¤¹
Ġà¤ĺà¤¨ à¤ļà¤ķ
Ġà¤¥ à¤°à¤¬
à¤Ĩà¤Īà¤Ĩà¤° à¤ıà¤«
à¤¨ à¤µà¤²
à¤°à¤¤ à¤ķà¤¥
à¤° à¤¡à¤¸
Ġà¥Ļ à¥Ľ
à¤¦à¤¯ à¤Ĺà¤¤
Ġà¤ĸ à¤ĸ
Ġà¤¢ à¤ªà¤²
Ġà¤ķà¤° à¤®à¤¨
à¤Ĩà¤Ī à¤ıà¤¸à¤ıà¤¸
Ġà¤¡à¤²à¤® à¤Ĭ
à¤¸ à¤ıà¤«
à¤« à¤¨à¤Ĺà¤°
à¤Łà¤® à¤¯
Ġà¤¦à¤® à¤¯à¤¨
à¤ª à¤¬à¤²
à¤®à¤¨ à¤ķ
Ġà¤ªà¤°à¤µ à¤²à¤¯
à¤¤ à¥ŀ
à¤¬ à¤Ĺà¤°
Ġà¤Ī à¤ıà¤®à¤¸
Ġà¤Ĺà¤Ĺà¤¨ à¤Ń
à¤ĺ à¤¨à¤ķ
à¤¹à¤² à¤ª
à¤ıà¤ļ à¤Ĩà¤Ī
Ġà¤¶à¤° à¤¹
à¤¨ à¤Ĩà¤ľ
Ġà¤ıà¤ļ à¤ĵà¤ıà¤®
à¤ĩà¤ª à¤°à¤ķ
Ġà¥ł à¤£
Ġà¤Ĩà¤µà¤¶ à¤¯à¤ķà¤¤
Ġà¤ľà¤¬ à¤¦à¤¸
Ġà¤ıà¤® à¤ıà¤®à¤¸
à¤¡à¤® à¤¡
à¤Ĩ à¤®à¤¤
Ġà¤Ĩà¤° à¤Īà¤ıà¤¸
Ġà¤ı à¤¹à¤¤à¤°
à¤ĩà¤ķà¤² à¤°
Ġà¤ħà¥ŀ à¤²
à¤ĩà¤¡ à¤¨
Ġà¤īà¤¤ à¤®
à¤¤à¤ķ à¤¬à¤°
à¤¯à¤¯à¤¨ à¤¶
à¤§ à¤§à¤°
à¤Ĺà¤£ à¤ªà¤¤
Ġà¤ķà¤°à¤¨ à¤ľ
à¤¸à¤° à¤®
Ġà¥§à¥¯à¥« à¥§
à¥ª à¥§
à¤° à¤¯à¤¨
à¤ĩà¤Ł à¤¡
à¤¯à¤¹ à¤µ
Ġà¤ħà¤® à¤°à¤ļ
à¤īà¤¨ à¤ª
Ġà¤ĭ à¤ľ
à¤² à¤¯à¤°
à¤µ à¤Łà¤²
à¤µ à¤ķà¤°à¤£
à¤« à¤°à¤¨
à¤¡ à¤¨à¤¸
à¤¸à¤° à¤¹
Ġà¥Ļ à¤µ
à¥« à¥¬
Ġà¤¸ à¤¨à¤¨
à¤°à¤® à¤¥
à¤ľ à¤µà¤¨
à¤¦à¤¨ à¤¨
à¤Ĩ à¤¸à¤®
Ġà¤Ĩà¤Ī à¤Ĩà¤°à¤ı
Ġà¤¬à¤° à¤ħà¤ķ
Ġà¤¨à¤µ à¤§
Ġà¤ı à¤ıà¤ıà¤«
Ġà¤ı à¤ıà¤¨à¤¸
à¤¤à¤° à¤µà¤°
Ġà¤ħà¤ķ à¤¥à¤¨
à¤¡à¤° à¤¨
Ġà¤¦ à¤¶à¤¨
à¤Ĭà¤Ĭ à¤Ĭà¤Ĭ
à¤Ĩà¤Ī à¤¨
Ġà¤²à¤Ĺ à¤¦
Ġà¤¸à¤®à¤¯ à¤¨
à¤Ĺ à¤¨à¤¸
à¤¶ à¤Ľà¤¤
à¤ªà¤¶ à¤¹à¤°
Ġà¤ı à¤¹à¤ķ
à¤¨à¤µ à¤ķ
Ġà¤® à¤¡à¤°
à¤ĸ à¤¤à¤°
Ġà¤µà¤¸ à¤¤
à¤« à¤¸à¤°
Ġà¤°à¤¸ à¤§
Ġà¤ıà¤ıà¤¸à¤ıà¤® à¤Ī
à¤° à¤ªà¤¯
Ġà¤Ī à¥Ľ
Ġà¤ıà¤ıà¤¸ à¤ľ
Ġà¤īà¤¨ à¤¬
Ġà¤¢ à¤®
Ġà¥ŀ à¥Ľ
Ġà¤«à¤² à¤¹
Ġà¤· à¤Łà¤¤
Ġà¥§à¥¯à¥ª à¥¦
à¤¹ à¤²à¤°
Ġà¤ı à¤Łà¤°
à¤¯à¤® à¤Ī
à¤ī à¤§
Ġà¤· à¤¬
à¤ĳ à¤¯à¤²
Ġà¤ķ à¤«à¤²
à¤¶ à¤ªà¤°
Ġà¤µà¤° à¤²
Ġà¤Ĩà¤° à¤«
Ġà¤ĵ à¤ıà¤ļà¤Ī
Ġà¤ļà¤®à¤¨ à¤²
à¤ĩà¤ıà¤¸ à¤ıà¤ļà¤ĵà¤ª
Ġà¤ıà¤ļà¤ĵà¤ıà¤® à¤ĩà¤ıà¤¸à¤ıà¤ļà¤ĵà¤ª
Ġà¤¦à¤°à¤® à¤¯
Ġà¤ħà¤¡ à¤ļà¤¨
à¤ĩ à¤°à¤«
à¤¦ à¤µà¤¨
Ġà¤§à¤¨ à¤ĸà¥ľ
Ġà¤Ĩà¤°à¤ĵ à¤Ĩà¤Ī
Ġà¥§à¥§ à¥¨
Ġà¤ª à¤¦à¤°
Ġà¤° à¤¸à¤®à¤¯
Ġà¤¹à¤¡ à¥ĺ
Ġà¤īà¤ª à¤¡
¾ à¤¾à¤Ĥ
à¤° à¤Ĭ
à¤ļà¤¨ à¤¦
à¤ ¾à¤¾à¤Ĥ
à¥ĭ à¥Ī
à¤² à¤ľà¤²
à¤Ĺ à¤¹à¤¸
à¤°à¤£ à¤¯à¤¨
Ġà¥§à¥¯à¥© à¥§
Ġà¤ľ à¤®à¤²
à¤¬ à¤ļà¤¨
Ġà¤Ī à¤¸à¤ķ
Ġà¤ļà¤°à¤® à¤¸
Ġà¤īà¤ª à¤®à¤£
Ġà¤ĩà¤¨ à¤ķà¤°
à¤ªà¤² à¤¸
Ġà¤ıà¤®à¤ıà¤² à¤ıà¤®
Ġà¤ķ à¤ĩà¤ķ
Ġà¤¨à¤µ à¤ªà¤²
Ġà¤¦à¤¨ à¤¦à¤¨
Ġà¤¦à¤« à¤¤à¤°
à¤¸ à¤¤à¤°
à¤ĩ à¤Łà¤¨à¤°
à¤ĸ à¤§à¤°
Ġà¤Ī à¤ıà¤¸à¤ıà¤²
Ġà¤ıà¤®à¤ı à¤²à¤¬
Ġà¤¦ à¤¸à¤ķ
Ġà¤µ à¤¨à¤Ł
à¤ıà¤² à¤¡à¤¬
à¤¤à¤² à¤ª
à¤ĩà¤¡ à¤µ
à¤°à¤®à¤£ à¤¶
à¤Īà¤Ł à¤¸
à¤ķà¤Łà¤° à¤®à¤£
à¤Ĺà¤ı à¤ķà¤²à¤Ł
Ġà¤¥ à¤¨à¤¬à¤°
Ġà¤µà¤¨ à¤ľ
Ġà¤īà¤² à¤Łà¤¬
Ġà¤ıà¤¸à¤ıà¤¸ à¤ıà¤²à¤¸
à¤¯ à¤ªà¤¨
à¤ı à¤ļà¤°
Ġà¤¬à¤Ĺ à¥ľ
à¥Ł à¤ķ
Ġà¥Ĳ à¤ķ
Ġà¤¦à¤¹à¤¨ à¤¶
Ġà¥§à¥¯à¥© à¥¬
à¤¤à¤ķ à¤Ĺ
à¤¼à¤¾ à¥ĩà¤Ĥ
Ġà¤ķà¤Ī à¤¸
à¤ıà¤ļ à¤ıà¤ļ
Ġà¤¹ à¤Īà¤¶
à¤Łà¤¤ à¤¯
Ġà¤Ńà¤µ à¤¦
Ġà¤ħà¤ª à¤ĺà¤Ł
à¤°à¤¤ à¤¬
Ġà¥ĺ à¥Ľ
Ġà¤Łà¤® à¤Łà¤®
à¤ĩà¤ªà¤° à¤¬
à¤¬à¤Ĺ à¤¹
à¤¢ à¤¯
à¤ĺ à¤·
Ġà¤¹ à¤¯à¤Ĺ
Ġà¤Ĺ à¤®à¤ķ
à¤° à¤Ļ
à¥ľ à¤°
à¤¸à¤® à¤ķ
à¤ľ à¤ķà¤¨
Ġà¤Ĩà¤ª à¤¤à¤ķ
Ġà¤ıà¤ļ à¤¡à¤¬
à¤¥à¤µ à¤¶
à¤ħà¤² à¤µà¤°
Ġà¥Ŀ à¤ķ
Ġà¤ľ à¤¤à¤°
à¤ı à¤²à¤µ
Ġà¤ıà¤ļ à¤ıà¤«à¤¸
Ġà¤ķà¤° à¤Ľ
à¥© à¥®
à¤® à¤µà¤¨
Ġà¤®à¤¦ à¤®
à¤¨ à¤Ĺà¤¤
Ġà¤¬ à¤¬à¤°
Ġà¤²à¤Ĺ à¤½
à¤ĩà¤¡ à¤®
Ġà¤Ĺà¤¨ à¤ªà¤¤
à¤½à¤½ à¤½à¤½
à¤Ĩ à¤£
à¥Ŀ à¤¸
Ġà¤¸ à¤µà¤¨
Ġà¤ī à¤¯
Ġà¤ħà¥ŀ à¥Ľà¤²
Ġà¤° à¥ĺà¤®
Ġà¤ķà¤° à¤µà¤°
à¤°à¤¹ à¤¦
Ġà¤ıà¤¨à¤ıà¤¸ à¤ĵ
à¤Ĩà¤ĩ à¤ıà¤¸à¤ıà¤«
à¥į à¥Ī
Ġà¥§à¥¦ à¥ª
Ġà¤ħà¤® à¤°à¤µ
à¤¨à¤¸ à¤ĸ
à¤· à¤«
Ġà¥§à¥¦ à¥Ń
Ġà¤į à¤¨
à¤Ĩ à¤²à¤®
Ġà¤µà¤¹ à¤¶à¤¤
Ġà¤ĵà¥Ŀ à¤ķà¤°
Ġà¤¦ à¤¦à¤¨
à¤¥ à¤§
Ġà¤¸à¤° à¤ªà¤¤
à¤Ĭ à¤Łà¤°
à¤Ł à¤¹à¤°
à¤¯ à¥ĺ
Ġà¤ĸà¤² à¤ĸ
Ġà¤²à¤ªà¤ķ à¤µ
à¤²à¤¬ à¤®
Ġà¤ıà¤¨ à¤ıà¤ıà¤¸
Ġà¤¯ à¤®à¤¯
Ġà¤Ī à¤¶à¤°
Ġà¤ħà¤Ĺ à¤ª
Ġà¤Ńà¤°à¤¤ à¤µ
Ġà¤°à¤Īà¤¸ à¤ľ
à¤¸à¤® à¤¹
Ġà¤ıà¤« à¤ıà¤¸à¤¡
à¤¯ à¤¯à¤¤
Ġà¤²à¤ĸà¤¨ à¤²
Ġà¤ıà¤ķà¤° à¤½
à¤¤à¤¨ à¤¦
Ġà¤ķà¤²à¤® à¤¬à¤¦
Ġà¤µà¤°à¤¦ à¤¹à¤¸
à¤£ à¤ªà¤¶
Ġà¤Ĳ à¤µà¤ľ
Ġà¤ħà¤° à¤«
à¤§ à¤¯à¤ķ
à¤Ŀ à¤§
à¤¡ à¤°à¤¦
à¤¦ à¤¯à¤ķ
Ġà¤Ĺà¤²à¤¤ à¤¬à¤¯
Ġà¤¬à¤¹ à¤¬
à¤ľà¤® à¤§
Ġà¤Ŀà¤Łà¤ķ à¤ķà¤°
Ġà¥© à¥¨à¥¦
à¤£ à¤£
à¤¾à¤¿ à¥ĭ
Ġà¤ıà¤®à¤ĵ à¤ıà¤¸à¤Ł
à¤ıà¤ļ à¤µ
à¤¤ à¤·
à¤Łà¤° à¤ªà¤¨
Ġà¤§ à¤¡à¤²
à¤Ķ à¤¤
Ġà¤§à¤¨à¤² à¤ķ
à¤µ à¤²à¤¤
Ġà¤¬ à¤³
à¤Ĩ à¤¨à¤¨
Ġà¤² à¤§
à¤¡ à¤Ĩà¤°
Ġà¥§à¥¨ à¥¦à¥¦
Ġà¤ĩ à¤¤à¤®
Ġà¤ı à¤¬à¤²
à¤°à¤¬ à¤¹à¤°
Ġà¤ĸ à¤°à¤¦
Ġà¤Ĩà¤ķ à¤·à¤°
Ġà¤ķ à¤¨à¤²
à¤µà¤° à¤¡
à¤ļ à¤ķà¤¸
Ġà¤ħà¤ķ à¤¨
Ġà¤¬à¤¹ à¤®
Ġà¤ľà¤Ĺ à¤¸
à¤ªà¤¨ à¤¹
Ġà¤ıà¤¡à¤² à¤µ
à¤¨ à¤¹à¤¬
à¤® à¤°à¤®
Ġà¤ı à¤¡à¤°
Ġà¤Ĭ à¤®à¤°
à¤° à¤Ĩà¤ľà¤®à¤Ĺà¤¢
à¤µ à¤ķà¤¤
à¤µ à¤ļà¤²
Ġà¤ı à¤Ĩà¤°à¤ª
Ġà¤ĵ à¤¤à¤¨
Ġà¤ķà¤¨à¤ķ à¤ª
Ġà¥§à¥¯à¥« à¥©
à¤¤ à¤Ľ
Ġà¤¾ à¤¿
à¤Ĺ à¤¸à¤®
à¤¶ à¤¶à¤¹à¤°
à¤¯à¤® à¤µ
à¤¥ à¤Ń
Ġà¤īà¤© à¤ķ
à¤ĸ à¤½
Ġà¤¶à¤¹à¤° à¤Ńà¤°
à¤§ à¤µà¤²
à¤®à¤¨ à¤¤
Ġà¤ĩà¤¬ à¤°à¤¤
Ġà¤°à¤¸ à¥ľ
Ġà¤¶à¤² à¤Ĺà¤®
à¤£ à¤¸à¤®
Ġà¤ħà¤¨ à¤²à¤ķ
Ġà¤ĵ à¤¢à¤¨
à¤¹ à¤ªà¤¤
à¤ķ à¤ıà¤ľ
à¤® à¤¹à¤¬
à¤²à¤¯ à¤¸
Ġà¤Ĩà¤Ī à¤Ĩà¤Īà¤¸
à¤ıà¤¸à¤ı à¤¨à¤²
Ġà¤ĩ à¤«à¤°
Ġà¤Ĩà¤Ĩ à¤¹à¤¹
Ġà¤¶ à¤¶à¤ķ
à¤²à¤¬ à¤Ł
Ġà¥Ľ à¤¬à¤°
à¤ĩà¤¬à¤° à¤¬
à¤² à¤ħà¤ľ
Ġà¤Ĩà¤¤ à¤®
Ġà¤ķà¤ł à¤«
Ġà¤Ĩà¤Īà¤ıà¤¸ à¤Ĩà¤Īà¤ıà¤²
Ġà¤ıà¤¨à¤ıà¤¸ à¤Ĩà¤Īà¤¸
Ġà¤ıà¤¨à¤Ĩà¤°à¤ıà¤² à¤ıà¤®
à¤µà¤¨ à¤ľ
Ġà¤°à¤® à¤¶
à¤¦ à¤ªà¤°
Ġà¤¢ à¤ª
à¤· à¤ªà¤°
Ġà¤ķà¤°à¤¨ à¤ª
Ġà¤¸à¤¹ à¤¬
Ġà¤Ī à¤Ĩà¤Īà¤ı
Ġà¥§à¥ª à¥ª
à¤¹à¤° à¤¨à¤¡
Ġà¤ªà¤¤ à¤Ŀà¤°
Ġà¤« à¤ķà¤°
Ġà¤¹ à¤¦à¤¬
à¤§ à¤°à¤ª
à¤ķ à¤ħ
Ġà¤Ĭ à¤Ĺ
à¤ĩà¤¨à¤ķ à¤®
Ġà¤¸à¤¨ à¤¡
Ġà¤¹à¤® à¤ª
à¤ĩà¤® à¤Ĩà¤īà¤Ł
Ġà¤¬à¤°à¤¸ à¤ł
à¤³ à¤Ĺ
Ġà¥§à¥¦ à¥¬
Ġà¤°à¤¸ à¤µ
Ġà¤¸à¤® à¤§à¤¨
Ġà¤¡ à¤ª
à¤°à¤¹à¤° à¤¦
Ġà¤Ĭ à¤¬à¤¨
Ġà¤ĩ à¤ķà¤¸
à¤ĸ à¤¨à¤ķ
Ġà¤ıà¤ķ à¤ļ
à¥ħ à¥Ĥà¤Ĥ
Ġà¤¡ à¤ľ
à¤Łà¤ķ à¤¬
à¤¨ à¤°à¤ķ
à¤°à¤¤ à¤¯
à¤ķà¤® à¤¶
Ġà¤Ĭ à¤ķ
Ġà¤° à¤ı
Ġà¥§à¥§ à¥¯
à¤¢ à¤¦
Ġà¤ķà¤® à¤°à¤¦à¤°
à¤Ĺà¤® à¤¸
Ġà¤® à¥Ļ
à¤ļ à¤®à¤ķ
à¤Ī à¤¡à¤²
Ġà¤ķà¤ĩà¤² à¤¸
à¤¶ à¤Ĺà¤°
à¤ľà¤¹ à¤®
à¤īà¤¸ à¤¹
à¤°à¤§à¤¨ à¤®
à¤¸ à¤«à¤²
Ġà¤° à¤®à¤¦
Ġà¤¬à¤¡ à¤¬à¤¡
à¤²à¤¨ à¤¬
Ġà¤®à¤¨ à¤«
Ġà¤ıà¤¸à¤ı à¤ıà¤«
à¤ª à¤Ľ
à¤ľ à¤®à¤²
à¤¨ à¤¶à¤ķ
à¤ĸà¤° à¤ķà¤°
Ġà¤®à¤ķà¥ľ à¤ľ
Ġà¤¸à¤¬ à¤¹à¤ķ
Ġà¤ĩà¤² à¤ķ
Ġà¤¢ à¤²à¤µ
Ġà¤ıà¤®à¤ıà¤« à¤Ĩà¤Ī
Ġà¤°à¤¹ à¤®à¤¦
Ġà¥ŀ à¤¤à¤µ
à¤¯ à¤ĸà¤²
à¤µ à¤ľà¤²
à¤«à¤² à¤ĸ
à¤¡ à¤ıà¤«
Ġà¤Ń à¤²à¤¸
à¤½ à¤°
Ġà¤µà¤¹ à¤ľ
à¤ĩà¤« à¤¨
à¤Ĺ à¤ĩ
Ġà¥©à¥ª à¥§
Ġà¤¬ à¤Ĺà¤¤
Ġà¤ĸ à¤ľà¤¨
Ġà¤¤à¤° à¤£à¤¤
Ġà¤® à¤°à¤¸
à¤· à¤Ŀà¤¤
à¤ĩà¤ª à¤°à¤®
Ġà¤īà¥ľ à¤¨à¤¦à¤¸
Ġà¤Ĩà¤°à¤ıà¤¸à¤ıà¤® à¤ıà¤¸à¤ıà¤¸à¤¬
à¤¸ à¤ĵ
Ġà¤¬à¤¹ à¤ķà¤¨
à¤¹ à¥ľà¤¤
à¤ľà¤¨ à¤¸à¤¤
Ġà¤· à¤£à¤®
Ġà¤ľà¤² à¤¶
Ġà¤¨à¤° à¤ª
à¤ħà¤¨ à¤ľ
à¤¨à¤ķ à¤µ
Ġà¤Ĩà¤µ à¤ľ
Ġà¤ıà¤® à¤Īà¤ª
à¤¹ à¤²à¤¬
à¤¯ à¤¹à¤°
Ġà¤īà¤¸ à¤²
Ġà¤ĳà¤ª à¤¶à¤¨
à¤ħà¤ķ à¤¬à¤°à¤ª
Ġà¤¡ à¤«à¤°
Ġà¥§à¥§ à¥§
à¤¤ à¤³
Ġà¤ĩà¤² à¤®
Ġà¤¹à¤ľ à¤¯
Ġà¤® à¤²à¤ķà¤°
Ġà¤Ĳà¤¸ à¤¨
à¤ªà¤¹ à¤ļ
à¤· à¤¯à¤ª
Ġà¤ķà¤ļ à¥ľ
Ġà¤®à¤Ŀ à¤Ĺà¤µ
Ġà¤¬à¤¸ à¤¸
Ġà¤ħà¤®à¤¨ à¤ª
à¤ı à¤Ĩà¤°à¤¸
à¤ĸà¤¨ à¤ª
Ġà¤īà¤® à¥ľà¤¨
Ġà¤ķà¤· à¤Ĺà¤®
à¤® à¤¶à¤°
Ġà¤ªà¤¦ à¤§
Ġà¤ľà¤¯ à¤Ńà¤Ĺà¤µ
Ġà¥§à¥¦ à¥¯
Ġà¤ĭ à¤Ĺà¤µ
Ġà¤ķà¤° à¤¡
Ġà¤ıà¤®à¤ıà¤¸ à¤¡à¤¬
à¤¬à¤Ī à¤¯
à¤¦à¤¯ à¤ĺ
à¤²à¤Ĺ à¤£à¤¨
à¤®à¤ķ à¤®à¤²
à¤Łà¤ķ à¤ķà¤°
à¤¯à¤ľà¤¨à¤ķ à¤Ĺ
à¤¸ à¤¹à¤¨
Ġà¤ħà¤¨ à¤Ĺà¥Ŀ
à¤Ĩà¤ĩ à¤ıà¤²
à¤²à¤¶ à¤¹à¤°
Ġà¤ĵ à¤Łà¤¨
Ġà¤Ĩà¤Ī à¤Ĩà¤°à¤ıà¤«
à¤ı à¤²à¤ķ
Ġà¤¬à¤° à¤¬à¤°
Ġà¤¹ à¤¹à¤¹
Ġà¤ľà¤¨ à¤ķà¤°
Ġà¤¸à¤¨ à¤Ł
à¤ı à¤ªà¤¨
à¤ħ à¤£
à¤¤ à¤¸à¤®
Ġà¤ļà¤°à¤¨ à¤ľ
à¤¤ à¤Ľà¤¨
Ġà¤¨à¤² à¤ľà¤²
à¤ľ à¥ļ
à¤¨à¤¯ à¤¶
Ġà¤®à¤¹ à¤¤à¤µà¤ª
Ġà¤ıà¤¨ à¤Ĩà¤ĩà¤¸
à¤¦à¤®à¤¤ à¤Ĺ
Ġà¤ķà¤° à¤®à¤ľ
à¤¦ à¤µà¤¤
Ġà¤° à¤·
Ġà¤Ī à¤ıà¤¸à¤ı
Ġà¥§à¥¯à¥« à¥®
à¤¸ à¤Ķà¤°
Ġà¤¦ à¤²à¤ķ
à¤µà¤° à¤¬à¤¦
Ġà¤¨à¤Ĺà¤° à¤ļ
à¤Ĥ à¤ĥ
Ġà¤ī à¤ĩà¤Ĺ
Ġà¤Ķ à¤ªà¤¬
Ġà¤īà¤¤ à¤ķ
à¤²à¤¤ à¤¨
Ġà¤ľà¤¯ à¤Ĺà¤¢
Ġà¤ª à¤¯à¤¤à¤®
à¤Ĺ à¤Ļ
à¤ı à¤Ķà¤°
Ġà¤¸à¤ª à¤¥
à¤°à¤¸ à¤¸
à¤¤à¤° à¤ªà¤¶
à¤ıà¤¸ à¤ıà¤¸à¤ª
Ġà¤§à¤¨ à¤µà¤°
à¤ĺ à¤¨à¤ķà¤°
Ġà¤ıà¤¡ à¤²à¤°
à¥°à¥° à¥°à¥°
Ġà¥¯ à¥¦à¥¦
Ġà¤° à¤¸à¤¸
Ġà¤« à¤ĩà¤²
Ġà¤ıà¤« à¤ıà¤²
à¤¡à¤¸ à¤Ł
Ġà¤²à¤Ĺ à¤²à¤¨
à¥Ń à¥Ń
à¤ıà¤®à¤Ĩà¤Ī à¤Ī
Ġà¥§à¥¯à¥« à¥¯
Ġà¤īà¤Ł à¤ªà¤Ł
à¤ļ à¤¬à¤ļ
Ġà¤Ŀ à¤ªà¤Łà¤¨
Ġà¤Ĺà¤¡ à¤¢
à¤¤à¤¨ à¤ıà¤®
à¤¹ à¤ľà¤¨
Ġà¤¬ à¤ī
à¤®à¤² à¤¸
Ġà¤® à¤īà¤¤
Ġà¤Ĭ à¤¦à¤¬
Ġà¤¡à¤Ĺ à¤Ĩà¤īà¤Ł
à¤¯ à¤¶à¤¨
Ġà¤Ĩà¤¤ à¤ķ
Ġà¤ı à¤¤à¤®
à¤Ń à¤Ńà¤ķ
Ġà¥Ľ à¤¦
Ġà¤¸ à¤Łà¤²
à¤ı à¤¡à¤®
Ġà¤¬à¥ľ à¤¤
Ġà¤ªà¤°à¤® à¤¶
Ġà¤ħ à¥ľà¤¤
à¤¹à¤¤ à¤ķà¤°
Ġà¤®à¤¸ à¤ħà¤²
à¤® à¤ħà¤¨
Ġà¤Ľ à¤¦à¤®
Ġà¤®à¤§ à¤µ
Ġà¤ħà¤²à¤ķà¤¨ à¤¨
Ġà¤¬ à¤²à¤¨
Ġà¤¬ à¤Ľà¤µ
Ġà¤ĩ à¤§
à¤§ à¤§
à¤Ń à¤²à¤Ĺ
Ġà¤ľà¤° à¤°
à¤¿ à¥Ĥ
à¤® à¤ĩ
Ġà¤ħ à¤¯à¤®
à¤¡ à¤ªà¤°
Ġà¤Ķ à¤ĺà¤¡
Ġà¤Ķà¤° à¤µ
Ġà¤Ĩà¤Ī à¤Īà¤ıà¤¸
à¤¬ à¤§à¤¨
Ġà¤Ĳ à¤°à¤¨
Ġà¤ĵ à¤·
à¤Ńà¤µ à¤®
à¤¨à¤Ĺ à¤¯
Ġà¤° à¤Ĺà¤¤
à¤¾à¤Ĥ à¤ģ
à¤µ à¤ķà¤¨
Ġà¤ıà¤¨ à¤ıà¤¸à¤ķ
à¤ĩ à¤ĸ
Ġà¤ķà¥ľ à¤ķà¤¨
Ġà¤¸à¤¬ à¤®à¤¶
Ġà¤ĵ à¤ıà¤®
Ġà¤²à¤¡ à¤ĸà¤¡
Ġà¤²à¤ķ à¤¦à¤ķ
à¤®à¤£ à¤°
à¤®à¤Ĩ à¤¸à¤°
Ġà¤¸ à¤Łà¤°
à¤Ľ à¤¸
Ġà¤ıà¤¨ à¤ıà¤²à¤¸
à¤Ĺ à¤ªà¤²
Ġà¤ľà¤² à¤ľà¤¨
Ġà¥©à¥¬ à¥¦
Ġà¤ĵ à¤ĩ
à¤¼ à¤¼à¥ĩ
à¤§ à¤¯à¤¨
à¤¶à¤² à¤«
Ġà¥§à¥¦ à¥©
à¤°à¤§à¤¨ à¤¬
à¥Ŀ à¤ķà¤°
Ġà¤ķà¤¬ à¤ķ
à¤¹ à¤¤à¤¨
à¤¤ à¤ªà¤¸
Ġà¤¸à¤°à¤µ à¤Ł
à¤¨ à¤Ĺà¤łà¤¨
Ġà¤°à¤Ĺà¥ľ à¤ķà¤°
à¤¨à¤¸ à¤µ
Ġà¤īà¤Ľ à¤²à¤ķ
à¤µà¤¶ à¤°
Ġà¤ĩ à¤©
Ġà¤ľà¤¯ à¤¬
à¤ĩà¤µà¤° à¤²
à¤¯à¤¨ à¤ľà¤°
Ġà¥§à¥© à¥«
Ġà¤ı à¥Ľ
Ġà¤ı à¤ıà¤®à¤ı
à¤Łà¤¨ à¤Ĺ
à¤®à¤¦ à¤Ń
à¤¹à¤°à¤£ à¤¸
à¤ļ à¤Ĺà¤¨
Ġà¤ĩ à¥Ļà¤¤
Ġà¤¬à¥ľ à¤¹à¤°
Ġà¤ħà¥ŀ à¤Ĺ
Ġà¤®à¤¹ à¤®à¤¦
à¤ĩà¤¨ à¤°à¤¹à¤µ
Ġà¤ħà¤¤ à¤µ
Ġà¤®à¤ķ à¤¥
Ġà¤Ĩ à¤²à¤¤
à¤ªà¤² à¤®
à¤¤à¤°à¤ķ à¤¶à¤ļ
à¤Ń à¤²à¤Ĺà¥Ŀ
Ġà¤ķà¤® à¤°à¤¤
Ġà¤¹ à¥Ľà¤°
Ġà¤ī à¤ķà¤¡
Ġà¤¸à¤¬ à¤ĳà¤°
Ġà¤ĩà¤¸ à¤µ
Ġà¤Ľ à¤²à¤¹
à¤® à¤ľà¤¯
à¤Ĳ à¤¨
à¤° à¤ıà¤Ł
à¤Ł à¤¸à¤°
à¤² à¤¸à¤²
à¤Ł à¤¯à¤®
à¤· à¤¨à¤²
à¤¬ à¤¸à¤¨
Ġà¥§à¥§ à¥«
à¥ŀ à¤²à¤¤
Ġà¤Ĩà¤¦à¤° à¤¨
Ġà¤ıà¤¨ à¤Ĩà¤°à¤ıà¤¸
à¤ª à¤ªà¤°
Ġà¤Ī à¤¤à¤¨
à¤Ĩà¤Ī à¤ıà¤®à¤Īà¤Ĩà¤°
à¥¦ à¥§
Ġà¤§à¤® à¤ķà¤¤
Ġà¤¸ à¤Ĺà¤²
à¤ľ à¤ķà¤²
à¥Ģ à¥ĭ
à¤ª à¤®à¤¯
Ġà¤Ĩà¤° à¤Ĩà¤Īà¤ı
Ġà¤ıà¤¸ à¤Ĩà¤Īà¤¸
à¤ķ à¤¦à¤¨
à¤Ĺà¤¤ à¤ķ
Ġà¥ª à¥¦à¥¦à¥¦
Ġà¤ħà¤§ à¤²
Ġà¤¸à¤® à¤£
à¥¬ à¥ª
à¤¶à¤²à¤ĸà¤¨à¤Ĭ à¤µ
Ġà¤ıà¤® à¤Īà¤ıà¤¸
à¤Ĺà¤ķ à¤£
à¤Ĺ à¤Īà¤ª
à¤¦à¤¨ à¤µà¤¨
Ġà¤Ĩà¤Ī à¤ıà¤¸à¤Ł
à¤Ĩà¤ĩ à¤ıà¤¸
Ġà¤¤ à¤¨à¤®
Ġà¤ĵ à¤ľà¤ª
à¤Ĺà¤® à¤ķà¤°
Ġà¤Ń à¤¦à¤°
à¤ĵ à¤ıà¤¨
à¤ľà¤µà¤² à¤ķà¤°
Ġà¤¤à¤°à¤¹ à¤¸
Ġà¤Ľà¤ª à¤ķà¤°
à¤Ĺà¤¨ à¤¯à¤¨
à¤¹ à¤¬à¤²
Ġà¤Ķ à¤¬
à¤ĸ à¤®à¤¹
Ġà¤Ĩà¤° à¤ĵà¤¸
à¤¥ à¤ķà¤µ
Ġà¤ĵ à¤±
Ġà¤ķà¤ª à¤¸
Ġà¤°à¤¹à¤² à¤½
Ġà¤¸ à¥ľà¤¤
à¤¦ à¤°à¤£
à¥¬ à¥®
Ġà¤ĩ à¥Ļ
à¤Ī à¤ıà¤¸à¤ıà¤¸
à¤ħ à¤Ľ
Ġà¤Ĩà¤ĩ à¤ıà¤®à¤ı
à¤¸ à¤¤à¤ķ
à¤¯ à¤¬à¤¸
Ġà¤ı à¤¨à¤®
à¤Ĩ à¥Ľ
à¤¤à¤® à¤®
à¤ļà¤® à¤¹à¤²
Ġà¤®à¤Ł à¤ķà¤¤
Ġà¤ıà¤¸ à¤ıà¤«à¤¸
Ġà¤¹à¤¥à¤ķ à¤£
à¤Ĺ à¤Ńà¤°
Ġà¤¶ à¥ŀ
à¤ķà¤° à¤µà¤°
Ġà¤ıà¤¨ à¤Īà¤¸
à¤¨ à¤¶à¤°
Ġà¤¨ à¤ĸà¤²
à¤¶ à¤·
Ġà¤¸à¤¬ à¤ª
à¤¨à¤¸ à¤ł
à¤²à¤¸ à¤«
à¤ķà¤°à¤£ à¤ķ
Ġà¤ħà¤¹à¤®à¤¦ à¤ª
à¤Ł à¤¸à¤®
Ġà¤ļ à¤Ĺ
Ġà¥§à¥¨ à¥©
à¤Ĩà¤°à¤¨ à¤Ī
à¤¬ à¤¬à¤°
à¤¢ à¤¬
Ġà¤®à¤¨ à¤¬à¤¢
Ġà¤¨à¤°à¤® à¤ª
à¤µ à¤®à¤¸
Ġà¤° à¤īà¤µ
Ġà¤ıà¤®à¤ıà¤ļ à¤ı
Ġà¤ıà¤¬à¤° à¤¡
Ġà¤« à¥ľà¤ķ
à¤ĩ à¤µà¤µ
Ġà¤®à¤² à¤ľà¤²
à¤¤à¤° à¥ŀ
à¤Ĩ à¤¨à¤µ
à¤ħ à¤Łà¤°
à¥įà¤¾ à¥Ģ
Ġà¤¦ à¤Ń
à¤¨ à¤°à¤¶
Ġà¤°à¤ķ à¤ħà¤¤
à¤¨ à¤ĩà¤¤
à¤¦à¤° à¤«
Ġà¤¶à¤¹ à¤ª
à¤¨à¤Ĺà¤° à¤¦
Ġà¤Ŀà¤ªà¤Ł à¤ķà¤°
à¤¸ à¤ıà¤ľ
à¥¬ à¥Ń
à¤Ĺ à¤ıà¤ķ
à¤¸ à¤Ľ
Ġà¤ķà¤° à¤²à¤ķ
à¤µà¤ª à¤¦
Ġà¤ıà¤ļ à¤ı
Ġà¤ĺà¤Ł à¤µ
à¤ķà¤²à¤¨ à¤Ł
à¤²à¤Ŀ à¥ľ
à¤® à¥Ľ
Ġà¤ª à¤¨à¤¸
Ġà¤¬à¤² à¤µà¤°
à¤ĭ à¤ĭ
à¤¯ à¤Ĺà¤¡
Ġà¤Ĩà¤Ī à¤ıà¤Ł
Ġà¤Ĩà¤°à¤Ĩà¤° à¤Ĩà¤°
Ġà¤ĩ à¤¦à¤®
Ġà¤ıà¤¸à¤ı à¤ıà¤®
à¤ķ à¤®à¤ª
Ġà¤ıà¤² à¤Ĺ
à¤ıà¤² à¤Ĩà¤Īà¤¸
Ġà¤ıà¤« à¤¯
Ġà¤¹à¤¡à¤ķ à¤®
à¤¯ à¤Ļ
à¤ľ à¤¦à¤°
Ġà¤ķà¤® à¤ª
à¤¦à¤ĸà¤² à¤¦
Ġà¤¦à¤° à¤ª
Ġà¤īà¤® à¤Ĺ
Ġà¤ķà¤° à¤¬à¤¦
à¤ĩà¤² à¤°à¤µ
à¥Īà¥Īà¥Īà¥Īà¥Īà¥Īà¥Īà¥Ī à¥Īà¥Īà¥Īà¥Īà¥Īà¥Īà¥Īà¥Ī
à¤¶à¤¶à¤¹à¤° à¤ľ
à¤°à¤ľ à¤¬
Ġà¤ĸà¤¨ à¤ĸà¤¨
Ġà¤¨à¤¸ à¤§
Ġà¤Ńà¤Ĺà¤µà¤¤ à¤Ĺ
à¤¯ à¤īà¤¤
à¤²à¤¯ à¤µ
Ġà¤¸à¤ª à¤·
Ġà¤ļà¤¯à¤¨ à¤¸à¤®
Ġà¤Ńà¤² à¤®à¤¨à¤¸
Ġà¤¸ à¤Ĺà¤łà¤¨
à¤°à¤¬ à¤§
à¤° à¤°à¤²
à¤·à¤ķ à¤Ł
Ġà¤ıà¤² à¤Īà¤Ł
Ġà¤ıà¤« à¤Ĩà¤°à¤Ĩà¤Ī
à¤®à¤¤ à¤¸
Ġà¤Ī à¤²à¤®
Ġà¤ľà¤Ĺ à¤¤à¤°
Ġà¤°à¤¤à¤¨ à¤Ĺà¥Ŀ
Ġà¤°à¤£ à¤ķà¤ª
à¤¤ à¤¹à¤¸
Ġà¤ķà¤° à¤Ľà¤¨
Ġà¤īà¤¦ à¤¯à¤ķ
Ġà¤ķà¤° à¤ļ
à¤£ à¤¯à¤¨
Ġà¤¨à¤¹ à¤Ł
Ġà¤ıà¤¸ à¤Ĩà¤°à¤¸
Ġà¤¿ à¥Ģ
Ġà¥¨à¥« à¥¬
à¤® à¤Ķà¤°
Ġà¤ħ à¥Ľà¤²
à¤¯à¤ķ à¤¥
à¥ĺà¤¤ à¤µà¤°
Ġà¤Ī à¤ıà¤¸à¤¸
à¤§à¤ķ à¤¥
Ġà¤ªà¤¨ à¤¹
Ġà¤¨à¤ķà¤² à¤µ
Ġà¤¤ à¤µà¤²
Ġà¤Ĺ à¤¹à¤¤
Ġà¤Ķà¤° à¤Ĺ
à¤ĸ à¤®à¤¨
à¤ĩà¤ªà¤° à¤ıà¤ķ
à¤Ĺà¤Ń à¤Ł
à¤¤ à¤µà¤¸
à¤ª à¤ļà¤ķ
à¤¯ à¤Łà¤²
Ġà¤¬à¤ĩ à¤łà¤ķ
à¤ķ à¤¹à¤¨
Ġà¤¬à¤° à¤Ĺà¤¢
Ġà¤¶à¤¹à¤° à¤¦
Ġà¤ıà¤¨ à¤Ĩà¤°à¤ĵ
à¤¶ à¥Ļà¤¬à¤°
à¤¨à¤° à¤Ī
Ġà¤ıà¤² à¤ıà¤¸à¤¡
Ġà¤ıà¤¨à¤Ĩà¤° à¤Ī
à¤¨ à¤¯à¤ª
Ġà¤µ à¤°à¤¤
Ġà¤Ĩà¤« à¤¸
Ġà¥ļà¥Ľ à¤²à¤ķ
à¤Ĺ à¤¸à¤¨
Ġà¤Ĭ à¤¸
à¤Ł à¤ĺà¤°
Ġà¤ħà¤ªà¤¨ à¤½
Ġà¤ĳà¥ŀ à¤°
Ġà¤¸ à¤¸à¤ª
à¤¤ à¤¦à¤°
Ġà¤ķà¤° à¤°
à¤°à¤ľ à¤¤
à¤¹ à¤Ī
Ġà¤ħà¤¨ à¤ĺ
Ġà¤¤ à¤¶à¤¦
à¤Ī à¤īà¤¨
Ġà¤ıà¤¨ à¤ıà¤ª
à¤¢ à¤©
Ġà¤¸à¤¹ à¤ľà¤¯
à¤°à¤ľ à¤Ĺ
Ġà¤¸à¤ľ à¤ķà¤°
Ġà¤ľà¤ĸ à¤®
à¤± à¤£
à¤¬à¤Ī à¤µ
à¥Ĥà¥Ĥ à¥Ĥ
Ġà¤« à¤²à¤®
à¤¤à¤¨ à¤²
Ġà¤¬à¤¤ à¤ķ
Ġà¤ĺà¤° à¤ĺ
à¤¥ à¤°à¤µ
Ġà¤Ń à¤¤à¤°
à¤· à¤°à¤Ĺ
à¤¯à¤² à¤ľ
Ġà¤ıà¤ļ à¤ıà¤®à¤Ĩà¤Ī
à¤®à¤¨ à¤ĸ
Ġà¤¹ à¤¸à¤²
Ġà¤¶ à¤Ń
Ġà¥§à¥« à¥¯
Ġà¤ĵ à¥Ľ
à¤ıà¤¨ à¤Ĩà¤°à¤¸
Ġà¤Ŀà¤Ł à¤ķà¤¤
à¤® à¤¦à¤¨
à¤Ĺ à¤µà¤¨
Ġà¤ħ à¤Ĺà¤¤
à¤°à¤¤ à¤¶à¤¹à¤°
Ġà¤ªà¤°à¤® à¤¸à¤¤
Ġà¤Ĺ à¤ľà¤¸
Ġà¤Ľà¤Ĺ à¤¨à¤²
à¤ķ à¤¶à¤¤
Ġà¤¦ à¤½
à¤¯à¤¨ à¤ļ
à¤ĺ à¤²à¤ķà¤°
Ġà¤¸à¤¦ à¤«
Ġà¤¹à¤² à¤¦à¤°
Ġà¤¸à¤Ĩà¤¦à¤¤ à¤Ĺ
à¤ķ à¤½
Ġà¤ıà¤¨à¤Ĩà¤Ī à¤ıà¤ļ
Ġà¤° à¤µà¤°
à¤°à¤ª à¤¹à¤²
à¤§ à¤Ĺà¤²à¤¨
à¤°à¤ĸ à¤®
à¤¯à¤£ à¤ķ
à¤¥à¤² à¤§
Ġà¤ıà¤¸à¤ıà¤«à¤Ĩà¤Ī à¤ĵ
Ġà¤ķ à¤ĸ
Ġà¤ĳ à¤°à¤µ
à¤Łà¤² à¤Ĺ
à¤Ĭ à¤Ĩ
Ġà¤īà¤² à¤Łà¤¤
à¤µ à¤¶à¤¨
à¤¨ à¤°à¤¹
Ġà¤¯ à¤ķà¤°
à¤Ĩ à¤¬à¤°
à¤·à¤£ à¤ª
Ġà¤īà¤² à¤Ĺ
à¤ĩà¤² à¤§à¤°
à¤µà¤£ à¤Ĺ
Ġà¤¸à¤® à¤ªà¤¨
à¥« à¥®
à¤¯ à¤¯à¤®
à¤¯ à¤Ĩà¤ªà¤ķ
Ġà¤ī à¤µà¤°
à¤¤à¤° à¤ľà¤¨à¤ªà¤¦
à¤°à¤¨à¤Ĺà¤° à¤¸
Ġà¤²à¤ķà¥ľ à¤¹
Ġà¤¯ à¤²à¤Ĺ
Ġà¤¤à¤² à¤ĺà¤°
Ġà¤²à¤¹ à¥Ľ
à¤¶à¤¹à¤° à¤®à¤¨
à¤ı à¤Īà¤¬
à¤ļà¤² à¤īà¤¤
à¤¯ à¤µà¤²
Ġà¤ĺà¤° à¤ªà¤°
à¤¤à¤ķà¤° à¤¨
Ġà¤¡ à¤²à¤¨
à¤¯à¤ķ à¤Ĺà¤£
à¤¨à¤ª à¤Ł
Ġà¤ıà¤« à¤ķ
Ġà¤ıà¤ķ à¤ª
à¤Ľ à¤²à¤¤
Ġà¤®à¤¸ à¤Ĭà¤¦
Ġà¤ıà¤®à¤ıà¤® à¤ľ
à¤ĸ à¤Ī
à¤µà¤° à¤Ń
à¤¨à¤µ à¤¦
à¤¾à¤ģ à¤Ĥ
Ġà¤ĵ à¤īà¤®
à¤ıà¤¨ à¤Ī
à¤¿ à¤¾à¤Ĥ
à¥Ĥ à¥ģ
Ġà¤ĩà¤ķà¤Ł à¤ł
à¤° à¤ħà¤²
à¤£ à¤¹à¤¤
Ġà¤¬à¤¹ à¤ķà¤¤
à¤°à¤µ à¤¹
Ġà¤¸à¤ķ à¤³
à¤²à¤° à¤«à¤¨
à¤¹à¤² à¤ļà¤²à¤ª
Ġà¤ıà¤¸à¤ı à¤¸à¤ķ
à¤µ à¤®à¤¤
Ġà¤µ à¤¡à¤Ĺ
Ġà¤ĳ à¤¨à¤Ł
à¤ıà¤¸ à¤ĩ
à¤ıà¤ı à¤ıà¤¸
à¤¬à¤ľ à¤Łà¤«
Ġà¤ı à¤ıà¤«à¤Ĩà¤Ī
Ġà¤Ĩà¤µ à¤¡
Ġà¤ıà¤® à¤ıà¤¨à¤ª
Ġà¤ıà¤ļ à¤ıà¤²à¤ıà¤²
Ġà¥§à¥§ à¥®
à¥ģà¥ģ à¥ģà¥ģ
Ġà¤ĩ à¤ĸà¤²
à¤¬ à¤¨à¤²
à¤Ĺà¤® à¤¹à¤²
à¤ŀ à¤¦à¤¤
Ġà¤ļà¤° à¤°
Ġà¤ħà¤¹à¤®à¤¦ à¤¶
Ġà¤ıà¤®à¤ıà¤® à¤Ĩà¤°
Ġà¥§à¥Ń à¥¯
Ġà¤Ńà¥ľ à¤ķà¤¤
Ġà¤Ń à¤¹
à¤®à¤² à¤¹à¤°
Ġà¤īà¤¦ à¤Ń
à¤ĩà¤« à¤¬
à¤Ĺ à¤ĺà¤°
Ġà¤ľà¤¨ à¤ªà¤°
à¤¦ à¤¦à¤¤
Ġà¤« à¤¹à¤¦
Ġà¤ľà¤° à¤¹
Ġà¤®à¤° à¤Ĺ
à¤¨à¤¦ à¤ķ
Ġà¤®à¤¦à¤¨ à¤¸
à¥ľà¤ķ à¤ķà¤°
à¤ķ à¤·à¤£
à¤¸ à¤¤à¤¨
à¤Ī à¤ªà¤Ł
Ġà¤¨ à¤¥à¤¨
à¤ĩà¤ķ à¤®
Ġà¤«à¥ľ à¤¨à¤µ
à¤ª à¤Īà¤¡
à¤¯à¤ķ à¤ķ
Ġà¥§à¥Ń à¥®
à¤ª à¤¬à¤°
Ġà¤ī à¤ĭà¤£
Ġà¤ıà¤® à¤Ĩà¤°à¤ıà¤«
Ġà¤ħà¤¦ à¤ľ
à¤£ à¤¨à¤¨
Ġà¤¸à¤® à¤¹
Ġà¤²à¤ĸ à¤Łà¤ķ
Ġà¤ĩ à¤¶à¤°
Ġà¤¸à¤® à¤ľà¤¨
Ġà¤¬ à¤Ŀ
Ġà¤Ķ à¤¶
à¤°à¤® à¤Ĭà¤®
à¥Ļ à¤®
Ġà¤ª à¤Īà¤¸
Ġà¤ħ à¤®à¤¤
à¤ĸ à¤°à¤¸
Ġà¤¸à¤®à¤¸ à¤ª
Ġà¤ı à¤Ĩà¤ĩ
Ġà¤¨à¤Ĺà¤° à¤ħà¤®
Ġà¤¨à¤Ĺà¤° à¤¸à¤¹
à¤® à¤¶à¤²
à¤² à¤ıà¤ļà¤¡
Ġà¤¸à¤®à¤¯ à¤ļà¤ķ
à¤½ à¤Ń
à¤Ĺà¤ªà¤¤ à¤¶
à¤¦à¤¶à¤¹à¤° à¤¹
Ġà¤ªà¤² à¤®
à¤® à¤°à¤µ
à¤ĩà¤ļ à¤«
Ġà¤¬à¤¹ à¤ľ
Ġà¤ªà¤µà¤¨ à¤®
à¤¥à¤¨à¤Ĺà¤° à¤¬
Ġà¤ªà¤¦ à¤¬
à¤°à¤ł à¤Ĩà¤Ĺà¤°
à¤¸ à¤Ńà¤ķ
à¤ı à¤ķà¤²à¤Ł
à¤Ī à¤ķà¤°à¤£
Ġà¤ľà¤° à¤¥
à¤ħ à¤ĸà¤¬
à¤¥à¤°à¤¸ à¤ħà¤®à¤°
à¤¹ à¤¸à¤¨
à¤¯ à¤ĩ
à¤Ŀ à¤Łà¤ķ
Ġà¤ªà¤°à¤® à¤¸
Ġà¤ĭ à¤¤à¤®
Ġà¤¹à¥Ľ à¤®
Ġà¤ĸà¤°à¤¬ à¤ªà¤¤
à¤² à¤¡à¤¨
Ġà¤ħà¤¨ à¤ķà¤²
à¤µà¤¨ à¤§
Ġà¤®à¤¨ à¤ĩà¤¯à¤¨
à¤§ à¤®à¤¤
Ġà¤Ĳ à¤¥
à¤§ à¤¯à¤®
à¤Ī à¤«à¤²
Ġà¤Ĳ à¤¹à¤¸
à¥Ĥà¤Ĥ à¤Ĥ
Ġà¤ľà¤¬ à¤°à¤¦
à¤¬ à¤ľà¤°
Ġà¤¹à¤° à¤ıà¤ķ
Ġà¤ħà¤ªà¤° à¤¹à¤£
Ġà¤¦ à¤ĩ
Ġà¤¸à¤« à¤¦à¤°à¤Ĺ
Ġà¤ħ à¤¤à¤ķ
Ġà¥§à¥¯à¥© à¥«
Ġà¤¸ à¤¦à¤µ
à¤¦ à¤ħà¤¨
à¤¦à¤Ń à¤Ń
Ġà¤ķà¤¨à¤ķ à¤¨
Ġà¤ķà¤Łà¤ķ à¤®à¤¸
Ġà¤¨à¤¬ à¤µ
à¤¬ à¤ªà¤¤
Ġà¤¸à¤¤ à¤¸à¤Ī
à¤ķ à¤µà¤ļ
Ġà¤µ à¤Ĺà¤°
Ġà¤ªà¤¸ à¤°à¤¤
à¤Ĩà¤Īà¤ı à¤ıà¤¸
Ġà¤ħà¤¸à¤° à¤«
Ġà¤ªà¤Ļ à¤¤
à¤¬ à¤¦à¤®
Ġà¤¶à¤° à¤¨
à¤¸ à¤ıà¤¨
Ġà¤¤ à¤ħà¤²
Ġà¤ħà¤¨ à¥ĺà¤°
Ġà¤®à¤¨ à¤²
Ġà¥ĺà¤¤ à¤Ī
à¥ĥ à¥Ģ
Ġà¤Ľ à¤¯
à¤¯à¤° à¤¸à¤¨
Ġà¤¸à¤¹ à¤§à¤°
à¤¹à¤¨ à¤Ł
Ġà¤« à¤¸à¤¨
Ġà¤ıà¤® à¤ıà¤¸à¤ıà¤¸
Ġà¤¦ à¤¸à¤²à¤°
Ġà¤¸à¤¹ à¤µà¤°
à¤·à¤£ à¤¯
Ġà¤ħà¤° à¤²
à¤®à¤¦ à¤¦
à¤¨ à¤«à¤°
à¤¹ à¤¯à¤¤
Ġà¤ĩà¤¯à¤° à¤¬à¤¡
à¤¬ à¤ı
Ġà¤īà¤¨ à¤µ
Ġà¤ĵ à¤¸à¤®
à¤¸ à¤ĩà¤¨
à¤Ĩ à¤¯à¤¤
Ġà¤ķà¤¦ à¤®à¤ķ
Ġà¥§à¥§ à¥Ń
à¤° à¤¸à¤°à¤£
Ġà¤¤ à¤¨à¤¸
Ġà¤ıà¤¸ à¤Ĩà¤°à¤Ł
à¤Łà¤« à¤Ł
Ġà¤ıà¤¨ à¤Ĩà¤Īà¤µ
à¤°à¤ĸ à¤Ĺà¤¡
à¥ģ à¥ĩ
à¤Ĭ à¤ª
Ġà¤¨à¤µà¤°à¤¤ à¤¨
à¤µà¤ĺ à¤°à¤¦
à¤¬à¤¹ à¤¸
à¤ľ à¤¯à¤¤
Ġà¤ħ à¤¶à¤¨
à¤ĸ à¤Łà¤ķ
à¤ĩ à¤Ľ
Ġà¥ŀ à¤²à¤¸
à¤Ĩ à¤ªà¤¦
Ġà¤Ńà¥ľ à¤ķà¤¨
Ġà¤¬à¤ļ à¤µ
à¤¨à¤¸ à¤¸
à¤°à¤° à¤¥
à¤ļ à¤ªà¤°
à¤« à¤¬à¤ķ
Ġà¤ħà¤ª à¤¦
Ġà¤ľà¤² à¤Ń
à¤°à¤¶ à¤°à¤£
à¤¨ à¤ķà¤°à¤£
à¤¤à¤µ à¤ķ
à¤¸à¤¹ à¤¯
Ġà¤ıà¤Ĩà¤Ī à¤Ĩà¤Īà¤¬
Ġà¤ıà¤®à¤Ĩà¤Ī à¤¯
à¤Ī à¤ĩ
à¤« à¤²à¤¸
à¤¸à¤° à¤Ľà¤ªà¤°
Ġà¤ĳ à¤°à¤Ĺ
à¤¦à¤¨ à¤ªà¤¤
Ġà¤ıà¤² à¤ıà¤«
Ġà¤ķà¤ķ à¤¯
Ġà¤Ĩà¤Ĺà¤° à¤ķà¤°
à¤¶ à¤µà¤¤
à¤ļ à¤²à¤µ
Ġà¤§ à¤µà¤¸
Ġà¤ħà¤« à¤¶
à¤¯à¤¬ à¤ĺà¤°
Ġà¤«à¤Ł à¤ķà¤¤
à¤²à¤¦à¤° à¤Ń
Ġà¤ķ à¤¡à¤²
à¤¡à¤² à¤¬à¤°
Ġà¤ħà¤¹ à¤®à¤ķ
Ġà¤¸à¤¹ à¤¶
à¤°à¤ľ à¤ĺ
Ġà¥Ľ à¤ľ
Ġà¤· à¤¦
à¥ª à¥¯
Ġà¥¨à¥« à¥¦à¥¦
à¤¨ à¤°à¤¤
à¤ħ à¤µà¤¸
Ġà¤ıà¤ķ à¤ıà¤ķ
à¤®à¤¨ à¤Ł
Ġà¤Ĺà¤¤ à¤µà¤°
Ġà¤Ńà¤Ĺ à¤¤à¤°
à¤ªà¥ľ à¤ªà¤Ł
à¤¿ à¥ĥ
Ġà¤ļà¤° à¤¥
à¤¨à¤Ĺà¤° à¤īà¤¤
à¤ļà¤µ à¤¡
Ġà¤Ĩà¤ĩ à¤Ĩà¤ĩà¤ıà¤®
à¤¬ à¤¤à¤¨
à¤¼ à¤¼à¥ģ
à¤Ĺà¤° à¤¦
Ġà¤Ŀ à¤µà¤²
Ġà¤Ĩà¤ĩà¤ı à¤ıà¤¨à¤ıà¤¸
Ġà¤¤ à¤¹à¤¦
Ġà¤ķà¤Ł à¤¹à¤°
Ġà¤Ķ à¤ľà¤²
à¤Ł à¤ĳà¤«
à¤ªà¤ķ à¤®à¤²
Ġà¤¬ à¤Łà¤®
à¤ľ à¤µà¤¤
Ġà¤ħ à¤ķà¤¤
Ġà¤ıà¤² à¤ıà¤®à¤Ĩà¤°à¤¸
à¤ħà¤ª à¤¡
à¤± à¤«
Ġà¤ıà¤¨à¤Ī à¤Ĩà¤°
à¤¦ à¤¹à¤¨
à¤ī à¤ªà¤µ
à¤ªà¤² à¤ļ
Ġà¤ķ à¤¯à¤¤
Ġà¤¸ à¤ĩà¤¯
à¤µà¤° à¤ļà¤®
Ġà¤ıà¤¸à¤Ĩà¤° à¤ıà¤¨
Ġà¤Ĭ à¤ªà¤ľ
à¤°à¤®à¤£ à¤®
Ġà¥§à¥Ń à¥Ń
Ġà¤Ĩà¤ª à¤Ł
à¤¬à¤° à¤°
à¤ķà¤°à¤£ à¤®
à¤ıà¤¸à¤ıà¤® à¤Ł
Ġà¥§à¥¨ à¥¯
Ġà¤ķ à¤ľà¤¨
à¤¨ à¤ļà¤ķ
à¤²à¤° à¤°
à¥ĺ à¤¨
Ġà¤¬à¤°à¤¤ à¤ķà¤°
à¥Ī à¤¿
Ġà¤¦ à¥Ļà¤²
à¤¸à¤¨à¤Ĺà¤° à¤¹à¤°
Ġà¤¨ à¤Ĺà¤¡
Ġà¤¶à¤°à¤¦ à¤ª
à¥ľ à¤ķà¤¤à¤°
à¤ľà¤° à¤¹
à¤ĺ à¤µà¤¦
à¤Łà¤¨ à¤µ
Ġà¤īà¤¦ à¤¯à¤²
à¤Ĥ à¥ĥ
Ġà¤² à¤¹à¤ķ
Ġà¤ĸ à¤Łà¤¤
Ġà¤²à¤¡ à¤Ńà¥ľ
à¤¹ à¤¨à¤®
Ġà¤Ĳ à¤ł
Ġà¤ªà¤µà¤¨ à¤¸
à¤ł à¤¤à¤°
Ġà¤Ĩà¤ĩà¤ıà¤¸à¤Ĩà¤ĩ à¤ıà¤¸
à¤° à¤ĩà¤¸
Ġà¤¡ à¤ķà¤°
Ġà¤ĳ à¤¨à¤ķ
Ġà¤µà¤ķ à¤ª
Ġà¤Ĩà¤° à¤ıà¤ª
à¤ķà¤¸ à¤µ
à¤¦à¤® à¤ł
à¤ĭ à¤·à¤Ń
à¤¨ à¤¹à¤¤
Ġà¤ľà¤µ à¤³
Ġà¤ľà¤¨à¤¸ à¤¹à¤Ń
à¤µà¤¸ à¤¸
à¤¸à¤µ à¤§à¤°
Ġà¤¹ à¤Ń
à¤¾à¤Ĥ à¥ĩà¤Ĥ
Ġà¤¸à¤¹ à¤Ĺ
à¤³ à¤²
Ġà¤¸à¤¦à¤° à¤ª
Ġà¤ĸà¤¡ à¤ķ
à¤¤à¤° à¤®à¤¨
Ġà¤ĳ à¤²à¤¸
Ġà¤ĸà¤¡ à¥ļ
Ġà¤Ńà¤°à¤¤ à¤¸
Ġà¤Ķà¤° à¤¬
à¤ķà¤¬ à¤§
Ġà¤ĩà¤¨ à¤¸à¤¬
Ġà¤¸à¤² à¤«
à¤ķ à¤Ļ
à¤µ à¤²à¤¯
à¤Ĺ à¤Ĺà¤ľ
Ġà¤°à¤¹ à¤Ł
Ġà¤ĳà¤¨ à¤ıà¤¯à¤°
à¤¤ à¤¹à¤Ł
à¤² à¤µà¤²
Ġà¤Ĺ à¤¨à¤ª
Ġà¤µà¤¨ à¤Ĺà¤®à¤¨
à¤ª à¤®à¤°
à¤Ł à¤ªà¤Ł
à¤µà¤¤ à¤¶
Ġà¥§à¥§ à¥¦à¥¦
à¤Ł à¤§à¤°
à¤¼à¥ĩ à¥ĩ
à¤¤à¤ķ à¤ķ
Ġà¤ªà¤² à¤ªà¤²
à¤¦ à¤ı
Ġà¤ħ à¤Īà¤¸
à¤ĵ à¥Ľ
Ġà¤µà¤ļà¤¨ à¤ªà¤¤
Ġà¤§ à¤§
à¤§à¤µ à¤Ĺà¥Ŀ
Ġà¤«à¤² à¤ª
à¤ª à¤Ĺà¤¤
Ġà¤¨ à¤²à¤¬
Ġà¤ķà¤°à¤¨ à¤µ
à¤ĵ à¤ĩà¤¡
Ġà¤¦à¤¶ à¤¹à¤¤
à¤® à¤īà¤¤
Ġà¤ªà¤° à¤¸à¤µ
Ġà¤¬à¤¤ à¤µà¤²
Ġà¤ĳà¤² à¤Ł
Ġà¤¸ à¤ªà¤ķ
à¤¡ à¤¹à¤²
à¤¥ à¤°à¤®
à¤®à¤ķ à¤¨
Ġà¤¨à¤µ à¤ķà¤°à¤£
Ġà¤ķà¤¨ à¤¹à¤°
à¥ŀ à¤Ł
Ġà¤° à¤®à¤¸
à¤Ĩ à¤ĩà¤¬
à¤¨ à¤īà¤¤
à¤¸à¤² à¤¸
à¤¸ à¤¸à¤°
à¤« à¤¶
Ġà¤Ĺ à¤ĩà¤¨
à¤¹à¤¸ à¤ļ
Ġà¤Ĺà¥Ŀ à¤ļ
à¤ķ à¤Ĩ
à¥į à¥ĥ
Ġà¤¬à¤¦ à¤Ĺ
à¤¥ à¤ĺà¤°
Ġà¤īà¤ª à¤¶à¤®à¤¨
Ġà¤Ĳ à¤łà¤¨
à¤¬à¤° à¤Ĺ
Ġà¤Ĩà¤°à¤ıà¤« à¤ª
à¥į à¤¾à¤¿
à¤¨à¤µ à¤§
à¤¶à¤® à¤¹à¤²
Ġà¤¤à¤¡ à¤ªà¤¤
à¤¨ à¤Ľà¤¤
à¤µ à¤¯à¤°
Ġà¤¸à¤² à¤Ł
à¤ıà¤« à¤ıà¤®à¤ıà¤¸
Ġà¤§à¤¨ à¤ĺà¤Ł
à¥ļ à¤ľ
Ġà¥§à¥¯à¥¨ à¥¨
à¤¶à¤¨ à¤ķà¤°
à¤ķ à¤¶à¤°
à¤® à¤¤à¤¨à¤Ĺà¤°
Ġà¤¸ à¤µà¤¸
Ġà¤¸ à¤Īà¤¯
Ġà¤¯ à¤Ń
Ġà¤µ à¤¨à¤¦
Ġà¤ĸ à¤¦à¤°
Ġà¤£ à¤µ
à¤ħ à¤¥
à¤ľ à¤Ĺà¤°
à¤¨à¤® à¤¹
Ġà¥§à¥¯à¥¨ à¥¯
Ġà¤² à¤µà¤ª
à¤Łà¤² à¤«
Ġà¤¤à¤¡ à¥ĺ
Ġà¤¬à¤°à¤¦ à¤¹
Ġà¤ıà¤¨à¤ıà¤« à¤ıà¤¸à¤ı
Ġà¤ıà¤« à¤ıà¤¨
Ġà¤¤ à¤®à¤²
à¤ļ à¤¤à¤¨
Ġà¤¬à¤¨ à¤µà¤²
Ġà¤ıà¤¸ à¤ıà¤®à¤¬
Ġà¤ķà¤°à¤£ à¤ľ
à¤®à¤Ń à¤Ł
Ġà¤²à¤« à¥ľ
Ġà¤¤à¤ķ à¤«
Ġà¤µà¤¨ à¤ªà¤°
à¤Ĺà¤¡ à¤ķà¤°
à¤Łà¤Ł à¤Ĺ
à¤Ł à¤ķà¤¤
Ġà¤¤ à¤Ĩà¤µ
à¤Ĺà¤ľ à¤¬
à¤°à¤ĺ à¤£
Ġà¤Ĩà¤°à¤ĵ à¤ıà¤ļà¤ıà¤¸
Ġà¤¬ à¤¯à¤¨
Ġà¤ħ à¤ĩà¤¹
à¤¨à¤° à¤ª
à¤¸à¤¹ à¤®à¤¤
à¤ľ à¤Ńà¤ķ
Ġà¤Ĩà¤° à¤ıà¤®à¤ĵ
Ġà¥§à¥§ à¥ª
Ġà¤ī à¤ĺà¤¡
Ġà¤Ĳ à¤²à¤°
Ġà¤ħà¤² à¥ŀ
à¤Ĺà¤µ à¤¦
Ġà¤¸ à¤Ľ
à¤Ł à¤®à¤ķ
à¤²à¤® à¤¹
Ġà¥§à¥Ń à¥«
à¤¹à¤° à¤ªà¤¬
Ġà¤ıà¤¸ à¤ıà¤¸à¤ıà¤¸
à¤®à¤Ł à¤¹à¤²
Ġà¤« à¤°à¤¯
Ġà¥§à¥§ à¥¬
à¤¤ à¤īà¤¤
à¤ı à¤ıà¤®à¤ıà¤®
à¤ľ à¤¹à¤¤
à¤£ à¤Ńà¤ķ
à¤²à¤µ à¤®
Ġà¤ªà¥Ŀ à¤²
Ġà¤Ĺà¥ľà¤¬à¥ľ à¤Ŀ
à¤¦ à¤µà¤²
Ġà¤ĩ à¤ı
à¤¬à¤¦ à¤²à¤¤
Ġà¤Ĩà¤Īà¤ıà¤® à¤ľ
à¤Ń à¤°à¤¨
Ġà¤Ĩà¤° à¤ıà¤²à¤ª
Ġà¤īà¤¦ à¤§
à¤ļà¤° à¤ıà¤ķ
Ġà¤ıà¤« à¤ıà¤¸à¤ı
à¤¨à¤¹ à¤Łà¤¨
Ġà¤Ĩà¤« à¤ľ
Ġà¤ī à¤ĸà¤°
Ġà¤ıà¤¨ à¤Ĩà¤Īà¤Ĩà¤Ī
à¤ľ à¤¯à¤²à¤²
Ġà¤ĺ à¤ķ
Ġà¤Ĩ à¤Ĺà¤²
Ġà¤¯ à¤®à¤ª
Ġà¤« à¤¦
Ġà¤Ľ à¤¨à¤¨
Ġà¤Ŀ à¤Ĺà¤°
Ġà¤¡à¤ķ à¤¯à¤°
Ġà¤¹ à¤²à¤¬
Ġà¤ķà¤° à¤ı
à¤ªà¤° à¤¬à¤Ĺ
Ġà¤® à¤Ĺà¤²
à¤ĸ à¤ı
Ġà¤ļà¤¢ à¥ĺà¤°
Ġà¤ıà¤®à¤ıà¤® à¤ıà¤²
Ġà¤¸ à¤ĺà¤°
Ġà¤® à¤Ĩà¤¶
Ġà¤ħ à¥Ŀ
Ġà¤§ à¤¨à¤®
à¤¤à¤® à¤ľ
Ġà¤¶ à¤ł
à¤¨ à¤¬à¤¤
à¤§à¤µ à¤ľ
Ġà¤ª à¤¥à¤ķ
à¤ķ à¤Ĩà¤°
Ġà¤¸ à¤§à¤¤
Ġà¤ħà¤Ī à¤¸à¤¨
Ġà¤ĩ à¤Łà¤ķ
à¤ĸ à¤¥
Ġà¤Ĭ à¤¬à¥ľ
à¤ıà¤¨ à¤ıà¤ļà¤¸
à¤® à¤£à¤¨
Ġà¤Ĩ à¤µà¤¨
Ġà¤¯ à¤ĸ
à¤§à¤ķ à¤ķ
à¤® à¤Ķà¤¤
Ġà¤ĺ à¤µ
Ġà¤ħà¤¬ à¤¶
Ġà¤¯ à¤µà¤ķ
à¤µ à¤ļà¤°
Ġà¤ĵ à¤ĩà¤¸
à¤¨à¤° à¤°
Ġà¤ıà¤¨ à¤Ĩà¤ĩà¤Ł
Ġà¤īà¤ĸ à¥ľà¤¨
Ġà¤Ĺà¤£ à¤§à¤°
Ġà¤ķà¤² à¤°à¤¬
à¤ıà¤² à¤ıà¤¸à¤ı
à¤¨ à¤¬à¤¹
Ġà¤ķà¤® à¤ļ
Ġà¤¸ à¤Ļà¤ķ
Ġà¤īà¤¦ à¤²
Ġà¤ıà¤ĵ à¤ıà¤²
à¤® à¤µà¤²
à¤Ī à¤ıà¤¸à¤Ī
à¤¡à¤¬ à¤Ĺ
à¤¸ à¤ıà¤¬
Ġà¤ľà¤² à¤ĺà¤°
Ġà¤Ĩà¤Ĩà¤Ĩ à¤Ĩ
Ġà¥§à¥¯à¥¨ à¥Ń
à¤¤ à¤¹à¤®
Ġà¤¦ à¤ľà¤°
Ġà¤« à¤Łà¤«à¤Ł
Ġà¤ķà¤®à¤²à¤¨ à¤¯à¤¨
à¤° à¤ŀ
Ġà¥§à¥¯ à¥¦à¥¦
à¤®à¤Ĩ à¤ªà¤¤
à¤¨ à¤°à¤¨
à¤¤à¤¨ à¤ľ
Ġà¤Ŀ à¤¡à¤ª
à¤ħ à¤²à¤¬
Ġà¤² à¤ī
Ġà¤ľ à¤°à¤ķ
Ġà¤µ à¤¦à¤°
à¤¯à¤® à¤®
à¤² à¤¡à¤ķ
Ġà¤ Ħ
à¤ķà¤° à¤Ĺà¤¢
à¤ªà¤° à¤µà¤°
à¤° à¤ĸà¤¤
Ġà¤¸ à¤°à¤®à¤¨
Ġà¤ļ à¤ļà¤°
Ġà¤¡ à¤°à¤®
Ġà¤Ĩ à¤¥à¤°
Ġà¤ıà¤¨ à¤Ĩà¤Īà¤ª
à¤« à¤¨à¤°
Ġà¤Ŀ à¤®à¤ķ
à¤° à¤¨à¤®
à¥ĩ à¥Īà¤Ĥ
à¤¨ à¤Ĩà¤°
à¤ł à¤ĸ
Ġà¤¯à¤¶ à¤µà¤°
à¤¹ à¤ĸ
Ġà¤Ńà¤¯ à¤Ĺ
à¤ĸ à¤ĩà¤¤
Ġà¤¸à¤® à¤¦à¤¡
à¤¤ à¤Ĺà¥Ŀ
Ġà¤ı à¤ıà¤ª
à¤¹à¤° à¤Ĺà¥Ŀ
Ġ à¥Īà¤Ĥ
Ġà¤¸ à¤ļà¤°
Ġà¤®à¤¦ à¤ķ
Ġà¥§à¥ª à¥©
Ġà¤¯ à¤°à¤®
à¥į à¥ĩà¤¾
à¥ĩà¤Ĥ à¥į
Ġà¤§à¤¨ à¤§
à¤Ĩà¤° à¤Ĩà¤ĩ
à¤ªà¤¨ à¤ķà¤°
Ġà¤¸à¤° à¤¥
à¤¡ à¤Ĩà¤ªà¤ķ
Ġà¤§ à¤²
à¥¬ à¥¦à¥¦
Ġà¤ľà¤° à¤Ĺà¤°
Ġà¥§à¥ª à¥®
à¤ª à¤¦à¤®
Ġà¤ī à¤ľà¤®
Ġà¤ıà¤¨ à¤Ĩà¤Īà¤¡
Ġà¤Ĺà¤£ à¤ª
Ġà¤īà¤¨ à¤ļ
Ġà¤Ĺ à¤²à¤ķà¤°
à¤Ńà¤«à¤² à¤¦
Ġà¤¶à¤° à¤Ń
Ġà¤Ī à¤ĵà¤ıà¤¸
Ġà¤ļà¤¬ à¤µ
à¤¥ à¤¨à¤®
à¤ıà¤« à¤ıà¤¸à¤ıà¤²
Ġà¤®à¤¸à¤² à¤ķ
à¤¶ à¤®à¤£
à¤¡ à¤Ĺà¥Ŀ
Ġà¤¤ à¤Ĺà¤°
Ġà¤Ī à¤®à¤²
Ġà¤¸à¤ļ à¤ĸ
à¤°à¤Ĺ à¤£à¤ķ
Ġà¤¬ à¤¸à¤ķ
à¤¬ à¤¸à¤°
à¤¸à¤° à¤°
Ġà¤Ĩà¤Ī à¤ıà¤ļà¤ıà¤¸
Ġà¥§à¥¨ à¥Ń
Ġà¤¨à¤ľà¤« à¤Ĺà¥Ŀ
à¤¯ à¤¡à¤¸
à¤· à¤¹à¤°
Ġà¤®à¤¨ à¤¸à¤µ
à¤®à¤¯ à¤ľ
Ġà¤¹à¤¨ à¤«
Ġà¤¶ à¤¯à¤¦
Ġà¤¹à¤® à¤µ
Ġà¥§à¥¯à¥© à¥Ń
à¤Ī à¤µà¤²
à¤®à¤µà¤° à¤ľ
à¤Łà¤²à¤° à¤¶
Ġà¤ıà¤¸à¤ı à¤²à¤¬
à¤² à¤°à¤¦
à¤¢ à¤¡
Ġà¤ĳ à¤Ĺà¤®
à¤¨à¤µ à¤ľà¤¨
à¤¤à¤µ à¤ľ
à¤¹ à¤Ŀ
Ġà¤ª à¤¸à¤¦
à¤¯à¤® à¤¬à¤¦
Ġà¤ªà¤¦ à¤®à¤¸
à¤¨ à¤¨à¤ķ
Ġà¤ĩ à¤¤à¤ķ
à¤ıà¤¸à¤Ĩà¤Ī à¤ıà¤¸
Ġà¤¸à¤¬ à¥ĺ
Ġà¤ľà¤Ĺ à¤ªà¤¤
à¤° à¤ıà¤²
à¤ķà¤® à¤Ĺà¤²
Ġà¤ĩà¤¸ à¤¤
Ġà¤ĵ à¤¹à¤®
Ġà¤ħà¤ª à¤ķà¤°
Ġà¤Ĺ à¤ľà¤®
Ġà¤¬à¤°à¤ķà¤¤ à¤īà¤²
Ġà¤¸ à¤µà¤¤
à¤µ à¤ĩà¤¨
Ġà¤ªà¤° à¤ĸà¤ķà¤°
à¤µà¤µ à¤¶
à¤ª à¤Īà¤¯
Ġà¤Ķ à¤ªà¤°
à¤°à¤¤à¤¶à¤¹à¤° à¤¦
Ġà¤®à¤¹ à¤°à¤®
à¤¯à¤° à¤īà¤¤
à¤°à¤¹à¤£ à¤ķ
Ġà¤¶ à¤¡
à¤¯à¤¨ à¤Ĺ
Ġà¤¬à¤°à¤¤ à¤°
à¤· à¤¡
Ġà¤ĩà¤¸ à¤¦
Ġà¤²à¤ĸ à¤¬
Ġà¤¸à¤° à¤ĸ
Ġà¤ı à¤ıà¤®à¤ıà¤²
à¤Ī à¤¸à¤ļ
à¤¦à¤¨ à¤Ĺ
à¤¤à¤ķ à¤£
Ġà¤ıà¤¨ à¤ıà¤Ł
Ġà¤®à¥Ľ à¤®
Ġà¤ľ à¤Ļ
Ġà¥§à¥« à¥©
Ġà¤ķ à¤Ľà¤²
à¤¤à¤° à¤¶
à¤Ĩ à¤¡à¤µ
Ġà¤ī à¤¦à¤¨
Ġà¤ħà¤¬ à¤§
à¥Ŀ à¤Ĺ
à¤°à¤¯ à¤¹
Ġà¤ĳà¤ª à¤¥à¤²à¤®
à¤Ł à¤¥
à¤¡ à¤°à¤¹
à¤Ń à¤°à¤ķà¤®
à¤¸à¤° à¤ļ
à¤¯à¤° à¤¶
à¤Ĺ à¤ıà¤®
à¤¶ à¥ĺ
Ġà¤Ńà¤°à¤¤ à¤®
Ġà¤¨à¥Ľ à¤°à¤¬
à¥į à¤¼à¤¾
à¤§ à¤£
Ġà¤ħà¤² à¤Ł
Ġà¥Ļ à¤®
Ġà¤ķ à¤²à¤¤
Ġà¤ľ à¤¶à¤¨
à¤°à¤ķ à¤ķ
à¤ĩà¤ķà¤¸ à¤µ
Ġà¤ħ à¤¶à¤²
Ġà¤ªà¤° à¤¤à¤¨
à¤¥ à¤°à¤¨
à¤Ī à¤¯à¤¨
Ġà¤Ł à¤°à¤ª
Ġà¤ħà¤° à¤ĺ
à¤°à¤° à¤°
Ġà¤ıà¤®à¤ıà¤« à¤ıà¤¨
à¤µ à¤¯à¤¤
Ġà¤ĵà¤µà¤° à¤Īà¤Ł
Ġà¤Ĩ à¥ĺ
Ġà¤ĩ à¤Ĺà¤¨
à¤½ à¤®
à¤¤ à¤ħ
à¤¦ à¤¸à¤°
à¤¦à¤® à¤¹
à¤¥à¤® à¤¹
à¤ľà¤® à¤¹
Ġà¥§à¥¯à¥§ à¥¯
Ġà¤¶ à¤¨à¤®
Ġà¤ıà¤¸ à¤Ĩà¤°à¤ķ
Ġà¥§à¥¨ à¥¬
à¤ķ à¥ŀ
à¤° à¤ħà¤§
à¤¹ à¤¸à¤²
Ġà¥§à¥¯à¥¨ à¥«
à¤° à¤¡à¤°
à¥Ľ à¤¤à¤¦
à¤¯à¤£ à¤¦
Ġà¤ĩ à¤¬à¤²
Ġà¤¶ à¤ķà¤Ł
Ġà¤ħà¤® à¤ľ
Ġà¤ķ à¤¨à¤¨
à¤ĩ à¤Ĩà¤ķ
à¤²à¤¨ à¤®
Ġà¤ĵ à¤¹à¤¨
à¤¯à¤¨ à¤°à¤¤
Ġà¤¤à¤¹ à¥ŀ
à¤¯ à¤ĵ
Ġà¤ªà¤° à¤Ńà¤ķ
à¤ī à¤¥à¤°
Ġà¥ Ĭ
à¤²à¤¬ à¤¦à¤¨
Ġà¤®à¤ł à¤ª
à¤Ĺ à¤ĺ
à¤¯à¤¤ à¤ª
à¤Ĳ à¤«
Ġà¤ĵà¤¨ à¤°à¤¶
Ġà¤ĳ à¤¬à¤°
à¤®à¤ķ à¤®
Ġà¤ıà¤ļ à¤Ĩà¤Īà¤ıà¤²
à¤£ à¤¡
à¤ķ à¤·à¤ķ
à¤¨ à¤ħà¤°
à¤ĵ à¤¦
à¤ķà¤£ à¤ķà¤°
Ġà¤¸ à¤Łà¤¨
à¤ļ à¤¯à¤¤
Ġà¤Ī à¤Łà¤¨
Ġà¤¨à¤Ĺà¤° à¤µà¤§
Ġà¤²à¤¹ à¤¸à¤¨
Ġà¤¡ à¤¡à¤µ
à¥ĥ à¤¼
à¤¸à¤° à¤¯
Ġà¤Ĩà¤Īà¤ıà¤¸ à¤¡
Ġà¤ıà¤Ĩà¤Ī à¤ıà¤®
Ġà¤ī à¤£à¤°
à¤ªà¤¨ à¤µ
Ġà¤ĵ à¤ıà¤«à¤¬
à¤¦à¤Ĺ à¥Ŀ
Ġà¤ħà¤® à¤°à¤²
Ġà¥§à¥ª à¥¯
à¤ª à¤²à¤µ
Ġà¤®à¤¥ à¤¤
Ġà¤¨ à¤°à¤¨
Ġà¤ıà¤®à¤ıà¤¸ à¤ıà¤¨
Ġà¤Ĺà¤¹ à¤¨à¤¤à¤®
Ġà¤¸ à¤²à¤ķ
à¤°à¤¹ à¤¯
à¤ıà¤¨ à¤Ĩà¤Īà¤ı
à¤¯ à¥ľ
à¤¬ à¤ĩà¤²
à¤®à¤¦ à¤°à¤¸
Ġà¤īà¤ªà¤¨ à¤²
à¤° à¤²à¤µ
à¤Ń à¤£
Ġà¥§à¥ª à¥«
à¤¤ à¤Ķà¤°
Ġà¤Ĺ à¤ī
Ġà¤ħà¤¨ à¤¸à¤¨
Ġà¤ħà¤§ à¤µ
Ġà¤īà¤¤ à¤ª
Ġà¥§à¥¯à¥¨ à¥§
à¤¸ à¥ŀà¤°
à¤ľ à¤¯à¤²
Ġà¤¤ à¤ĸà¤²
Ġà¤ı à¤¤à¤µ
Ġà¤¬à¤ļ à¤ļ
à¤ķà¤¬ à¤ľ
à¤® à¤¥à¤ķ
à¥Ĥ à¥Ĥà¤Ĥ
Ġà¥Ļ à¤¬à¤°à¤¦
Ġà¤Ĳ à¥ľ
Ġà¤Ĩà¤Īà¤Ĩà¤Ī à¤ıà¤¸à¤Īà¤Ĩà¤°
Ġà¤¦à¤¸à¤° à¤¥
à¤· à¤¹à¤¦
Ġà¤ĸ à¤Łà¤¨
Ġà¤ĸ à¤¸à¤®
à¤Ľ à¤¬
à¤Łà¤° à¤ĩ
à¤ªà¤¨ à¤ķ
Ġà¤ļ à¤ªà¤¡
à¤²à¤¤ à¤¤
Ġà¤¸à¤¤ à¤®
à¤²à¤ķ à¤§
Ġà¤¸ à¤¤à¤ķ
Ġà¤ıà¤¨ à¤Īà¤ª
Ġà¤ħà¤« à¤¨
Ġà¤Ńà¤¯ à¤ī
Ġà¤ļ à¤ĸà¤ķà¤°
Ġà¤Ĩà¤° à¤ıà¤¸à¤ı
Ġà¤Ĩà¤° à¤ıà¤¨à¤Ł
à¤² à¤ıà¤ķ
Ġà¤ıà¤¸ à¤Ĩà¤°à¤ıà¤®
à¤¯ à¤ħà¤Ĺà¤²
Ġà¤ª à¤®à¤°
Ġà¤ħ à¤ı
à¤¬ à¤¦à¤¨
Ġà¤ī à¤ľà¤°
Ġà¤ªà¤° à¤ªà¤ľ
à¤°à¤£ à¤¯à¤¹
à¤µà¤¡ à¤£
à¤¸ à¤¸à¤®
Ġà¤¬à¤¨ à¤ĸ
à¤¹à¤¨ à¤ļ
Ġà¥§à¥¨ à¥ª
à¤®à¤¸à¤° à¤¨
Ġà¤Ĺ à¥ľà¤ķà¤°
Ġà¤Ĺ à¤ĩà¤²à¤¨
à¤²à¤ķ à¤ª
à¤ıà¤¨ à¤ıà¤«à¤¸
Ġà¥§à¥ª à¥Ń
Ġà¤Ĩà¤Īà¤ıà¤² à¤Ĳ
à¤¡ à¤µà¤²
à¤®à¤² à¤¯
à¤° à¤³
à¤ľ à¤«à¤°
à¤¼ à¥ģà¤Ĥ
Ġà¤ħà¤ĸ à¤¬à¤°
à¤ķ à¤ķà¤¨
à¤¤à¤® à¤¶
Ġà¤ħà¤ľ à¤²à¤¨
Ġà¤ıà¤« à¤ıà¤Ĩà¤°
Ġà¤īà¤° à¤Ĺ
Ġà¥¨à¥ª à¥¦
Ġà¤¨à¤µà¤² à¤ķ
Ġà¤ªà¤° à¤¸à¤ª
Ġà¤§ à¤Łà¤¨
à¤¦ à¤ħà¤¤
Ġà¤ıà¤® à¤ıà¤¸à¤Ī
Ġà¤¦à¤° à¤¶
Ġà¤¹ à¤ıà¤¤
Ġà¤ľ à¤¯à¤²
à¤¶ à¤¯à¤µ
à¤²à¤° à¤²
à¤¹à¤°à¤£ à¤¤
Ġà¤ħ à¤Ľà¤¨
Ġà¤īà¤¨ à¤¤à¤ķ
à¤°à¤® à¤¬à¤²
Ġà¤ķà¤¨ à¤«à¤°
à¤°à¤² à¤®
Ġà¤īà¤¬ à¥ľ
à¤ķà¤ľ à¤Ī
Ġà¤ıà¤¨à¤ıà¤ļ à¤ıà¤Ĩà¤ĩ
à¤¨ à¤¯à¤ķ
Ġà¤Ķ à¤Ĺ
à¤¨ à¤ĩà¤¸
à¤¯ à¤ħà¤§
Ġà¤ľ à¥ľà¤ķà¤°
Ġà¤ĩ à¤ľà¤¤
Ġà¤¸à¤¹ à¤ļ
Ġà¤¸à¤¨ à¤¹
à¥Īà¥Ī à¥Ī
à¤§ à¤ļà¤¨
à¤¤à¤° à¤Ĩà¤§
Ġà¤¬à¤¨ à¤®à¤¨à¤ĸ
Ġà¤ªà¤°à¤ĸà¤¨ à¤²
Ġà¥§à¥¯à¥© à¥¨
Ġà¤ĵà¤µà¤° à¤®
à¤Ĺà¤¦à¤° à¤¬
à¤° à¥Ļ
Ġà¤¹ à¤ķà¤®
à¤ī à¤¸à¤ª
à¤¯ à¤ĺà¤°
Ġà¤ıà¤®à¤ĵ à¤¡
à¤· à¤¸à¤°
à¤¸à¤² à¤§
Ġà¤ªà¤ķà¤¡ à¥ĺà¤°
à¤¨ à¤¸à¤ķ
à¤¦ à¤³
Ġà¤ħ à¤¯à¤²
à¤¬ à¤Łà¤°
Ġà¤ļ à¤¨à¤ķ
Ġà¤Ĩà¤Ī à¥ŀ
Ġà¤Ĩ à¤ĩà¤®
Ġà¤ī à¤ĩ
Ġà¤®à¤ł à¤µ
Ġà¤¤à¤° à¤¬à¤Ĺ
à¤ī à¤¨à¤µ
Ġà¥§à¥¯à¥© à¥¯
Ġà¤²à¤Ĺ à¤Ń
à¤°à¤®à¤£ à¤ľ
Ġà¥§à¥¬ à¥®
Ġà¥¨à¥¦à¥Ń à¥ª
Ġà¤Ĩ à¤Ĩà¤ª
à¤« à¤°à¤¤
Ġà¤Ĳ à¤£
à¤·à¤£ à¤ľ
à¤¾à¥ĩ à¥ĩ
à¤ķ à¤®à¤¸
Ġà¤ª à¤Ń
à¤µà¤¸ à¤ķ
Ġà¤Ľà¤ł à¤ª
à¤¬à¤° à¤¬
Ġà¥§à¥¬ à¥«
à¤®à¤¨ à¤¬
à¤®à¤¨ à¤ªà¤¸
Ġà¤ıà¤¸à¤Ĩà¤Ī à¤¬
Ġà¥§à¥¯à¥© à¥ª
Ġà¤Ĩà¤° à¤Īà¤ıà¤®
Ġà¥§à¥¯ à¥§à¥¦
à¤ľà¤« à¤°à¤ª
à¤ķà¤® à¤§
Ġà¤ıà¤®à¤ıà¤¸ à¤ĵ
à¤ª à¤¥à¤°
à¤ķà¤® à¤ķà¤°à¤®
à¤¡ à¤®à¤¨
Ġà¤īà¤¦ à¤¯à¤¶
à¥Ľ à¤¶
Ġà¤ĭà¤£ à¤¶
Ġà¤£ à¤ķ
à¤Ł à¤ĩà¤¨
Ġà¤ĩ à¤Ĺà¤¤à¤ª
Ġà¤¨à¤µ à¤µà¤§
Ġà¤īà¤¤à¤° à¤ª
Ġà¤Ĩà¤Ĩà¤Ĩ à¤Ĩà¤Ĩ
à¤² à¤Ķà¤°
à¤Ĺà¤° à¤«
Ġà¤īà¤¦ à¤¯à¤¨à¤°
Ġà¤¤à¤¬ à¥ĺ
à¥ĭà¤Ĥ à¤
à¤ľà¤¯ à¤Ĺà¥Ŀ
Ġà¥Ń à¥¦à¥¦à¥¦
à¥ĭà¤Ĥà¤ ¾
Ġà¤¨à¤¹ à¤ľ
Ġà¤ĸà¤¬à¤° à¤¨
Ġà¤¬à¤°à¤¹ à¤¨
Ġà¤ķ à¤¦à¤ķ
Ġà¤ħà¤ľà¤¯ à¤¸
Ġà¥§à¥¦à¥¦ à¥¦à¥¦
Ġà¥§à¥¯à¥ª à¥§
Ġà¤ĺ à¤°à¤¸
Ġà¤ĩà¤¯à¤° à¤ª
Ġà¤ķ à¤Ļ
Ġà¤ľà¤¨à¤¸ à¤ĸ
à¤¦ à¤īà¤¤
à¤ĩà¤² à¤«
à¤®à¤° à¤²
à¤¹à¤° à¤¹
Ġà¤ªà¤ķà¤¡ à¤¤
Ġà¤¬ à¤°à¤¹à¤²
Ġà¤¦ à¤ı
Ġà¤ħà¤¦ à¤²à¤¹
Ġà¤ħà¤ĸ à¤µ
à¤ľ à¤¦à¤¯
à¤ıà¤¨ à¤ıà¤¨à¤¯
à¤¡ à¤Īà¤ķ
à¤ľà¤¨ à¤ĵ
à¤¯à¤¨ à¤¤
Ġà¤ıà¤ľ à¤µ
Ġà¤ķà¤² à¤ľ
à¤¨à¤² à¤ª
à¤Ĩà¤īà¤Ł à¤¡
à¤® à¤¹à¤®
Ġà¤ľ à¤§
Ġà¤Ł à¤ªà¤²
Ġà¤īà¤¦ à¤ķ
à¤¤ à¤ĺà¤°
à¤¬ à¤²à¤¨
Ġà¤ľà¤¬ à¤¹
Ġà¤¦à¤¶ à¤Ĺ
Ġà¤° à¤īà¤«
à¤²à¤¬ à¤¸
Ġà¥ª à¥«à¥¦
à¤ľà¤° à¤Ĺ
à¤®à¤² à¤¦
Ġà¤®à¤Ĭ à¤Ĺ
à¤Ĺà¤² à¤ķà¤°
Ġà¤¸à¤ķ à¤ª
à¤ľà¤¸ à¤ª
à¤²à¤ļ à¤²à¤¨
Ġà¤®à¥Ľ à¤²
Ġà¤¸à¤¬à¤² à¤Ĺà¤¢
Ġà¤ıà¤² à¤¡à¤¬
Ġà¤ĵà¤® à¤µà¤¤
Ġà¤¸à¤® à¤®à¤°
à¤Ĩ à¤Ĺà¤¸
à¤¼à¤¾ à¤ĥ
à¤Ł à¤ľà¤°
à¤ĩ à¤°à¤¨
Ġà¤Ńà¤¦ à¤Ńà¤¦
Ġà¤ķà¤° à¤®à¤µ
Ġà¤ķà¤ª à¤ķà¤ª
Ġà¤Ĩ à¤¯à¤®
à¤¯à¤® à¤¨à¤¸
à¤Łà¤® à¤£
Ġà¥¨à¥¦à¥Ń à¥«
à¤¦ à¤ĺà¤¨
à¥ª à¥¦à¥¦
Ġà¤¶à¤° à¤¥
à¤Ĺà¤£ à¤ķà¤°
à¤ķ à¤Ķà¤°
à¤° à¤ĵà¤²
à¤¶ à¤©
Ġà¤Ĩ à¤¯à¤ķ
Ġà¤¤ à¤¹à¤²
à¤« à¤²à¤¨
Ġà¤§ à¤®à¤°
à¤¸à¤¨ à¤¤
à¤ľà¤¯ à¤Ń
à¤°à¤ļ à¤Ł
Ġà¤¦ à¤īà¤°
à¤§ à¤®à¤¯
à¥ī à¥ħ
Ġà¤¤à¤°à¤¹ à¤¤à¤°à¤¹
Ġà¤ıà¤¸ à¤Ĩà¤Īà¤ıà¤¸
à¤ľ à¤²à¤°
Ġà¤° à¤¥à¤®
à¤Łà¤¨ à¤ķ
à¤ªà¤² à¤¸à¤°
à¤° à¤¥à¤¨
à¤¯à¤£ à¤ľ
Ġà¤ĵ à¤ıà¤«à¤¸
Ġà¤§à¤® à¤§
Ġà¤ıà¤« à¤Ĩà¤Īà¤ıà¤«
Ġà¤®à¤Łà¤° à¤Ĺà¤¶
à¤ķ à¤¹à¤°
Ġà¤Ĩà¤Ĺ à¤ľ
Ġà¤ıà¤¨à¤ıà¤¸à¤ı à¤Ĩà¤Īà¤¡
à¤¨ à¤¹à¤¨
Ġà¤« à¤³
à¤°à¤® à¤¬
à¤¨à¤® à¤¥
Ġà¤Ĩà¤µ à¤¹
Ġà¤ıà¤¯à¤° à¤ĩ
Ġà¤ıà¤ļ à¤ıà¤ķ
Ġà¤Ŀà¤ªà¤Ł à¤¤
Ġà¤Ĺ à¤¤à¤ķ
Ġà¤ĸ à¤Ľ
à¤Ŀ à¤ªà¤Ł
Ġà¤Ĺà¤¢ à¤¨
Ġà¤·à¤¡ à¥Ł
Ġà¤¤ à¤¹à¤¬
Ġà¤°à¤¹ à¤ı
Ġà¤¸à¤® à¤ľà¤¤
Ġà¥§à¥« à¥Ń
à¤ľ à¤§à¤¨
Ġà¤ī à¤²à¤¬
à¤µà¤° à¤ļà¤¨
à¤ķà¤² à¤ľ
à¤¬ à¤ķà¤Ł
Ġà¤ı à¤°à¤²
Ġà¤ľà¤Ĺ à¤£
à¤²à¤Ń à¤¨à¤Ĺà¤°
Ġà¤ĩà¤§à¤° à¤īà¤§à¤°
Ġà¤« à¤°à¤¨
Ġà¤¡ à¤µà¤²à¤ª
Ġà¤Ĩà¤µ à¤½
Ġà¤ħà¤¸ à¤ª
Ġà¤ħà¤¸à¤¦ à¤īà¤¦
à¤ľ à¤®à¤¤
à¤ľ à¤¸à¤¨
à¤®à¤¨ à¤Ń
Ġà¤Ĩà¤Ī à¤ıà¤ļ
Ġà¤ħà¤°à¤¬ à¤µ
à¤Ļ à¤ķà¤°
à¤ľ à¤°à¤ķ
Ġà¤Ĺà¤¡ à¤ļ
Ġà¤¯à¤¤ à¤¯
Ġà¤¨à¤¥ à¤®à¤²
à¤¬ à¤³
à¤£ à¤¦à¤¤
à¤ĺ à¤®à¤¶
à¤ıà¤¸ à¤«
Ġà¥¨à¥¨ à¥¦
à¤ĸ à¤°à¤ľ
à¤Ĺà¤² à¤¹
à¤ª à¤łà¤ķ
à¤Ł à¤Łà¤°
Ġà¤² à¤¤à¤°
Ġà¤« à¤¨à¤Ł
Ġà¤ĸ à¤¦à¤¬à¤¦
à¤¸à¤ķ à¤µà¤°
Ġà¤¬à¤Ī à¤ł
Ġà¤ļ à¤ĩà¤¤
à¤°à¤¤ à¤¶
à¤Ńà¤µ à¤µ
Ġà¤®à¤²à¤ķ à¤ª
à¤§ à¤¸à¤°à¤ķ
à¤ıà¤² à¤Ĩà¤Īà¤ıà¤¸
à¤Ķ à¤²
à¤² à¤¡à¤²
Ġà¤Ĺà¤Ĭ à¤¶
à¤ı à¤¨à¤²
Ġà¤¡à¤¬ à¤²à¤°
Ġà¤Ĺ à¤³
à¤ıà¤¨ à¤ıà¤®à¤¯
à¤®à¤ª à¤¥
à¤£ à¤«
à¤« à¤¸à¤«
à¤Łà¤° à¤µà¤°
Ġà¤Ĩà¤Ī à¤Ĩà¤Īà¤ı
à¤¸à¤¸ à¤¸
à¤¸à¤ª à¤°à¤ķ
Ġà¥Ļ à¥ŀ
Ġà¤° à¤īà¤Ĩ
à¤®à¤¤ à¤Ĺà¤£à¤¨
à¤µà¤¤ à¤¸
à¤ľ à¤ªà¤¯
Ġà¤®à¤° à¤¬
à¤¦ à¤ķà¤ª
Ġà¤¤ à¤¨à¤¤
Ġà¤¤à¤° à¤¯
à¤ī à¤°à¤µ
à¤ħ à¤°à¤ķ
Ġà¤²à¤¡ à¤ª
Ġà¤® à¤¸à¤¨
à¤¾à¤Ĥ à¤¿
à¤ł à¤§
Ġà¤ıà¤®à¤ıà¤¸ à¤ıà¤«
à¤®à¤µ à¤¶
Ġà¤ľ à¤°à¤µà¤²
à¤ļ à¤¯à¤¬
Ġà¤ĳ à¤Łà¤®
Ġà¤ıà¤² à¤ıà¤¸à¤Ĩà¤°
Ġà¤īà¤¨ à¤¦
Ġà¤Ī à¤Īà¤¸
Ġà¤ıà¤¯à¤° à¤Ĺà¤¨
Ġà¤ľ à¤¸à¤¨
à¤ĸ à¤¦à¤°
Ġà¤Ŀ à¤²à¤¨
Ġà¤¸à¤®à¤Ŀ à¤¬
Ġà¤¨à¤µ à¤¹
Ġà¤Ĩà¤² à¤ª
Ġà¥§à¥« à¥«
à¤£à¤ķà¤°à¤£ à¤¸à¤°
à¤¸ à¤Ĩà¤°à¤ª
à¤Ł à¥Ł
Ġà¤¦ à¤µà¤°
à¤¶ à¤Ĺà¤¤
Ġà¤ħà¤¸ à¤£
Ġà¤®à¥ľ à¤ĩà¤¨
à¤Ĺ à¤·
Ġà¤¦ à¥ľà¤¬
à¤Ī à¤ıà¤®à¤ıà¤²
à¤Łà¤¨ à¤¹
à¤¸à¤ª à¤Ł
Ġà¤İ à¤¤
à¤² à¤Ļ
à¤¾à¥ħ à¥°
Ġà¤¶à¤° à¤«
Ġà¤ĸà¤¬à¤° à¤ª
à¤®à¤¬ à¤ĸ
à¤¶ à¤®à¤²
Ġà¤ĸ à¤Ń
à¤¶à¤¨ à¤¯
Ġà¤¨à¤² à¤ĸ
à¤¬ à¤¨à¤¸
à¤£ à¤ĸ
à¤²à¤ķ à¤¥
à¤° à¤°à¤£
à¤ı à¤¡à¤µ
Ġà¤¸à¤®à¤¯ à¤¬
à¤² à¤®à¤ķ
Ġà¤¶ à¤²à¤µ
Ġà¤§ à¤¡à¤ķ
à¤° à¤ĳà¤Ł
à¤² à¤¹à¤®
Ġà¤ı à¤ıà¤²à¤ıà¤¸
Ġà¤²à¥ľà¤ķ à¤ªà¤¨
Ġà¤ĺ à¤¯
à¤ĵ à¤ļ
à¤²à¤Ń à¤¤à¤®
à¤ķ à¤ĵà¤ıà¤¸
Ġà¤µ à¤²à¤¨
à¤Ń à¤¬
Ġà¤Ł à¤Ĺà¤°
à¤Ńà¤µ à¤ª
à¤¹ à¤µà¤¶
Ġà¤īà¤¦ à¤µ
à¤Ĭ à¤µ
Ġà¤Ĺà¤ľ à¤Ń
Ġà¤ıà¤¸ à¤ıà¤ľ
à¤Ĩà¤¨ à¤ľ
à¤®à¤¬ à¤¹à¤¨
Ġà¥§à¥® à¥¦à¥¦
Ġà¤ıà¤ıà¤¸ à¤Ĩà¤Īà¤¸
à¤Ł à¤µà¤²
Ġà¤Ķ à¤¯à¤²
à¤°à¤¯ à¤µ
Ġà¤Ĩà¤ĩà¤¸ à¤¬à¤°
à¤¶ à¤¸à¤¨
Ġà¤ĳ à¤¯à¤¨
à¤¸à¤µ à¤¦à¤¤
Ġà¥ĺ à¤®à¤°
à¤¥ à¤ķà¤°à¤ĺ
Ġà¤¶ à¤¤à¤®
à¤°à¤¸ à¤®à¤£
Ġà¤ıà¤² à¤Ĩà¤ĩà¤¸
Ġà¥§à¥¯à¥ª à¥ª
à¤¸à¤ı à¤ıà¤¨à¤ıà¤ķ
à¤Ł à¤Ķà¤°
Ġà¤¡ à¤°à¤µ
Ġà¤ıà¤¡ à¤ķ
à¤ªà¤² à¤Ĺ
Ġà¤ħà¤ł à¤µ
Ġà¤®à¤Ŀ à¤µ
¾ à¥Į
à¥ĩ à¥ģ
à¤ ¾à¥Į
Ġà¤¯ à¤®à¤Ĺ
Ġà¤¤à¤¹ à¥ĺ
à¤° à¤īà¤¦
Ġà¤ĩà¤¨ à¤ľ
Ġà¤®à¤° à¤ļ
à¤¹à¤¨ à¤Ń
Ġà¤ıà¤² à¤ĵ
Ġà¥§à¥¯à¥© à¥®
Ġà¤Ľ à¤¬à¥ľ
Ġà¤ĵà¤µà¤° à¤¥
à¤Ĳ à¤¶à¤¨
Ġà¤¸ à¤ī
Ġà¤ªà¤Ł à¤µà¤¨
Ġà¤²à¤Ĺà¤¨ à¤¶
à¤Īà¤Īà¤Īà¤Ī à¤Ī
Ġà¤« à¤¸à¤¤
à¥Ļ à¤¨
Ġà¤Ĺà¥ľ à¤°
Ġà¤¸ à¤īà¤¨
Ġà¤¨ à¤°à¤¦
Ġà¤¨ à¤°à¤¯
à¤ĸ à¤¤à¤°à¤¨
à¤£ à¤®à¤²
Ġà¤« à¤ľà¤°
Ġà¤īà¤¸ à¤¦
Ġà¤®à¤¤ à¤¬à¤²
Ġà¤®à¤Ĺà¤° à¤²
à¤² à¤ľà¤¨
Ġà¤® à¤¸à¤¨à¤¦
à¤ķà¤°à¤£ à¤ķà¤°
Ġà¥ŀ à¤¹à¤°
à¥¬ à¥§
Ġà¤ķà¤¨à¤ķ à¤²à¤¤
à¤¯ à¤ĺà¤Łà¤¨
Ġà¤ħà¤ª à¤°à¤ķ
à¤¥à¤² à¤ª
à¤¸à¤¹ à¤ľ
à¤¤ à¤®à¤°
Ġà¤¤ à¤ªà¤ķ
Ġà¤ªà¤¢ à¥ĺà¤°
Ġà¤ħà¤Ĺ à¤®à¤ķ
Ġà¤ĭ à¤¶
à¤Īà¤¬ à¤¹à¤¨
à¤¸ à¤ªà¤¤
à¤¯ à¤Ĺà¤¨
à¤ī à¤ªà¤¸
Ġà¤ĸà¤° à¤ĸà¤°
Ġà¤®à¤ķà¤¤ à¤¬
à¤¯ à¤Ī
Ġà¤ı à¤®à¤²
Ġà¤¸à¤Ń à¤Ł
Ġà¤īà¤ªà¤¤ à¤¹à¤¸
Ġà¤ıà¤® à¤Ĩà¤°à¤¸
Ġà¤ıà¤ļ à¤ıà¤¸à¤ıà¤¸
à¤ĸà¤ķ à¤¹
Ġà¤ħà¥ŀ à¥Ľ
Ġà¤¨ à¤Ĺà¤¨
Ġà¤ľ à¤³
à¤¬ à¤Ĺà¤¡
Ġà¤¹à¤® à¤²à¤µ
à¤ĺ à¤·à¤°
Ġà¤īà¤¦ à¤Ńà¤µ
Ġà¤ıà¤® à¤ıà¤¨à¤Ĩà¤°
Ġà¤Ĩà¤°à¤ıà¤¸ à¤µ
à¤¸ à¤¹à¤µ
Ġà¤ľ à¤Īà¤¸
à¤ĩ à¤©
à¤ī à¤¨à¤°
à¤Ĺ à¤ĭà¤·
à¤ķà¤¤ à¤ķ
Ġà¤ł à¤¡
à¤µà¤° à¤¦à¤¯
Ġà¤¬ à¥ĺ
à¤ŀ à¤®
à¤½ à¤¯
à¤¨ à¤ľà¤ķ
Ġà¤Ĩ à¤Ĳà¤Ĺ
à¤ļà¤¨ à¤°
à¤Ĺà¤² à¤Łà¤¨
à¤ıà¤¸ à¤Ĩà¤Īà¤Ł
Ġà¤ħà¤ķ à¤Ł
à¤¸ à¤ħà¤¨
Ġà¤¯ à¥Ľ
à¤°à¤£ à¤Ń
à¤¾à¤ģ à¤ģ
à¤¹à¤¨ à¤µà¤¤
Ġà¤ķà¤°à¤£ à¤ª
à¤¹ à¤ľà¤¬
à¤ı à¤Ń
à¤ħ à¤ı
Ġà¤ľà¤¸ à¤ľ
Ġà¤ıà¤¨ à¤Ĩà¤°à¤¡
Ġà¤łà¤Ĺ à¤¬
Ġà¤ķ à¤«à¤°
Ġà¤Ĺ à¤²à¤¬
à¤Ī à¤ıà¤«à¤Ĩà¤Ī
à¤¨à¤ķà¤° à¤¨
Ġà¤¸à¤®à¤µ à¤¸à¤°à¤£
à¤¶ à¤¯à¤¹
à¥¦à¥¦à¥¦à¥¦ à¥¦à¥¦à¥¦à¥¦
à¤¹ à¤µà¤¨
Ġà¤¦ à¤ķà¤¨
à¤¬ à¤£
Ġà¤Ķ à¤«à¤°
à¤¯à¤¨ à¤¯
à¤¬à¤² à¤ľ
Ġà¥§à¥¯à¥§ à¥§
Ġà¤ļà¤°à¤£ à¤ª
Ġà¤¾ à¥ģ
Ġà¤ª à¤¯à¤¸
Ġà¤Ī à¤ıà¤®à¤µ
à¤¦à¤Ĺ à¤£
Ġà¤īà¤² à¤Łà¤ķà¤°
à¤¹à¤¦ à¤¤
Ġà¤®à¤¦à¤° à¤¹
à¤° à¤¨à¤¤
Ġà¤° à¤®à¤ķ
Ġà¤Ĺ à¤Ĺà¤²
Ġà¤Ń à¤°à¤¸
à¤ħ à¤µà¤°
à¤ķà¤® à¤¹
à¤ķ à¤ļà¤¨
à¥ģ à¥Ģ
Ġà¤ķà¤° à¤£à¤¸
à¤ĸ à¤ĸ
Ġà¤īà¤ª à¤²à¤µ
Ġà¤ıà¤® à¤Ĩà¤°à¤Ł
à¤ķà¥ľ à¤¬
Ġà¤ķà¤° à¤Ī
Ġà¤¸à¤ķà¤² à¤¦
Ġà¥§à¥© à¥®
à¤¦ à¤¯à¤ª
Ġà¤¨ à¤®à¤°
à¤¬à¤° à¤µà¤¨
Ġà¤ıà¤² à¤ıà¤ļà¤¡
à¤¨ à¤Ĩà¤¯
Ġà¤ħà¤¸ à¥ŀà¤²
Ġà¤¹ à¤¬à¤¸
Ġà¤ľ à¤ı
à¤ĸ à¤ħà¤®
à¤ķà¤°à¤£ à¤ª
Ġà¤¸à¤² à¤ĸ
Ġà¤§à¤¨à¤ķ à¤¡
Ġà¤Ī à¤ıà¤¨à¤ıà¤¸
Ġà¤ħà¤ķà¤² à¤®
à¤ª à¤¶à¤ķ
Ġà¤Ĩ à¤½
à¤Ĩ à¤¸à¤¨
Ġà¤Ĩà¥Ļ à¤°
à¤¬ à¤µà¤°
à¤ĩ à¤ł
à¤ıà¤® à¤Īà¤ľ
Ġà¥ŀ à¤²à¤ķ
à¤Ĺà¤µà¤¤ à¤®
Ġà¥§à¥¯à¥ª à¥©
à¤¸ à¤Ĩà¤ª
à¤Ł à¤ĺ
Ġà¤ļà¤¯ à¤¨à¤ķ
à¤¯à¤ľà¤¨ à¤ķà¤¸
à¤¯ à¤ıà¤ļ
à¤®à¤£ à¤ķ
à¤¬ à¤īà¤¤
Ġà¤ıà¤¸à¤ıà¤² à¤ıà¤¸
Ġà¤µ à¤¯à¤®
à¤¸à¤° à¤ľà¤¨
à¥Ŀ à¤ª
Ġà¤µà¤¨ à¤ļ
à¤Ĺ à¤¹à¤¨
à¤ļ à¤°à¤¹
Ġà¤ĩ à¤¥à¤¨
à¤Ī à¤¬à¤¡
à¤¬à¤° à¤Ł
Ġà¤ļà¤² à¤¬
à¤ķ à¤ħà¤°
Ġà¤¬ à¤°à¤¹à¤®
à¤£ à¤ªà¤°
Ġà¤ıà¤¸ à¤ıà¤ļà¤ıà¤¸
Ġà¤°à¤®à¤¨ à¤¸
Ġà¤° à¤¸à¤ķ
Ġà¤¤ à¤µà¤¸
à¤Łà¤° à¤ªà¤°
Ġà¤Ĩà¤Īà¤ıà¤® à¤ıà¤²
Ġà¤° à¥ĺ
Ġà¤Ķà¤° à¤¦
à¤£ à¤®à¤¨
à¤ľà¤¨ à¤¤à¤ķà¤¨
à¤°à¤Ĺ à¤ļ
à¤¨ à¤¤à¤¨
Ġà¤« à¤²à¤ķà¤¨
Ġà¤Ĩà¤ª à¤Ń
à¥ĺ à¤¯
à¤®à¤°à¤£ à¤¨
à¤ º
à¤°à¤® à¤ĸ
Ġà¥§à¥« à¥®
à¥įà¥ģ à¤
à¥įà¥ģà¤ ¾
à¤¤ à¥Ļ
Ġà¤¹ à¤¸à¤°
à¤¸à¤² à¤¦
Ġà¤Ńà¤°à¤¤ à¤²
à¤Ĺà¤ªà¤¤ à¤²
Ġà¤®à¤²à¤¯ à¤ľ
à¤¹à¤° à¤ľ
Ġà¤Ĺà¤¹à¤° à¤µ
à¤¸ à¤ıà¤¬à¤²
à¤® à¤¬à¤°à¤¨
à¤ŀ à¤¯
Ġà¤¨à¤Ī à¤¯
Ġà¤Ĩà¤® à¤Ĺ
Ġà¤ĵà¤µà¤° à¤ıà¤ķ
à¤³ à¤°
à¤¸ à¤¤à¤°à¤¹
à¤¥ à¤ªà¤°
à¤¨à¤² à¤ķ
à¤² à¤ĺà¤¨
à¤ıà¤ļ à¤ıà¤®à¤ıà¤¸
Ġà¤Ĺà¤® à¤ľà¤¦
à¤°à¤ħ à¤°à¤¬
à¤Ĩ à¤¶à¤°
à¤Ĺà¤° à¤¬
à¤°à¤¯ à¤¶à¤ķ
à¤¬à¤¸ à¤°à¤¤
Ġà¤Ĺà¤¡ à¤Ĺ
à¥¬ à¥¯
à¤ıà¤« à¤ıà¤¸à¤Ĩà¤Ī
Ġà¤¨ à¤«à¤°
à¤§ à¤ļà¤ķ
à¤Ī à¤¨à¤Ĺà¤°
Ġà¤ĵà¤® à¤¬
à¥¬ à¥©
Ġà¤ıà¤¸à¤ĵ à¤ıà¤²
Ġà¤¸à¤® à¤¥à¤°
à¤Ĩ à¤¯à¤°à¤²
Ġà¤ªà¤µà¤¨ à¤¦
Ġà¤ª à¤¥à¤®
à¤ľ à¤ķà¤°à¤£
Ġà¤ħ à¤ľà¤ª
à¤ķà¤° à¤¯
à¤¸à¤¤ à¤¹
Ġà¤ıà¤ļ à¤ıà¤¸à¤ª
Ġà¤ľ à¤¦à¤°
Ġà¤ľ à¥Ľà¤¬
à¤ĸ à¤Ĳà¤¸
Ġà¤µà¤° à¤°
Ġà¤¦à¤¶ à¤²à¤ķ
Ġà¤Ĩà¤Īà¤Ĩà¤Ī à¤ıà¤®à¤Ł
à¤£ à¤ªà¤£
Ġà¥«à¥§ à¥¨
Ġà¤ıà¤¸à¤ıà¤« à¤ľ
à¤ĩ à¤ħ
Ġà¤ªà¤Ĺ à¤¹
à¥ŀ à¤ķ
Ġà¤ıà¤ıà¤¨ à¤ª
Ġà¥§à¥¯à¥¨ à¥ª
à¤¤ à¤¹à¤¬
Ġà¤ı à¤ıà¤«à¤¡
à¤µà¤¸ à¤¹à¤®à¤¤
Ġà¤ıà¤« à¤Ĩà¤°à¤¡
Ġà¤¹à¤° à¤¹à¤°
à¥¦ à¥¨
à¤¡à¤® à¤¦à¤°
à¤Īà¤² à¤µà¤°
Ġà¤¶ à¤¸à¤ķ
Ġà¤ħà¤§ à¤¬à¤¨
à¤ıà¤¨ à¤Īà¤ª
Ġà¤¬à¤ķà¤² à¤®à¤ĸ
à¤Ł à¤¦à¤²
à¤Ĩ à¤¸à¤ª
Ġà¤¸à¤¬ à¤²à¤Ĺà¥Ŀ
à¤ķà¤°à¤£ à¤¨à¤¹
Ġà¤ħà¤ľà¤¯ à¤Ĺà¤¢
Ġà¤Ĩà¤Īà¤Ĩà¤Ī à¤ıà¤«à¤¸
à¤µ à¥Ŀ
à¤ī à¤¸à¤²
à¤Ĺà¤¤ à¤¹
Ġà¤¬à¤² à¤Ł
à¤¦ à¤®à¤²
Ġà¤Ĩà¤ª à¤ªà¤°
Ġà¤Ĺà¤ı à¤¨
à¥į à¥ĩà¤Ĥ
Ġà¤ķ à¤¸à¤µ
Ġà¤ıà¤® à¤ıà¤¸à¤¬
à¤Ļ à¤¤
à¤Ł à¤¶à¤¬
Ġà¥¬ à¥¦à¥¦à¥¦
Ġà¤ıà¤¨à¤Ĩà¤° à¤Ĩà¤ĩ
Ġà¤²à¤Ĺà¤² à¤ĩ
à¤ļ à¤¯à¤ª
Ġà¤īà¤® à¤¯
à¤ªà¤ķ à¤Ĺà¤£
à¤µ à¤ľà¤¯
à¤ıà¤® à¤Ĩà¤Īà¤¸
Ġà¥©à¥¬ à¥«
à¤ķà¤°à¤£ à¤¹
à¤¨à¤¨ à¤°
Ġà¤¹à¤« à¤¤
Ġà¥ª à¥¨à¥¦
à¤° à¤Ĩà¤°à¤¤
à¤¹à¤° à¤Ńà¤ľà¤¨
à¤¸à¤¬ à¤¬
à¤¡ à¤ķà¤¨
à¤°à¤® à¤¹à¤²
Ġà¤Ĳà¤¶ à¤Ł
à¤Ĩà¤Īà¤ı à¤ıà¤¨à¤ıà¤¸
à¤° à¤¨à¤¸
Ġà¤ª à¤µà¤²
Ġà¤¤ à¥ľà¤«
Ġà¤§ à¤ľà¤ķà¤°
Ġà¤Ĩà¤Ī à¤ıà¤®à¤ıà¤ķ
à¤¹à¤¨ à¤¨à¤Ĺà¤°
à¤ª à¤Łà¤®
Ġà¤ĵ à¤¨à¤¸
Ġà¤ªà¥ľ à¤°
à¤® à¤°à¤¦
Ġà¤¤ à¤®à¤°
Ġà¤ĩ à¤²à¤¯
Ġà¤Ĩà¤° à¤ıà¤¸à¤¸
Ġà¤Ī à¤ıà¤ķ
Ġà¤Ĩà¤¹ à¤¹à¤¹
Ġà¤īà¤ľ à¥ľà¤¨
Ġà¤Ĳà¤ª à¤µ
Ġà¤ĭà¤£ à¤Ĺ
Ġà¥Ł à¤¹
à¤¡ à¤ĵ
Ġà¤Ĩà¤° à¤¨
Ġà¤ħà¤¶ à¥ŀ
à¤®à¤® à¤®à¤®
Ġà¤īà¤ª à¤Ľ
Ġà¤ħà¤° à¤¶
à¤¦ à¤µà¤¸
à¤Ł à¤Ĩà¤°
à¤ļ à¤¯à¤µ
à¤°à¤¯ à¤Ĺ
Ġà¤Ń à¤ĸ
Ġà¥§à¥¯à¥§ à¥¨
Ġà¤¸à¤°à¤ķ à¤¸
Ġà¤Ĩà¤° à¤ıà¤®à¤¬
Ġà¤ħà¤ļ à¤ķà¤¨
Ġà¤ħà¤²à¤Ĺ à¤¸
Ġà¤Ĩà¤ķ à¤·
Ġà¤Ĥ à¥ĩ
Ġà¤ķà¤® à¤ł
à¤ħà¤« à¤¸à¤°
à¤² à¤Ľà¤°
Ġà¤ĩ à¤¬à¤¨
à¤Ī à¤Ľ
Ġà¤ĸ à¤Ĺà¤°
Ġà¤ĳ à¤ĩ
à¤µà¤°à¤£ à¤«
Ġà¤ķ à¤¦à¤¦
à¤¸ à¤¹à¤ķ
à¤ķà¤² à¤¬
Ġà¤¤à¤² à¤¹
Ġà¤¸à¤° à¤Ń
à¤°à¤¨ à¤¬
Ġà¤¸à¤¦ à¤¯
à¤® à¤Łà¤°
à¤²à¤¤ à¤ĸ
à¤²à¤¯ à¤µà¤¨
à¤«à¤² à¤§à¤°
Ġà¤«à¤£ à¤¨à¤µ
Ġà¤Ĩà¤ľ à¤µ
à¥Ŀ à¤ķà¤¤
Ġà¤ıà¤« à¤ıà¤ı
Ġà¤ıà¤² à¤Ī
Ġà¤«à¤¨à¤Ł à¤ļ
à¤¤à¤° à¤¯
à¤° à¤ĩà¤¯
Ġà¤Ĩà¤° à¤Ĩà¤°à¤Ł
à¤® à¤®à¤¹
Ġà¤Ĺ à¤ĩà¤°
Ġà¤¬à¥ľ à¤ĸà¤²
Ġà¤ķà¤² à¤ªà¤¤
à¤¤ à¤¸à¤¤
à¤· à¤°à¤®
à¤¤à¤° à¤ªà¤°
à¤ªà¤£ à¤®
Ġà¥§à¥¬ à¥Ń
à¤Ĺ à¤µà¤²
à¤§ à¤°à¤¸
à¤· à¤ĩà¤¸
Ġà¤¬à¤ļ à¤²
à¤ī à¤¦à¤°
à¤ħà¤² à¤Ł
Ġà¤¦ à¤¹à¤°
à¤ı à¤Ĩà¤ª
à¤ħ à¤²à¤ķ
à¤¹à¤¨ à¤Ĺ
Ġà¤§à¤¨ à¤µà¤¨
à¤®à¤Ĺ à¤¡
Ġà¤¬à¤® à¤¬à¤®
Ġà¤Ľ à¤²à¤ª
à¤¡à¤° à¤¥à¤²
à¤·à¤¯ à¤¶
Ġà¤ķà¤¹à¤² à¤ĸ
à¤ł à¤ł
à¤¯à¤ķ à¤ª
Ġà¤ľà¤¨ à¤Ĩà¤ķ
Ġà¤ĵ à¤ķà¤Ł
Ġà¥§à¥© à¥¯
Ġà¤² à¤łà¤®
Ġà¤² à¤ĩà¤ķà¤¨
à¤¨à¤¨ à¤¨à¤¨
Ġà¤¶à¤¹ à¤°à¤ķ
à¤¶à¤® à¤¹
à¥« à¥§
à¤¬ à¤Ń
à¤¨à¤ķ à¤®à¤¶
à¤¦à¤¨ à¤°
Ġà¤°à¤¨ à¤Ĺà¤¤
Ġà¤Łà¤¨à¤² à¤¬
à¤® à¤Ĩà¤²
à¤µ à¤Ľà¤¨
à¤£ à¤²à¤¤
à¤ī à¤¤à¤°
Ġà¤ħà¤ª à¤¢
à¤®à¤° à¤¥
Ġà¤ĩà¤¶à¤ķ à¤ľ
Ġà¤¦ à¤ļ
Ġà¤ıà¤ķ à¤¤à¤°à¥ŀ
à¤ĸà¤¨ à¤¸
Ġà¤ĸà¤¬à¤° à¤¬
à¤¹à¤® à¤®
à¤ıà¤¸à¤Ĩà¤Ī à¤¬
Ġà¥§à¥¯à¥¦ à¥®
à¤ĸ à¤¹à¤°
à¤°à¤¤ à¤Ńà¤°
à¤¯à¤° à¤ĸ
à¤µà¤¸ à¤Ł
Ġà¤¬à¤° à¤Ĺà¤µ
à¤ĩà¤® à¤ľ
Ġà¥§à¥¯à¥© à¥©
à¥ĩà¤Ĥ à¤
Ġà¤¬à¤¨ à¤Ń
à¤²à¤Ń à¤¦
à¤ªà¤¹ à¤¸à¤²
Ġà¥§à¥¯à¥§ à¥ª
à¥ĩà¤Ĥà¤ ¾
Ġà¤ı à¤ıà¤®à¤Ĩà¤°
Ġà¤¡ à¤²à¤¤
Ġà¤ıà¤¸ à¤Īà¤ı
Ġà¤Ŀà¤¡ à¤©
à¤ľ à¤¸à¤ķ
à¤Ĩ à¤¥
Ġà¤Ĩà¤Ī à¤ķà¤¨
Ġà¤ıà¤² à¤Ĳ
Ġà¥§à¥§ à¥©
Ġà¤Ĩà¤Ĩà¤Ĩ à¤¹
Ġà¤Ĺ à¤¦à¤²
à¤· à¤ļà¤¤
à¤°à¤¦ à¤¶à¤°
à¤¨à¤® à¤ļ
Ġà¤®à¥ĺ à¤¬
Ġà¤Ĺ à¤²à¤¸
à¤· à¤¬à¤²
à¤®à¤¹ à¤ľ
à¤Łà¤°à¤ķ à¤²à¤°
à¤¤ à¤¤à¤°
à¤¦à¤¬ à¤°à¤¦
à¤ļà¤¡ à¤ĸ
Ġà¤§à¤°à¤® à¤µ
à¤ĩà¤Ł à¤ª
Ġà¤Ĩà¤ł à¤®
Ġà¤ıà¤¨à¤ıà¤« à¤ıà¤ļà¤ıà¤¸
à¤° à¤Ĩà¤¶
Ġà¤ľ à¤ĩà¤¬
à¤· à¤ªà¤¦
à¤£ à¤¤à¤¤
Ġà¤ķà¤® à¤°à¤ĸ
Ġà¤ĵ à¤¨à¤ķà¤°
Ġà¤ļà¤° à¤ªà¤°
à¤§à¤µ à¤¶
Ġà¥Ľ à¥Ľ
Ġà¤®à¤¨ à¤®à¤¨
à¤° à¤ĩà¤¨
Ġà¤® à¤¯à¤ķ
à¤ıà¤¸à¤ıà¤¸ à¤ıà¤¸
à¤¹ à¥Ľ
Ġà¤® à¤ī
Ġà¤² à¤īà¤ķ
Ġà¤« à¤°à¤µ
à¤Ĥ à¤¼
Ġà¤ĸ à¤°à¤¹
Ġà¤Ĭ à¤Ń
Ġà¤®à¤ľ à¤¹
à¤ķà¤Ł à¤µ
à¤ª à¤¦à¤¨
à¤¤à¤° à¤Ĩà¤¤
Ġà¤Ľ à¤£
Ġà¥©à¥Ń à¥¯
Ġà¤¸ à¤ĸà¤¤
Ġà¤Ī à¤Łà¤°
à¤Ĭ à¤¬
Ġà¤²à¤² à¤ı
Ġà¤ıà¤¨à¤ıà¤ļ à¤¬
Ġà¤² à¤²à¤µ
Ġà¤¶ à¤®à¤°
à¤¦à¤° à¤¯
Ġà¤ªà¤¦ à¤¤
Ġà¤ıà¤¯à¤° à¤¶
à¤ķà¤ľà¤¨ à¤¶à¤ķ
Ġà¤ıà¤ķ à¤¶
à¤§à¤¨ à¤°
Ġà¤¬à¥ľ à¤ľ
à¤ļ à¤ªà¤¨
à¤ĸ à¤ıà¤ķ
à¤ĩ à¤ªà¤°à¤¹
à¤ľà¤² à¤¦
Ġà¤Ĺà¤²à¤¤ à¤«
Ġà¤ıà¤¨à¤ı à¤ļà¤ķ
à¤¹ à¤ľà¤®
à¤ľ à¤²à¤¤
à¤Ĺà¤² à¤¬à¤¨
Ġà¤Ĩà¤Īà¤Ĩà¤° à¤ľ
à¤° à¤ħà¤ªà¤¨
Ġà¤ķà¤²à¤° à¤ĵà¤ıà¤¸
à¤Ł à¤ħà¤Ĺà¤²
à¤¨ à¤«à¤²
Ġà¤¨ à¤Łà¤¨
Ġà¤ħ à¤¦à¤µ
à¤¡à¤ķ à¤±
à¤Ł à¤µà¤ķ
à¤®à¤° à¤ª
à¤¸ à¤ĺà¤°
Ġà¤¸ à¤ĸà¤²
à¤ªà¤° à¤ĵà¤µà¤°
à¤®à¤² à¤¡
à¤¤ à¤¦à¤¨
à¤² à¤·
Ġà¤¶ à¤·
à¤° à¤ħà¤®
à¤¬ à¤ķà¤µ
à¤Ľ à¤²à¤ķ
à¤²à¤¬ à¤ľà¤Ł
Ġà¤ĸ à¤²à¤ķ
Ġà¤ĵ à¤ıà¤¸à¤¸
à¤¡à¤² à¤Ĺà¥Ŀ
à¤ªà¤¸ à¤ª
à¤Ĺà¤° à¤®à¤²
à¤²à¤¬ à¤ķ
à¥Ľ à¤¨à¤²
à¤¯à¤£ à¤Ĺ
Ġà¤® à¤°à¤ķà¤¤
Ġà¤ª à¤ªà¤¨
Ġà¤¤ à¤¨à¤¨
à¤¹à¤¬ à¤¦
Ġà¤® à¤¸à¤¨à¤µ
à¤ĸ à¤ĩà¤¸
Ġà¥§à¥¯à¥¨ à¥®
à¤ķ à¤®à¤¯
Ġà¤¸à¤¬ à¤ªà¤°
Ġà¤ĳ à¤°à¤¬
Ġà¤ĺà¤° à¤²
Ġà¤¨ à¤µà¤²à¤ªà¤°
Ġà¤ľ à¤°à¤®à¤¨
à¤·à¤£ à¤¶
à¤²à¤² à¤²
à¤µ à¤ĩà¤¸
à¤²à¤¬ à¤Ĺà¥Ŀ
à¤ľ à¤©
Ġà¤¶à¤¹à¤° à¤ªà¤¨
à¤®à¤² à¤Ĺ
à¤ĩà¤« à¤ķ
Ġà¤ħà¤² à¤ķà¤¤à¤°
à¤²à¤¯ à¤ª
Ġà¤ķà¤¨à¤ķ à¤¦
Ġà¤¤à¥ĺ à¤²
à¤¡à¤¨à¤¸ à¤¡
Ġà¤ķ à¤¬à¤²
Ġà¤Ń à¤ļ
à¤ĩ à¤²à¤¬
Ġà¤¹à¤° à¤ļà¤°à¤£
Ġà¤¿à¤Ĥ à¤Ĥ
Ġà¤ķ à¤ıà¤¨
Ġà¤¥ à¤¶
à¤ħ à¤°à¤²
Ġà¤ıà¤¨à¤ıà¤® à¤Ĩà¤°à¤¸
Ġà¤ĸà¤°à¤¤ à¤°à¤Ĺà¤ļ
à¤² à¤¸à¤¸
Ġà¤¨ à¤ªà¤¤
à¤Ĭ à¤ļ
à¤² à¤®à¤²
à¤¶ à¤¬à¤°
à¤ªà¤° à¤ĸ
à¤¨à¤¯ à¤ľ
à¤ıà¤¸à¤Ĩà¤Ī à¤Ĩà¤Īà¤¡
Ġà¤« à¤¡à¤¨
Ġà¤Ľ à¤Ľà¤°
Ġà¤®à¤¨ à¤¹à¤°à¤£
à¤¨ à¤Ĩà¤¸
à¥Ľ à¥Ļ
Ġà¤ķà¤ĩà¤² à¤ķà¤ĩ
Ġà¤® à¤¦à¤µ
à¤°à¤¸ à¤¬
à¤ħ à¤°à¤®
à¤¤à¤® à¤£
Ġà¤¸à¤¦ à¤²
Ġà¤µà¤ľà¤¹ à¤¸
Ġà¤§à¤°à¤® à¤ľà¤¯à¤Ĺà¤¢
Ġà¤¨ à¤Ĺà¤ª
Ġà¤ıà¤¸ à¤ıà¤«à¤ıà¤¸
Ġà¤®à¤¶ à¤°à¤ķ
Ġà¤ıà¤« à¤ıà¤¸à¤¸
Ġà¤Ĩà¤ī à¤ļ
Ġà¤Ńà¤° à¤¹
Ġà¤ıà¤ļ à¤ıà¤®à¤µ
Ġà¤ī à¤¹à¤¦
à¤¤à¤° à¤¦à¤¶
Ġà¤ľà¤² à¤¸à¤®
à¤¶ à¤µà¤ķ
à¤Ī à¤ħà¤ª
à¤ıà¤® à¤ıà¤®à¤ı
Ġà¤ıà¤«à¤ı à¤²à¤µ
à¤ĩà¤¡ à¤ķ
à¤· à¤¯à¤¤
à¤ĩà¤¡ à¤ĩà¤«
Ġà¤ıà¤ļ à¤Ī
à¤ıà¤ļ à¤¡à¤¬
Ġà¤ıà¤®à¤ıà¤¨à¤Ĩà¤° à¤Ī
Ġà¤Ĺ à¤¡à¤µ
Ġà¤Ī à¤§à¤°
à¤¨à¤² à¤®
à¤Łà¤¸ à¤ħà¤ª
à¤ĩà¤ªà¤° à¤Ĺ
à¤Ń à¤¨à¤¦
à¤ªà¤¥ à¤Ĺ
à¤¹à¤°à¤¤ à¤Ĺà¥Ŀ
Ġà¤ļ à¤µà¤°
à¤ķà¤° à¤¦à¤¯
Ġà¤īà¤ľ à¤°à¤¤
à¤ĩà¤¬à¤° à¤ª
à¤ķ à¤ıà¤¶
à¤® à¤¯à¤®
à¤² à¤ķà¤¸
Ġà¤® à¤ĩà¤ķ
Ġà¤ıà¤¸ à¤ıà¤Ī
Ġà¤¬à¥ľ à¤¨à¤Ĺà¤°
Ġà¤¸à¤¤à¤° à¤¹
à¤µ à¤¬à¤²
Ġà¤¬ à¤¥à¤¨
Ġà¤Ĩà¤Ĺ à¤¨à¤¬
à¤¸à¤¬ à¤¤
à¤ĩ à¤ıà¤²
Ġà¤¤à¤ķ à¤ķ
Ġà¤ħà¤µ à¤ĺ
à¤ķà¤® à¤¬à¤ĸ
à¤µà¤° à¤µà¤°à¤®
à¤ł à¤²à¤¨
Ġà¤¸à¤ª à¤²
Ġà¤ıà¤« à¤ıà¤²à¤¸
Ġà¤ħà¤¨à¤µà¤° à¤Ĺ
Ġà¤¦à¤®à¤ķ à¤¨
à¤®à¤ħ à¤µà¤§
Ġà¤² à¤Ńà¤¤
Ġà¤®à¤¹ à¤²à¤¨
Ġà¤ıà¤Łà¤¨ à¤¬à¤°
Ġà¤¤ à¥Ľ
Ġà¤¸à¤® à¤ĩ
Ġà¤Ŀ à¤ĸ
Ġà¤ıà¤¸ à¤ıà¤«à¤ª
à¤Ĭ à¤£
Ġà¤ĸà¤¬à¤° à¤Ł
Ġà¤Ĭà¤¬ à¤ķà¤°
à¤ª à¤«à¤²
Ġà¤ħ à¤¹à¤¤
à¤¬ à¤¤à¤°
à¤¹à¤¨ à¤ĸ
Ġà¤µ à¤ľà¤¯
Ġà¤° à¤Ļ
à¤ĸ à¤²à¤ķ
à¤« à¤£
à¤ıà¤¸ à¤®
à¤³ à¤®
Ġà¤ıà¤ħ à¤°à¤«
à¤¨ à¤ħà¤§
Ġà¤īà¤® à¤¦
à¤¨à¤ª à¤¦
Ġà¤¶à¤« à¤ķà¤¤
à¤ıà¤¸à¤ĵ à¤ıà¤¨
Ġà¤ıà¥ŀ à¤Ĩà¤Īà¤Ĩà¤°
à¤° à¤Łà¤¨
Ġà¤Ī à¤Ĩà¤Ī
à¤¯à¤ª à¤Ł
Ġà¤¨à¤ı à¤ªà¤¨
Ġà¤¿ à¥Ī
à¤Ĩà¤Īà¤ı à¤ıà¤²
à¤Ĺ à¤¹à¤²
Ġà¤¡ à¤¨à¤²à¤ª
à¤Ĩ à¤ĩà¤®
Ġà¤ĵ à¤°à¤¨
Ġà¤²à¤® à¤¹à¤°
Ġà¤ķà¤¨à¤ķ à¤§
Ġà¥§à¥¯à¥¨ à¥©
à¤« à¤²à¤°
à¤°à¤£ à¤°
à¤¹à¤¤ à¤Ńà¤°
à¤ħà¤¦ à¤°à¤ķ
Ġà¤ķà¤°à¤® à¤ļà¤¨
Ġà¤ķ à¤¨à¤°
à¤ĸ à¤°à¤µ
à¤¯à¤¨ à¤ĳà¤¯à¤²
à¤Łà¤ķ à¤µ
à¤ķà¤¨ à¤µ
à¤ªà¤£ à¤¤
Ġà¥ŀ à¥Ľà¤²
Ġà¤ıà¤ļ à¤Ĩà¤°à¤¸
à¤µ à¤ı
Ġà¤ħ à¤Ľà¤²
Ġà¤¤ à¤¶à¤µ
Ġà¤¸à¤° à¤Ī
à¤¨à¤¤ à¤ª
à¤Ĺà¤° à¤°
Ġà¤Ī à¤Ĩà¤°à¤¸
à¤°à¤ķà¤° à¤µ
Ġà¥§à¥© à¥Ń
Ġà¤¯ à¤§à¤ª
Ġà¤ı à¤Ĩà¤Īà¤ı
Ġà¤¶ à¤«à¤²
Ġà¤ĺ à¤°à¤¤
Ġà¤¸à¤¦ à¤Ĺà¤¤
à¤Ĩ à¤±
Ġà¤ķà¤µ à¤ł
à¤¯ à¤ľà¤ª
Ġà¤¯ à¤Ł
Ġà¤ħà¤ĸ à¤°à¤¨
à¤®à¤µ à¤¤à¤¨
Ġà¤Ĺ à¤Ĺà¤¹
à¤¸à¤® à¤£
à¤Ĩà¤Ī à¤Ĩà¤°à¤¸
Ġà¤¢ à¤²à¤ķ
Ġà¤® à¤¯à¤¨
à¤Łà¤² à¤µ
à¤ĸ à¤ĩ
à¤¸à¤² à¤ķ
Ġà¤ļà¤² à¤½
à¤ĩà¤² à¤¶
à¤° à¤ĩà¤°
Ġà¤¹à¤ł à¤ª
à¤ªà¤ªà¤ªà¤ª à¤ªà¤ªà¤ªà¤ª
à¤° à¤Ĩà¤¯
à¤¤ à¤ħà¤¨
Ġà¤° à¤ķà¤°
à¤· à¤¸à¤¤
Ġà¤µà¤° à¤µ
Ġà¤ļà¤² à¤¯
à¤§ à¤ķà¤²
à¤²à¤¨ à¤¦
Ġà¤Ŀ à¤¡à¤¨
Ġà¤£ à¤¤
à¤¹à¤° à¤ļ
à¤¹à¤° à¤ĸ
à¤ªà¤° à¤¶
à¤Ĩà¤ĩ à¤Ĩà¤ĩ
Ġà¥¨à¥© à¥¦
à¤Ĺ à¤ķà¤¨
Ġà¤ĸ à¤Łà¤²
Ġà¤¹à¤® à¤¶à¤ķà¤²
à¤ªà¤¸ à¤¹
à¤ıà¤®à¤ĵ à¤ıà¤¸
Ġà¤ļ à¤³
Ġà¤¬à¤¨ à¤¹
Ġà¤ĵ à¤ªà¤¸
Ġà¤ľà¤²à¤® à¤¹à¤²
à¤ľ à¤ĩ
Ġà¤¸à¤¹ à¤¤à¤µ
Ġà¤Ĩà¤Īà¤ıà¤« à¤¡à¤¬
Ġà¤Ĭà¤² à¤ľà¤²
Ġà¤ĩ à¤°à¤¬
à¤µà¤° à¤¨à¤Ĺà¤°
à¤® à¤¹à¤¸
à¤² à¤¸à¤²à¤®
à¤¯ à¤¬à¤¦
Ġà¤¸ à¤°à¤®à¤¦
Ġà¤µ à¤³
à¤¡ à¤ĺà¤°
à¤ħ à¤²à¤¸
Ġà¤¸à¤®à¤Ŀ à¤²
Ġà¥§à¥¯à¥¦ à¥Ń
à¤® à¤ĺà¤¨
à¤¬ à¤Ľ
à¤ĸ à¤¸à¤°
Ġà¤Ī à¤ıà¤¸à¤ıà¤®
Ġà¥ļ à¤®à¤Ĺ
Ġà¤Ĩ à¤«à¤²
Ġà¤µà¤° à¤Ĺ
Ġà¤«à¤¨ à¤«à¤¨
Ġà¥¨à¥§ à¥¨
à¤¬ à¤¨à¤°
à¤Ĺà¤µà¤¤ à¤®à¤¹
à¤Ī à¤¡à¤¬
Ġà¤Ńà¤Ĺà¤µ à¤¦à¤Ĺ
Ġà¤¨à¤¦ à¤¬à¤Ī
à¤¹à¤¤ à¤¸
à¤°à¤¹ à¤°à¤¤
à¤°à¤µ à¤Ī
à¤Īà¤Ī à¤ĩ
¾ à¤¾à¤ģ
à¤ ¾à¤¾à¤ģ
Ġà¤®à¤Ĺ à¤¨à¤²
à¤ª à¤¸à¤°
Ġà¤¹ à¤¨à¤¤
Ġà¤ĵ à¥ŀ
à¤²à¤® à¤§
Ġà¥¨à¥¦à¥Ń à¥©
à¤¡ à¤Ĺà¤°
Ġà¤ªà¤° à¤¸à¤¦
Ġà¤ĸ à¤ķà¤°
à¤µà¤° à¤®à¤²
Ġà¤ħà¤® à¤¸
Ġà¤¦à¤²à¤µ à¤Ī
Ġ à¥Ģà¤Ĥ
à¤¨ à¤ħà¤²
à¤Ī à¤Ĺà¤¢
à¤£ à¤ķà¤²
Ġà¤Ī à¤ĵà¤¡
à¤µà¤ª à¤Łà¤²
Ġà¤ı à¤Īà¤¸
Ġà¤ķà¤¹ à¤¯
Ġà¤¸à¤¹ à¤ľà¤µ
Ġà¤§ à¤°à¤ķ
Ġà¤ĵ à¤²à¤ª
Ġà¤ħà¤Ń à¤¯à¤¸
à¤¤à¤® à¤ĩà¤¨
à¤® à¤ī
à¤¯ à¥ŀ
Ġà¤¦ à¤ĸà¤¨
Ġà¤¿ à¥ģ
Ġà¤ĵà¤ªà¤¨ à¤¬
Ġà¤µà¤² à¤ªà¤°
à¤ļ à¤¦à¤¶
à¤ķà¤° à¤ļ
Ġà¤®à¤° à¤¡
à¤ıà¤ļ à¤Īà¤ı
Ġà¤ıà¤Ĩà¤Ī à¤ıà¤«
à¤² à¤ľà¤°
Ġà¤ľà¤° à¤¬
à¤ķà¤²à¤¨ à¤ķà¤°
à¤¨ à¤¯à¤¤
à¤¯à¤² à¤Ĺ
à¤ħ à¤¹à¤®
à¤ªà¤ķ à¤®
à¤ı à¤¬à¤¡
Ġà¤ı à¤¤à¤¤
Ġà¤¶ à¤¤à¤¨
Ġà¤Ĳ à¤ķà¤¸
à¥ŀ à¤°à¤®
Ġà¤µà¤¨ à¤ĸà¤£
à¤¦ à¤ªà¤¤
à¤§ à¤µà¤¨à¤Ĺà¤°
à¤Ī à¤Ĩà¤°à¤¡
à¤£ à¤¬à¤¨
à¤Ĭ à¤ķ
Ġà¤Ĳà¤¤ à¤¹
Ġà¤Ĩà¤Īà¤Ĩà¤Ī à¤ıà¤«à¤Ł
à¤¬ à¥Ŀ
Ġà¤¤ à¤¹à¤¨
à¤Ľ à¤£
à¤¨à¤¤ à¤ķ
Ġà¤ĸà¤¬à¤° à¤ļ
Ġà¤ķà¤¥ à¤°
Ġà¤²à¤¶ à¤ķà¤°
Ġà¤ªà¤° à¤·
à¤ķà¤¡ à¤®
à¤®à¤¦ à¤¶
Ġà¤¿ à¤¿
Ġà¥§à¥¯à¥§ à¥Ń
à¤¦ à¤¸à¤®
à¤Ł à¤¹à¤¬
Ġà¤Ķà¤° à¤ľ
à¤¥ à¤³
Ġà¤ķà¤¹ à¤½
Ġà¤µà¤° à¤²à¤ķ
à¤¯à¤¤ à¤¸
Ġà¤Ĩà¤µ à¤£
à¤ıà¤ļ à¤ıà¤®à¤¸
à¤Ĺà¤¬ à¤ľà¤Ł
à¤¸ à¤Ļ
à¤ĸ à¤ıà¤¡
à¤µà¤°à¤£ à¤Ĩà¤¤
Ġà¤ıà¤« à¤Ĩà¤°à¤¬
à¤²à¤¹ à¤ª
Ġà¤²à¤ļ à¤ķà¤¤
Ġà¤ªà¤° à¤¥
Ġà¤¬à¤¡ à¤¬
à¤¬à¤² à¤¬
Ġà¤ıà¤¨à¤ıà¤ļ à¤Ĩà¤Ī
Ġà¤¹ à¤¬à¤°
à¤ĵ à¤°à¤²
Ġà¤®à¤Ĺ à¤«
à¤§à¤¨ à¤¸à¤Ń
à¤°à¤« à¤²à¤ķ
Ġà¤ıà¤« à¤ıà¤®à¤ıà¤¸
Ġà¤ĸ à¤Łà¤µ
Ġà¤ľà¤¨ à¤ĺ
Ġà¤¸à¤° à¤¶
Ġà¤ľà¤° à¤¯
à¤µ à¤ªà¤¨à¤¦
à¤¦ à¤¹à¤¸
à¤Ń à¤µà¤ķ
Ġà¤ħà¤Ń à¤¯à¤ª
à¤® à¥ŀ
Ġà¤ħà¤² à¤¸à¤°
à¤ŀ à¤°
Ġà¤¸à¤¤ à¤¶
Ġà¤ľà¤¤ à¤¯
Ġà¤Ķ à¤ĺ
Ġà¤ĩà¤Ł à¤ĸ
Ġà¥§à¥ª à¥¦à¥¦
Ġà¤° à¤®à¤ª
Ġà¤ı à¤Łà¤µ
Ġà¤ĵ à¤ĵ
Ġà¤ľà¤° à¤²
à¤¥à¤® à¤Ĺ
Ġà¤¬à¤°à¤® à¤ķ
Ġà¤¦ à¤¸à¤¨
Ġà¤ĩ à¤ľà¤®
Ġà¤Ľ à¤¬à¤¡
Ġà¤ħà¤ªà¤ļ à¤¯à¤¨
à¤¨ à¤¨à¤®
à¤Ł à¤Ĩà¤¬
Ġà¤ħ à¤Ĩà¤¹
à¤§ à¤µà¤¸
à¤¨à¤ķ à¤Ł
Ġà¤¨à¤Ī à¤¨
Ġà¤®à¤²à¤¤ à¤¬
à¤¹à¤²à¤µ à¤¶
à¤¦ à¤ķà¤²
Ġà¤¶à¤° à¤°
à¤Ĺà¤® à¤¹
Ġà¤Īà¤ĵ à¤Ĩà¤Ī
à¤ıà¤® à¤ıà¤¨
Ġà¤²à¤ĸà¤¨à¤Ĭ à¤µ
Ġà¤ªà¤¸à¤° à¤¨
à¤¯ à¤¯à¤µ
à¤¶ à¤²à¤°
Ġà¤¤ à¤¦à¤ª
Ġà¤ªà¤¦ à¤¦à¤²
Ġà¤ĵà¤ªà¤¨ à¤µ
Ġà¤ıà¤¨à¤Ĩà¤° à¤ıà¤Ĩà¤Ī
à¤¤ à¤ħà¤²
à¤°à¤¨ à¤µà¤Ĺ
Ġà¤°à¤ĸ à¤¬
Ġà¤ĵ à¤ıà¤®à¤ľ
Ġà¤ıà¤ļ à¤ĩà¤¸
Ġà¤Ĳ à¤ªà¤£
Ġà¤µà¤° à¤ª
à¤ĩà¤¨ à¤¡
à¤®à¤¸ à¤ľ
Ġà¤¯à¤¶ à¤Ĺ
Ġà¤«à¥ľ à¤£à¤µ
Ġà¤²à¤Ĺ à¤¬
Ġà¤ĩà¤¨ à¤¨
à¤¤à¤¨ à¤§à¤°
Ġà¤ħà¤° à¤¨à¤ª
Ġà¤ķà¤² à¤¶à¤¯
Ġà¤ħà¤¹ à¤ľ
Ġà¤« à¤Łà¤ķà¤°
Ġà¤ľà¤Ĺ à¤ķà¤°
Ġà¤¨à¤ľà¤° à¤¬à¤¨
Ġà¤ľà¤Ĺà¤° à¤Ĺ
à¤²à¤¨ à¤Ĺ
à¥Ŀ à¤®
à¤ľà¤¯ à¤ªà¤¤
à¤°à¤Ĺ à¤¸
à¤°à¤° à¤°à¤°
Ġà¤¶à¤°à¤£ à¤¦
à¤¤ à¤¶à¤°
à¤ĩ à¤ªà¤¸
Ġà¤ħà¤¨ à¤¦à¤°
à¤¦à¤ķ à¤®
Ġà¤ĩà¤® à¤ª
Ġà¤¡ à¤Ń
à¤¹à¤¨ à¤Ĺà¤¢
à¤¦à¤¬ à¤ĸ
Ġà¤Ńà¤°à¤¤ à¤°
Ġà¤¹ à¤¨à¤µ
Ġà¤ª à¤½
Ġà¤Ī à¤ıà¤®à¤Ł
à¤¶ à¤Ĩà¤¯à¤²
Ġà¤ı à¤¶à¤¨
Ġà¤ıà¤¸ à¤Ĩà¤°à¤ıà¤²
Ġà¤ĩà¤ķ à¤¦
Ġà¤ľà¤¬à¤°à¤¦ à¤¸à¤¤
Ġà¤Ķ à¥ĺ
à¤· à¤¯à¤¨
Ġà¤¯ à¤°à¤§
à¤ī à¤¦à¤ª
à¤¯ à¤¶à¤µ
Ġà¤¸ à¤Ĺà¤¤
Ġà¤¨ à¤¸à¤¤
Ġà¤Ĺ à¤¦à¤¦
Ġà¤ıà¤¨ à¤ıà¤¡
Ġà¤¤ à¤¡à¤µ
Ġà¤ªà¤¹ à¤ļà¤¨
Ġà¤¨à¥Ľ à¤®
à¤Ĺ à¤īà¤°
à¤Ī à¤®à¤¨
à¤Ī à¤ıà¤ļ
Ġà¤Ĩà¤Ĩ à¤ħà¤¹
Ġà¤® à¤²à¤°
Ġà¤¹à¤® à¤¤
Ġà¤Ľ à¤ľà¤²
Ġà¤ħà¤¸ à¤ķà¤°
Ġà¤ªà¤¡ à¤µ
Ġà¤®à¤°à¤¦ à¤¹
Ġà¤ķ à¤ĩà¤¤
Ġà¤ķà¤¹ à¤²à¤¸
Ġà¤ıà¤¸ à¤ıà¤¸à¤Ī
à¤¯à¤µ à¤¦
à¤°à¤ľ à¤Ĺà¤¢
à¤īà¤¨ à¤«
à¤ª à¤Ĭ
Ġà¤¨ à¤½
à¤Ī à¤¦à¤®
Ġà¤°à¤¹ à¤ĩ
Ġà¤ħà¤¶ à¤¦
à¤Ī à¤ªà¤°à¤Ł
à¥Į à¥ĩ
à¤²à¤µ à¤ª
Ġà¤¹à¤°à¤¸ à¤®
à¤ķ à¤®à¤ļ
Ġà¤ı à¤ıà¤®à¤¬
à¤ī à¤ªà¤¹
Ġà¥ļ à¤¨
Ġà¤¬ à¤¸à¤¦
à¤¥ à¤¦à¤°
Ġà¤Ľ à¤¨à¤¤
Ġà¤ļà¤°à¤£ à¤µ
Ġà¥ĺ à¤²
à¤¹ à¤ªà¤ķ
à¤Ĺ à¤ļà¤°
Ġà¤ĵ à¤ıà¤¸à¤ı
Ġà¤Ĩà¤² à¤Ĩà¤īà¤Ł
Ġà¤¸à¤°à¤ªà¤¤ à¤¹
à¤ĩà¤² à¤µà¤°
Ġà¤¢ à¤Ĺ
à¤³ à¤ľ
à¤® à¤ľà¤²
Ġà¤Ľ à¤¤à¤¨
à¤¸à¤® à¤ª
Ġà¤Ī à¤§
Ġà¤Ķà¤° à¤¯
Ġà¤§ à¤®à¤¦
Ġà¤µà¤° à¤¯
Ġà¤Ĺà¤ľà¤¬ à¤¬
à¤ħ à¤¸à¤¦
Ġà¤ĵà¤ªà¤¨ à¤µà¤°
Ġà¤ķà¤°à¤² à¤½
Ġà¤ķà¤°à¤¨ à¤¨
à¤¯à¤° à¤ľ
Ġà¤ıà¤Ĩà¤Ī à¤ıà¤¸
Ġà¤ľ à¤Łà¤µ
Ġà¤ĵ à¤°à¤ķ
Ġà¤īà¤¦ à¤¯à¤®
Ġà¤ıà¤¨à¤Ĩà¤Ī à¤Ĩà¤Īà¤Ł
Ġà¤²à¤Ľ à¤®à¤¨
à¤¦ à¤Ĩà¤¹
à¤¡ à¤¸à¤µ
à¤°à¤µà¤ļà¤¨ à¤¬
Ġà¤°à¤¹ à¤°
Ġà¤ħà¤ķ à¤¶
à¤¸à¤®à¤¸ à¤Ĺ
à¤ı à¤Ĩà¤°à¤ª
à¤Ĩ à¥ľ
à¤¨à¤µ à¤£
à¤ĩà¤« à¤¯
Ġà¤± à¤ĸ
à¤² à¤¯à¤¤
Ġà¤® à¤®à¤¦
à¤ľ à¤®à¤¨à¤Ĺ
Ġà¤Ĺ à¥Ł
Ġà¤Ĩà¤¯ à¤µà¤°
à¤¬à¤² à¤¡
à¤¸à¤¦ à¤ķà¤°
Ġà¤¸à¤¨ à¤ħà¤¤
à¤¯à¤® à¤ªà¤°à¤®
Ġà¤®à¤¨ à¤Ĺ
Ġà¤Ĩà¤® à¤¸
Ġà¤¬à¥ľ à¤¨
Ġà¤ļà¤° à¤ª
à¤Łà¤® à¤¹
à¤¥à¤² à¤®à¤§
Ġà¤Īà¤Ĩà¤° à¤¡à¤¬
à¤¤ à¤¸à¤ķ
Ġà¤¨ à¤°à¤¶
Ġà¤ľà¤¨ à¤¦
à¤Łà¤¨ à¤ķà¤°
Ġà¤¹à¤° à¥ĺà¤¤
Ġà¤ļà¤¯à¤¨ à¤ħà¤¨
à¤µ à¤Īà¤¯
à¤¯à¤ķ à¤ļà¤°
Ġà¤ħà¤² à¤Ń
Ġà¤Ĩà¤° à¤Ĩà¤Īà¤¸
à¤¶à¤² à¤¸à¤®
Ġà¤ıà¤¨ à¤ıà¤«à¤ĵ
à¥Ļ à¤¡
Ġà¤ķ à¤ī
Ġà¤¸à¤®à¤¯ à¤¦
Ġà¤¤à¤¨ à¥Ļ
Ġà¥§à¥¯à¥¦ à¥«
à¤¸ à¤¸à¤¨
à¤¤ à¤ıà¤ķ
Ġà¤µ à¤¤à¤°
Ġà¤Ĩ à¤łà¤¨
Ġà¤¤à¤° à¤¨à¤ľ
à¤¯à¤¦ à¤ķ
Ġà¤ħà¤¸à¤® à¤¸
à¤ķà¤ķ à¤ķ
Ġà¥§à¥© à¥¨
à¤¸à¤µà¤¨ à¤µà¤°
Ġà¤ª à¤¥à¤¨
à¤¬ à¤ıà¤¶
Ġà¤¶ à¤¨à¤°
Ġà¤ĩà¤¨ à¥ŀ
à¤®à¤¬ à¤Ĺà¤¡
Ġà¤¹à¤µà¤¨ à¤ķ
à¤Ńà¤Ĺà¤µ à¤¦à¤Ĺ
à¥įà¥Ģ à¥Ģà¥ĩ
à¥į à¥ĭà¤Ĥ
Ġà¤ħà¤ļ à¤²à¤Ĺ
à¤ĩà¤® à¤¸à¤®
à¥® à¥¦à¥¦
à¤Ĺà¤ª à¤¹
Ġà¤¶à¤¹à¤¨ à¤¶
Ġà¤ħà¤§ à¤¯
Ġà¤ħà¤ļ à¤ķ
à¤¨à¤¨ à¥Ľ
Ġà¤¸à¤µ à¤¯
à¤¤à¤µ à¤¹à¤°
à¤¡ à¤īà¤ªà¤µ
à¤ł à¤ķà¤¨
Ġà¤ħà¤ª à¤łà¤¨
à¤¶à¤² à¤Ĩà¤²
Ġà¤ĸà¤¬à¤° à¤¨à¤µ
Ġà¤ĸà¤¬à¤° à¤ªà¤¹
Ġà¤¨à¤µà¤² à¤ª
à¤² à¤ī
Ġà¤¹ à¤¨à¤®
à¤¦ à¤Ĩà¤Īà¤¨
Ġà¤¦ à¤Ĺà¥ľ
Ġà¤¡ à¤Ńà¤°
à¤ĺ à¤°à¤µ
à¤¦à¤® à¤ľà¤®
Ġà¤ĸà¤¬à¤° à¤²à¤°
à¤¥à¤¨ à¤ĵà¤¶
à¤¬à¤¹ à¤¸à¤ª
Ġà¤ħà¤µà¤¸à¤° à¤®à¤¨à¤ªà¤¸
Ġà¤ħà¤¹ à¤®à¤¤
à¤¯à¤Łà¤¨ à¤¸à¤®
Ġà¤Ń à¤¨à¤µ
Ġà¤« à¤±
à¤ķà¤¸ à¤Ĩà¤²
à¤ļà¤ķ à¤ĳà¤Ł
à¤¨à¤¸à¤° à¤®à¤ľ
Ġà¤ħà¤¦à¤¬ à¤Ĩà¤ľ
à¤¤à¤ĩ à¤ľà¤¹
à¤Īà¤¦à¤® à¤ķà¤°
Ġà¤µ à¤ŀ
à¤° à¤ĳà¤°
Ġà¤¸ à¤ľà¤°
Ġà¤ľ à¤ĩ
Ġà¤¸à¤¬ à¤¤
Ġà¤Ī à¤ıà¤®à¤Ī
Ġà¤Ĩà¤Ĺ à¤ļ
Ġà¤§à¤¡ à¤ķà¤¤
Ġà¤© à¤Ī
Ġà¤¬ à¤īà¤µ
Ġà¤īà¤¦ à¤°à¤¸
à¤«à¤² à¤ľà¤¨
Ġà¤Ńà¤Ĺà¤¤ à¤ª
Ġà¤¬à¤°à¤¹ à¤Ł
à¤° à¤¯à¤ķ
à¤¯ à¤ī
Ġà¤° à¤¨à¤¸
à¤Ī à¤Ĩà¤ķ
Ġà¤®à¤¹ à¤®à¤¦à¤ª
à¤¨à¤¸ à¤¬
Ġà¤ıà¤¨ à¤Ĩà¤Īà¤Ĩà¤°à¤ıà¤«
Ġà¤ıà¤¨à¤ıà¤® à¤Ĩà¤°
Ġà¥§à¥¦à¥¦ à¥®
à¤Ĺ à¤ľà¤²
à¤· à¤®à¤¨
Ġà¥§à¥¬ à¥¦à¥¦
Ġà¤ĵà¤ıà¤¸ à¤ľ
Ġà¤Ĩà¤ľ à¤®à¤¨à¤Ĺà¤°
Ġà¤ıà¤Ĩà¤Ī à¤ķ
à¤¡ à¤µà¤ª
à¤¥à¤² à¤ļ
Ġà¤ıà¤ļ à¤ıà¤¸à¤ıà¤²
Ġà¤ħà¤¹ à¤²à¤ķ
Ġà¥§à¥¯à¥§ à¥®
à¤² à¤Ĺà¤¡
à¤ķà¤¤ à¤µ
Ġà¤¸à¤° à¥Ľà¤®
à¤Ĺà¤² à¤ľ
Ġà¤Ī à¤«
Ġà¤ıà¤¸ à¤Īà¤Ł
Ġà¤ıà¤ļ à¤ıà¤¸à¤Ī
à¤Ĺà¤¦ à¤¤
à¤¨à¤ļ à¤¶
à¤¯ à¤µà¤°à¤£
Ġà¤¬ à¤ħà¤Ľ
à¤¡ à¤Ĩà¤ĸ
à¤¨à¤µ à¤Ł
Ġà¥ŀ à¤¹à¤¦
Ġà¤ļà¤ķà¤° à¤¨à¤Ĺà¤°
à¤¦ à¤ĺà¤°
Ġà¤ı à¤¬à¤¸
Ġà¤īà¤ª à¤ªà¤¤
Ġà¤Ĳ à¤Łà¤®
à¤¤à¤® à¤Īà¤¨
Ġà¤¬à¤¦à¤² à¤²
Ġà¤ªà¤µà¤¨ à¤ļà¤ķ
Ġà¤ıà¤®à¤Ĩà¤Īà¤ıà¤² à¤ıà¤«
à¤ľ à¤ıà¤ķ
à¤¶ à¤¬à¤²
à¤ı à¤¹à¤¸
Ġà¤ı à¤ĩ
à¤ķà¤°à¤£ à¤µ
à¤® à¤īà¤¦
Ġà¤ľ à¤ľà¤¬
Ġà¤ħà¤¬ à¤µ
à¤µ à¤ıà¤ķ
à¤ĸ à¤īà¤¤
à¤°à¤£ à¤ıà¤²
à¤ľà¤ª à¤¦
Ġà¤ħ à¤ĩà¤¯
Ġà¤ªà¤° à¤µà¤¤
à¤¸à¤° à¤ķà¤°
à¤ī à¤²à¤°
Ġà¤Ī à¤¸à¤ª
Ġà¤ķà¤² à¤«
Ġà¤Ĩà¤Ĺ à¤£à¤¨
à¤ĩà¤« à¤Ĺ
à¤Ī à¤Ĺà¥Ŀ
à¤¯à¤ķ à¤ľ
à¤ī à¤·
Ġà¤ĺà¤° à¤¡
Ġà¤ħà¤« à¤¤
Ġà¤ĸà¤® à¤¤à¤°
à¤® à¤ĺà¤°
à¤¬à¤¡ à¤¤
à¤ķà¤« à¤¸
Ġà¥§à¥¯à¥¦ à¥¬
Ġà¤«à¤ĸ à¤°à¤ª
Ġà¤ĳ à¤®
à¤ĩà¤¨ à¤¯
Ġà¤ħà¤¸ à¤ªà¤¤
Ġà¤ıà¤®à¤ıà¤® à¤Ĩà¤°à¤¸
à¤ľà¤¨ à¤Ł
Ġà¤ħà¤Ń à¤¯à¤°
à¤¤à¤ķ à¤£à¤¸
Ġà¤ĩ à¥ĺà¤°
à¤¢ à¤£
à¤ħà¤« à¤µ
à¤¨à¤ª à¤¹à¤ļ
Ġà¤¸à¤®à¤¯à¤¸ à¤¬à¤¸
à¤¬ à¤½
à¤§ à¤¶à¤¤
à¤£à¤¨ à¤ĸ
Ġà¤ľà¤¯ à¤ķà¤°
Ġà¤ļà¤¯à¤¨ à¤¬
Ġà¤ĳà¤¸ à¤Łà¤°à¤²
à¤®à¤ľà¤¨ à¤®
à¤¨ à¤ľà¤¯
à¤¬ à¤ħ
Ġà¤ªà¤° à¤°à¤µ
à¤¯à¤ª à¤¥
Ġà¤§à¤°à¤® à¤ľà¤¯à¤Ĺà¥Ŀ
Ġà¥§à¥¯à¥¦ à¥¯
à¤· à¤²à¤Ĺ
à¤ıà¤® à¤ıà¤¨à¤ıà¤ķ
Ġà¤ıà¤¨à¤ıà¤¸ à¤¡à¤¬
à¤¸ à¤ıà¤¶
à¤Ĺ à¤ħ
à¤ļ à¤ĩà¤¤
Ġà¤Ķà¤° à¤«
à¤®à¤¤ à¤ķ
Ġà¤¤à¤Ł à¤ķà¤°
Ġà¤īà¤¹ à¤ĩ
Ġà¤ķà¤ĩà¤² à¤ķ
à¤£ à¤¯à¤ķ
Ġà¤²à¤² à¤¥à¤¨
Ġà¤ªà¤µà¤¨ à¤¹
Ġà¤«à¤¡ à¤«à¤¡
à¤ĵ à¤¡à¤¬
Ġà¤ľà¤¸ à¤ķà¤°à¤£
Ġà¤¨à¤¸ à¤¬à¤¨
à¤ķà¤ķà¤ķà¤ķ à¤ķà¤ķà¤ķà¤ķ
à¤µ à¤Ĩà¤ĸà¤°
à¤ļ à¤®à¤¤
Ġà¤Ĺ à¤°à¤¹
Ġà¤ī à¤Ļ
Ġà¤ĸ à¥ŀ
à¤°à¤ķà¤° à¤¨
Ġà¤ķà¥ľ à¤ķà¤¤
à¤µ à¤ĵ
à¤¥ à¤²à¤¨
à¤« à¤Ľ
à¤¡ à¤ķà¤Ł
Ġà¤ªà¤° à¤ªà¤°
Ġà¤ĸà¤° à¥ľ
Ġà¤Ĩà¤ĩ à¤ıà¤¨à¤ıà¤¸
Ġà¤ľà¤® à¤ľà¤®
Ġà¤§à¤¨ à¤ķà¤°
Ġà¤Łà¤¨ à¤Łà¤¨
à¤°à¤Ĺà¤² à¤°
à¤ķ à¤īà¤²
à¤ľà¤ª à¤Ī
Ġà¤Ĩà¤Īà¤ıà¤« à¤ı
à¤ıà¤²à¤ıà¤« à¤ıà¤¸
Ġà¤¤ à¥ľà¤¤
à¥® à¥¯
à¤¸ à¤ĸà¤¬à¤°
Ġà¤ĵ à¤¡à¤°
Ġà¤ħà¤ª à¤«
Ġà¥§à¥© à¥¬
Ġà¤Ĩà¤ľ à¤¦
Ġà¤ħà¤ķ à¤¬à¤ķ
à¤łà¤¨ à¤ª
Ġà¤² à¤Łà¤ķà¤°
à¤°à¤® à¤ªà¤°
à¤ľà¤² à¤¸
à¤Ĺ à¤Ķà¤°
à¤Ł à¤Ńà¤°
Ġà¤ħà¤² à¤ĸà¤¨
à¤ķà¤Ł à¤ļà¤²à¤®
à¤µà¤°à¤£ à¤ħà¤§
Ġà¤īà¤¤à¤° à¤¦
Ġà¤¨ à¤¦à¤°
Ġà¤ı à¤¹à¤²
à¤¹à¤° à¤¨à¤Ĺà¤°
à¤ľ à¤ħà¤ª
Ġà¤ªà¤° à¤®à¤°
à¤ĩ à¤ªà¤ķ
Ġà¤ħà¤¸ à¥ļà¤°
Ġà¥Ľ à¤°à¤¦
Ġà¥§à¥© à¥©
Ġà¤°à¤ĸ à¤¦
Ġà¤Ĩà¤ĩ à¤ıà¤®à¤ıà¤«
à¤® à¤¶à¤¨
Ġà¤ľà¤¨ à¤ħà¤§
à¤ª à¤ĺ
à¤· à¤¦à¤Ĺà¤£
Ġà¤ı à¤§
à¤¥ à¤ªà¤¨
à¤Ī à¤Ĩ
Ġà¤ĳ à¤¸à¤®
Ġà¥§à¥« à¥§
Ġà¤ĩ à¤µà¤°
Ġà¤¸à¤° à¤§
Ġà¤ıà¤µ à¤Ĺ
à¤Ĺ à¤ªà¤¨
à¤Ī à¤¸à¤¬
à¤¦à¤° à¤¡
Ġà¤īà¤ªà¤ķà¤°à¤£ à¤ķ
Ġà¤® à¥Ŀà¤¨
à¤ľà¤ª à¤°à¤ķ
à¤ıà¤« à¤¡à¤¬
Ġà¤Ĩà¤Īà¤ı à¤Ĩà¤°à¤Ĩà¤Ī
à¤®à¤¨ à¤¥à¤ª
à¤® à¤¡à¤¨
à¤ı à¤¸à¤°
Ġà¤Ķ à¤ĺà¥ľ
Ġà¤¶ à¤¤à¤ļ
Ġà¤ħà¤¨ à¤ĸ
Ġà¤ħà¤§ à¤¬
Ġà¤ĳ à¤ªà¤¨
Ġà¤Ĩà¤¬ à¤¯
Ġà¤²à¤°à¤ľ à¤¤
à¤Ĺ à¤¨à¤¨
à¤Łà¤¨ à¤²
Ġà¤ĸà¤° à¤Ĺà¤ª
à¤¦à¤µ à¤ľ
Ġà¤ªà¤¤ à¤ŀ
à¤¸à¤® à¤¦
à¤·à¤ķ à¤ľ
Ġà¤ļà¤¯à¤¨ à¤¯
à¤¸ à¤µà¤ª
à¤ª à¤¯à¤¤
Ġà¤¹ à¤Łà¤²
Ġà¤¨ à¤§
Ġà¤ı à¤Ĩà¤ĩà¤¸
Ġà¤ĺ à¤ŀ
à¤°à¤¹ à¤ļ
à¤Łà¤ķ à¤µà¤°
à¤µà¤ľ à¤¦
Ġà¤Ĩà¤ĩ à¤ľà¤¨à¤¹
Ġà¤¥ à¥ľ
Ġà¤ĸ à¤§
à¥ĥ à¤ģ
à¤¨à¤ķ à¤ªà¤¡
à¤īà¤¨ à¤¬
Ġà¤°à¤ĺ à¤¬
Ġà¥§à¥¬ à¥¯
Ġà¥§à¥¦à¥® à¥¦
à¤µ à¤«à¤²
à¤ľ à¤±
Ġà¤ī à¤ķà¤°
à¤· à¤°à¤ķ
à¤Ī à¤¶à¤°
Ġà¤ħà¤¤ à¤¤
à¤®à¤ļ à¤Łà¤ķ
à¤ıà¤¸à¤ıà¤¸ à¤Ī
Ġà¤Ĩà¤ĩ à¤ıà¤®
à¤Ł à¤¹à¤®
Ġà¤¡ à¤¸à¤¤
Ġà¤Ĩà¤° à¤ıà¤®à¤ª
à¤Ĩà¤° à¤ıà¤ļ
à¤¦à¤¯ à¤Ĺ
à¤° à¤ħà¤°
Ġà¤² à¤ļà¤¸
à¤· à¤ĵ
Ġà¤ªà¤¹ à¤¡
Ġà¤ķà¤® à¤²à¤¸
à¤°à¤¹ à¤®à¤ļ
à¤¯à¤ª à¤¶
Ġà¤ıà¤² à¤ıà¤®à¤Ł
Ġà¤· à¤¨
Ġà¤ĵ à¤Ĩà¤°à¤µ
Ġà¤¹à¤° à¤¶
à¤Ĺà¤ł à¤¬à¤¨
à¤¯ à¤ł
Ġà¤¤ à¥Ľà¤ķ
Ġà¤Ł à¤«à¤Ł
Ġà¤Ĩà¤ª à¤¶
à¤¼à¥Ģ à¤ĥ
à¤²à¤¯ à¤Ł
Ġà¤Ĩà¤ĩ à¤Ĩà¤ĩ
Ġà¤Ĩ à¤īà¤¤
à¤ļ à¤¥
Ġà¤Ń à¤Ĺà¤®
Ġà¤ħà¤§ à¤¯à¤ķ
Ġà¤Ĳ à¤®à¤¨
à¥ ł
à¤¬ à¤¦à¤¸
à¤¥ à¤ıà¤¶
à¤ķà¤° à¤Ń
à¤°à¤¨ à¤Ī
à¤īà¤¨ à¤¡
Ġà¤īà¤ª à¤¶à¤®
à¤¨à¤° à¤¬
à¤ļà¤® à¤ķà¤¤
à¤ıà¤¸à¤ıà¤² à¤ª
à¤¤ à¤¬à¤¹
Ġà¤ª à¤łà¤ķ
Ġà¤¦ à¤¸à¤¤
à¤°à¤¦ à¤ª
Ġà¤Ńà¤° à¤¥
Ġà¤ıà¤² à¤ıà¤¨à¤Ł
Ġà¤¦ à¤ħ
Ġà¤µ à¤Ńà¤°
Ġà¤ıà¤¨ à¤ıà¤²à¤ª
à¤ıà¤¨ à¤Īà¤¬
Ġà¥§à¥® à¥¬à¥¦
Ġà¤¯ à¤¶à¤¦
Ġà¤ķà¤¯ à¤²à¤¨
Ġà¤² à¤µà¤ľ
Ġà¤¤à¤ķ à¤µ
Ġà¤ļà¤° à¤²
Ġà¤ľà¤¯ à¤ķà¤°à¤£
à¤¸à¤ļ à¤®
à¤¬ à¤¥
Ġà¤¬à¤° à¤¸à¤°
Ġà¤Ĺà¤¢ à¤©
à¤¤ à¤¹à¤¦
à¤ı à¤ĸ
à¤ĸ à¤¯à¤®
Ġà¤ķà¤Ł à¥ľ
à¤µ à¤ĵà¤²
Ġà¤Ķà¤° à¤¹
Ġà¤¸à¤®à¤¯ à¤§
à¤²à¤° à¤ĳà¤¸
à¤ªà¤® à¤£
Ġà¤¤à¤°à¤ķ à¤¸
Ġà¤¬à¥Ŀà¤ļà¥Ŀ à¤ķà¤°
Ġà¤¬ à¤Īà¤®
à¤« à¤°à¤¹
Ġà¤Ĭ à¤¬à¤¤
à¤¯à¤¸ à¤°à¤ķ
à¤Łà¤°à¤ķ à¤ķ
Ġà¤¡ à¤¬à¤¸
Ġà¤ĵ à¤ıà¤¨
à¤łà¤ķ à¤ķà¤°
Ġà¥Ľ à¥ŀà¤°
Ġà¤ķà¤ķ à¤®
Ġà¤ıà¤®à¤ıà¤¨ à¤ıà¤®
Ġà¤²à¤Ĺ à¤µà¤²
à¥įà¤¾ à¥ģ
à¤° à¤ľà¤¯
Ġà¤µ à¤¨à¤²
à¤¡ à¤ħ
Ġà¤ī à¤°à¤®
à¤¥ à¤Ĺà¤¤
à¤¾à¤Ĥ à¥ħ
à¤« à¤Łà¤µ
à¤Ĩ à¤ī
Ġà¤ļà¤² à¤Ń
à¤²à¤¬ à¤ļ
à¤§à¤µ à¤¦
Ġà¤ļà¤¯à¤¨ à¤µà¤°
Ġà¤¨à¤µà¤° à¤¸
Ġà¤¬ à¤°à¤ķà¤Ł
à¤ĩ à¤Ĩà¤°
à¤¦à¤¨ à¤¨à¤Ĺà¤°
Ġà¤ıà¤¡ à¤ª
Ġà¤ıà¤¨à¤ıà¤ļ à¤¸
Ġà¤¬ à¤¤à¤°à¤¸
Ġà¤¬à¤¡ à¤¨
Ġà¤ıà¤¸ à¤Īà¤ıà¤®
Ġà¤ıà¤® à¤ıà¤¸à¤ı
à¤Īà¤Īà¤Īà¤Ī à¤Īà¤Ī
à¤ľ à¤¥
Ġà¤ķà¤° à¤ĩà¤¯
à¤¹ à¤®à¤°
à¤¦ à¤«à¤°
Ġà¤ķà¤° à¤¸à¤¨
Ġà¤ĩ à¥ĺà¤¤
à¤¨à¤¸ à¤¤
Ġà¤ľ à¤ĩà¤¯
Ġà¤ħ à¤°à¤¤
Ġà¤¸à¤Ń à¤®
Ġà¤ªà¤¥ à¤¦à¤°
Ġà¤ıà¤¨ à¤ıà¤²à¤ıà¤¨
à¤ªà¤Ł à¤µ
à¥¬ à¥¨
à¤¡à¤°à¤µ à¤²
à¥į à¤¾à¤Ĥ
Ġà¤¸à¤® à¤¦à¥ľ
Ġà¤Ĩà¤° à¤ıà¤¸à¤¬
Ġà¥¨à¥¦ à¥«
à¤ª à¤²à¤¨
à¤¯ à¤¸à¤ķ
Ġà¤¸ à¤·à¤ķ
Ġà¤¤ à¤ľà¤°
Ġà¤ªà¤¡ à¤Ĺ
à¤ķà¤°à¤£ à¤¸
Ġà¤ĵà¤µà¤° à¤ļ
Ġà¤Ĳà¤¶ à¤Ĺ
à¤µà¤°à¤ķà¤° à¤ľ
Ġà¤ª à¤¨à¤®
Ġà¤ıà¤¸ à¤Īà¤Ī
à¥Ľ à¤¹
Ġà¤¸à¤¦ à¥ĺ
à¤Łà¤® à¤µ
Ġà¤§à¤¨ à¤¯à¤µ
Ġà¤®à¤² à¤Ĺ
Ġà¤® à¤«à¤²
à¤²à¤ķ à¤¦
Ġà¤¢ à¤¸
à¤Ĩà¤° à¤ıà¤ķ
Ġà¤¸à¤¨ à¤ª
à¤¨ à¤Ĺà¤µ
à¤¤ à¤¬à¤¡
Ġà¤§ à¤°à¤µ
Ġà¤¬à¤¢ à¤Ī
Ġà¤ĩà¤² à¤²
à¤¤à¤® à¤Ĺà¤°
Ġà¤ªà¤¢ à¤ķ
à¤ķ à¤ªà¤²
à¤¯ à¤¶à¤°
Ġà¤¨ à¤¤à¤¨
à¤Łà¤° à¤¡à¤®
Ġà¤ķà¤¨ à¤ĸà¤ľ
Ġà¤ħà¤¸à¤° à¤Ĺ
à¤ª à¤Ĩ
Ġà¤ħ à¤¹à¤¨
Ġà¤ħà¤¨ à¤ĳà¤«
Ġà¤® à¤ĸà¤²
Ġà¤¡ à¤®à¤Ł
à¤¯à¤° à¤µà¤°
à¤°à¤¶ à¤¸à¤¨
Ġà¥« à¥«à¥¦
Ġà¥¨à¥§ à¥¦
Ġà¤ķ à¤¦à¤¨
Ġà¤Ĩà¤° à¤Ĺ
à¤ıà¤® à¤°
Ġà¥¨à¥¦ à¥¨à¥¨
Ġà¤«à¤¡ à¤£
à¥įà¥Ģ à¥Ģ
à¤¨à¤ķ à¤¶
Ġà¤Ī à¤Īà¤Ī
à¥ĭ à¤¼à¤Ĥ
Ġà¤ı à¤¬à¤¨
à¤ĸ à¤ªà¤Ł
Ġà¤¸à¤° à¤¹à¤¨
à¤¸à¤® à¤Ĺ
à¤ľà¤ª à¤µà¤¦
à¤·à¤ķ à¤ķ
Ġà¤ĭà¤£ à¤ªà¤¤
Ġà¤¸à¤°à¤® à¤¥
Ġà¤Ĩà¤° à¤¶
à¤°à¤¦ à¤¹
Ġà¤ıà¤¸ à¤ıà¤ı
à¤ħ à¤²à¤µ
Ġà¤¤à¤¬ à¤ľ
à¤ªà¤ķ à¤¥à¤¨
à¥Ń à¥¦à¥¦
Ġà¤ħà¤¤à¤° à¤¸
à¤ı à¤¡à¤°
Ġà¤ĩà¤¨ à¤ĩà¤ķ
Ġà¥¨à¥¦à¥Ń à¥¨
Ġà¤ļà¤³ à¤µà¤³
Ġà¤¦ à¤¹à¤¤
à¤£ à¤µà¤ķ
Ġà¤¸à¤¬ à¤²à¤¤
Ġà¤ķà¤ı à¤²à¤¨
à¤« à¤²à¤®
à¤¤à¤¨ à¤¨
Ġà¤ħà¤¸ à¤®à¤¤
à¤ķà¤¨ à¤¨
Ġà¤ľà¤¡ à¤¤
à¤ķ à¤ıà¤ķ
Ġà¤¤à¤¨ à¤®à¤¨
à¤²à¤Ĺ à¤ŀ
Ġà¤®à¤Ĭ à¤Ĩà¤ĩà¤®
Ġà¤ķà¤° à¤µà¤²
à¤ıà¤® à¤ıà¤¸à¤ª
Ġà¤¨à¤µ à¤¶
à¤®à¤ª à¤°à¤ķ
Ġà¤¸ à¤Ĺà¤¡
Ġà¤¨ à¥ļà¤®
à¤¥ à¤®à¤²
Ġà¤¡ à¤µà¤²à¤ªà¤°
Ġà¤µà¤¹ à¤¸
Ġà¤ľà¤¨ à¤¬
à¤¨à¤ķ à¤¹
à¤ıà¤¸ à¤ıà¤®à¤¸
à¤°à¤µ à¤£à¤ķ
Ġà¤ķà¤² à¤®à¤°
Ġà¤¸à¤«à¤² à¤¦
à¤¯à¤ľ à¤Ĺà¤¤
à¤¨ à¤ħà¤¨
Ġà¤Ł à¤²à¤µ
à¤®à¤¨ à¤²à¤¤
Ġà¥§à¥¯à¥¨ à¥¬
Ġà¤Ĩà¤Īà¤ıà¤¨ à¤ıà¤«
à¤ķ à¤ļà¤ķ
à¤¶à¤¨ à¤Ł
Ġà¤¸à¤¤ à¤ªà¤¥
Ġà¤§à¤¨ à¤ªà¤¶
Ġà¥ĩ à¥ĭ
Ġà¤¬à¤¦ à¤ĸ
Ġà¥ļà¤²à¤¤ à¤«à¤¹à¤®
à¤ªà¤¨ à¤¬
Ġà¤ħà¤Ĺ à¤¯
Ġà¥§à¥¯à¥§ à¥«
à¤¦ à¤¹à¤°
Ġà¤² à¤īà¤Ł
à¤· à¤ļà¤°
à¤ī à¤ªà¤®
Ġà¤ħà¤µà¤¶ à¤¯
Ġà¤ª à¤¥à¤µ
à¤°à¤£ à¤®à¤Ĺà¤°
à¤¨à¤ķ à¤ľ
Ġà¤¸à¤° à¤¹à¤ª
Ġà¤ıà¤¸ à¤Īà¤¬
à¤¨à¤ħ à¤ªà¤¸
à¤¯ à¤¸à¤¸
Ġà¤¬ à¤§à¤¨
à¤ľ à¤²à¤¨
à¤ķà¤¤ à¤²
à¤ıà¤® à¤ıà¤«à¤¬
à¤¹à¤® à¤£à¤µ
Ġà¤¸à¤® à¤µà¤¨
à¤¯à¤ķ à¤¸
à¤²à¤¤ à¤Ĺ
à¤ªà¤ķ à¤¶
à¥ħ à¤ģ
Ġà¤Ńà¤¨ à¤Ńà¤¨
Ġà¤« à¥Ľ
Ġà¤ªà¤¦ à¤²
à¤°à¤¨ à¤¦
Ġà¤ıà¤ļ à¤Ĩà¤Īà¤ª
à¤¾à¥ĩ à¥ĩà¤Ĥ
Ġà¤® à¥ļ
à¤Ĩ à¤ĺà¤°
Ġà¤¸à¤¬ à¤°à¤µ
Ġà¤µà¤° à¤ľ
à¤·à¤£ à¤¦
à¤°à¤ª à¤¶
à¤¯à¤£ à¤²
à¤īà¤¥ à¤¹
à¤ª à¤¶à¤®
Ġà¤Ĺ à¤¤à¤µ
Ġà¤ı à¤Ĺà¤®
à¤ī à¤Ń
à¤µà¤² à¤µ
à¤¯ à¤Ńà¤ķ
à¤µ à¤Ĺà¤°
à¤ĸ à¤ħ
Ġà¤« à¤¡à¤ķ
à¤²à¤ķ à¤¨à¤Ĺà¤°
à¤Ĩà¤° à¤Ĩà¤°à¤¬
Ġà¤ħà¥Ľ à¤¬
Ġà¥¨à¥Ń à¥¯
Ġà¤ª à¤ļà¤ķ
Ġà¤ı à¤Īà¤¡
Ġà¤ı à¤Īà¤ª
à¤¯à¤¨ à¤¹
Ġà¤ıà¤¨ à¤Īà¤ıà¤¸
Ġà¤¶à¤°à¤¦ à¤ļ
Ġà¤ıà¤®à¤ıà¤® à¤¬
Ġà¤® à¤ķà¤¨à¤ª
à¤Ł à¤ķà¤¸
à¤°à¤¸ à¤ł
Ġà¤ļà¤ª à¥ľ
à¤Ĩà¤Īà¤Ĩà¤° à¤ıà¤¸
Ġà¤ıà¤«à¤Ĩà¤Ī à¤¯
Ġà¤Īà¤Ī à¤Ĩà¤°
à¤Ł à¤ľà¤¸
à¤¨à¤² à¤µ
Ġà¤¬à¤¦ à¤µ
Ġà¤¤à¤¤ à¤ªà¤¶
à¤¯à¤£ à¤°
à¤® à¥ľà¤¤
Ġà¤Ĺ à¤¨à¤¤
à¤Ī à¤ıà¤¸à¤¸
Ġà¤ķà¤¹ à¤¦
Ġà¤ĵ à¤ıà¤«à¤ıà¤¸
Ġà¤®à¤¨ à¤¨à¤¶
à¤¦à¤¨ à¤ľ
à¤¹à¤® à¤Ī
à¤¦ à¤Ĩà¤īà¤Ł
Ġà¤ĩ à¤ıà¤¸
Ġà¤ªà¤¦ à¤ª
Ġà¤µ à¤ľà¤°
à¤ĩà¤¨ à¤¨
Ġà¤Ńà¤° à¤·
à¥Ľ à¤¸
Ġà¤ķà¤« à¤ľ
Ġà¤ıà¤ı à¤ĵ
Ġà¤¤à¥ľà¤¤ à¥ľ
Ġà¤¸ à¤¸à¤°
Ġà¤° à¤ķà¤¨
Ġà¤ļ à¤°à¤¹
à¤Ľ à¤ķà¤Ł
Ġà¤ıà¤¨à¤ıà¤¸à¤Ī à¤ıà¤²
Ġà¤ıà¤ķ à¤§
Ġà¤Ī à¤Īà¤ı
à¤ĩà¤¸ à¤ª
à¤°à¤ļ à¤¢
¾ à¤¿à¤¾
à¤® à¤ªà¤£
Ġà¤¯ à¤£
Ġà¤¬à¥Ŀ à¤²
à¤¡à¤°à¤® à¤¸
à¤ ¾à¤¿à¤¾
Ġà¤¬ à¤§à¤µ
à¤£ à¤ľà¤¯
à¤¯à¤® à¤ĸ
Ġà¤ĸà¤¬à¤° à¤°
Ġà¤¨à¤ľà¤° à¤ħà¤¨
à¥ŀ à¤¸
Ġà¤īà¤¤à¤° à¤²
à¤¨à¤Ĺà¤° à¤®
Ġà¤ĸà¥ľ à¤ĸà¥ľ
à¤ļà¤® à¤¢
à¤¹ à¤ķà¤²
à¤¹ à¤Ĩà¤²à¤®
à¤·à¤£ à¤°
à¤¨à¤² à¤¸
à¤²à¤µ à¤§
à¤ĩà¤ķ à¤¬
à¤°à¤² à¤Ĺ
à¤Ĺà¤° à¤Ł
Ġà¤Ĩà¤µ à¤¯à¤¶
à¤ĳ à¤¬
Ġà¤Ĺà¥ľ à¤¬à¤¡
à¤ļ à¤®à¤¨
à¤¿à¤Ĥ à¤¼
à¤°à¤¨ à¤¯
Ġà¤© à¤¤
à¤¬ à¤¨à¤ķ
Ġà¤Ĩ à¤ħ
Ġà¤Ń à¤ıà¤ķ
Ġà¤ĸ à¤ĸà¤°
à¤ĵ à¤ıà¤ķ
Ġà¤ħà¤² à¤µà¤£
Ġà¤ĵ à¤¸à¤¬
Ġà¤ıà¤® à¤ıà¤®à¤ª
Ġà¤²à¤µ à¤¬à¤°
à¤®à¤ħ à¤ļà¤²
à¤§ à¤®à¤ķ
à¤¸à¤® à¤®
à¤ľà¤¯ à¤Ĺ
à¤¯à¤« à¤¸
à¤¸ à¤Ĩ
à¤ľ à¤īà¤¦
Ġà¤¤ à¥Ļà¤²
à¤· à¤°à¤¯
Ġà¤ĸ à¤ªà¤ļ
à¤°à¤¸ à¤ļ
Ġà¤ļà¤² à¤¹
Ġà¤²à¤¡ à¥Ļà¤¡
Ġà¤ķ à¤£à¤ķ
à¤² à¤¡à¤°
à¤² à¤Ĺà¤µ
Ġà¤¹ à¤¬à¤ķ
Ġà¤ĵ à¤¸à¤¨
Ġà¤Ĩà¤Ī à¤ļ
Ġà¥ŀ à¤¤à¤¹
à¤¦ à¤¥
Ġà¤ī à¤¹à¤¹
Ġà¤ıà¤ķ à¤¦à¤¶
à¤¯à¤² à¤µ
à¤ħ à¤®à¤²
à¤¤ à¤®à¤¨à¤Ĺà¤°
Ġà¤¹ à¤¦à¤°
à¤µ à¤Ŀ
à¤ľ à¤¡à¤®
Ġà¤®à¤¹ à¤¶à¤°
à¤®à¤¨ à¤ļ
à¤°à¤¹ à¤Ĺ
Ġà¤¬à¤¸ à¤ĸ
à¤īà¤¥ à¤Ĺ
Ġà¤¹à¤ľà¤°à¤¤ à¤¬à¤²
Ġà¤ĵà¤³ à¤ĸà¤²
à¤¯ à¤ĳà¤ķ
Ġà¤Ĺ à¤®à¤°
Ġà¤µà¤° à¤ĺ
Ġà¤¬à¥ľ à¤¹
à¤°à¤ª à¤µ
Ġà¥ŀ à¥ĺà¤¤
Ġà¤¤à¤¨ à¤ľ
à¤³ à¤ķà¤°
Ġà¤ıà¤µ à¥Ľ
à¤¬ à¤®à¤¸
à¤« à¤ķà¤°
Ġà¤ħà¤ķ à¤¬
à¤° à¤²à¤°
à¤® à¤³
Ġà¤¨ à¤ĸà¤¤
à¤ı à¤ıà¤¸à¤ıà¤«
Ġà¤°à¤¹ à¤¹
à¤¤à¤ķ à¤ª
à¤ľà¤¸ à¤¹
à¤ĩà¤µ à¤Ł
Ġà¥Ļ à¤¸
Ġà¤¸à¤ľà¤¨ à¤µ
à¤¤ à¤µà¤°à¤£
Ġà¤¸ à¤¸à¤¸
à¤Łà¤¨ à¤¶
à¤ľà¤° à¤°
à¤ıà¤¨ à¤¡à¤¬
Ġà¤¶à¤Łà¤² à¤ķ
à¤°à¤²à¤¤ à¤¬
à¤Ĺ à¤Ĺà¤¨
Ġà¤° à¤¤à¤µ
Ġà¤ĵà¤° à¤¬
à¥ĩ à¥ĭà¤Ĥ
à¤°à¤® à¤µà¤¶
Ġà¤¬à¤¢ à¤µ
à¤²à¤¸ à¤ĸ
à¤®à¤ľ à¤¦à¤Ĺ
à¤¯ à¤Ŀ
à¤Łà¤¨ à¤¬à¤°
Ġà¤ħà¤® à¤¯
à¤²à¤° à¤¨
à¤ªà¤¯ à¤ľ
à¤µà¤µ à¤µà¤µ
Ġà¤®à¤°à¤® à¤°
à¤ĩà¤ĩ à¤ĩà¤ĩ
Ġà¤¤ à¤Īà¤ª
à¤ļ à¤µà¤¶
à¤ªà¤² à¤ĸ
à¤¯à¤¶ à¤ķà¤°à¤¨
Ġà¥ŀà¤²à¤¸ à¥ŀ
à¤ļ à¤ªà¤¦
Ġà¤Ĩà¤°à¤ıà¤¸ à¤ĵà¤ª
à¤¦ à¤Ķà¤°
à¤ķ à¤ķà¤µ
à¤Ī à¤¨à¤®
Ġà¤ħà¤¨ à¤ıà¤ķ
à¤²à¤¤ à¤ķ
Ġà¤¶à¤°à¤¤ à¤ļà¤¨
à¤Ĺ à¤ĵà¤Ĺ
Ġà¤ıà¤¸ à¤ıà¤ļà¤¡
Ġà¤ıà¤¯à¤° à¤ļ
Ġà¥§à¥© à¥§
à¤ľà¤¯à¤° à¤¥
à¤¸ à¤ıà¤®à¤¯
à¤® à¤¡à¤²
Ġà¤ī à¤īà¤ī
Ġà¤ı à¤¨à¤¨
à¤« à¤ıà¤¨à¤ıà¤®
à¤¹à¤² à¤ªà¤®
à¤®à¤® à¤®
Ġà¤ıà¤¸à¤ıà¤¸ à¤Ĩà¤°à¤Ĩà¤Ī
Ġà¥§à¥¯à¥§ à¥¬
Ġà¤Ĺà¤£ à¤ªà¤¤à¤°
Ġà¤¶à¤¤ à¤¦à¤²
Ġà¤īà¤ķ à¤ł
Ġà¤®à¤ķà¤° à¤¨
Ġà¤¦à¤®à¤¨ à¤ļà¤ķ
Ġà¤Ŀà¤² à¤®à¤²
Ġà¤§ à¤¸à¤¨
à¤¼à¤¾ à¥ĩ
à¤µà¤¨ à¤ļ
Ġà¤¦à¤¶ à¤ª
à¤® à¤¹à¤¨
à¤¾à¤Ĥ à¤ĥ
à¤ĺ à¤Ĺ
Ġà¤Ĺà¥ľ à¤µ
à¤µ à¤°à¤ķà¤¤
à¤ļà¤¨ à¤¸
Ġà¤Ĩà¤¦à¤° à¤Ń
à¤ıà¤¸à¤ıà¤¸ à¤ıà¤²
à¤® à¤¤à¤¨
à¤ı à¤¡à¤¬
à¤Ī à¤ıà¤¸à¤ª
à¤Ī à¤Ĩà¤°à¤ıà¤«
à¤£ à¤°à¤¤
Ġà¤¬à¤¡ à¥Ļà¤²
à¤®à¤£ à¤¦
à¤ıà¤²à¤ı à¤ıà¤¨
Ġà¥§à¥¯à¥§ à¥©
Ġà¤ī à¤Ĺà¤°
Ġà¤ı à¤°à¤µ
Ġà¤Ĳ à¤ļà¤¡
à¤ĺ à¤¤à¤®
à¤¹à¤¬ à¤Ĺ
Ġà¤ıà¤®à¤° à¤²
Ġà¥ªà¥¯ à¥®
Ġà¤¦ à¤¢
à¤ľà¤¨ à¤Ĺà¤¢
à¤¦à¤° à¤¶
Ġà¤Ŀ à¤Ĺ
Ġà¤īà¤¦ à¤®
à¤°à¤ª à¤¥
à¤²à¤Ń à¤µà¤¨
à¤¬ à¤¨à¤µ
Ġà¤ĩ à¤Łà¤°à¤¨
Ġà¤ı à¤ıà¤¨à¤ıà¤¨
Ġà¤Ĺà¤¡ à¤Ĺà¤¡
à¤Ĩà¤Īà¤ıà¤« à¤Ĩà¤°
Ġà¤ľ à¤µà¤°
Ġà¤Ń à¤¯à¤ķ
à¤¶à¤¨ à¤ªà¤°à¤¸
à¤¯à¤° à¤ļà¤¨
à¤µà¤¯ à¤ľ
Ġà¤ĩà¤ķ à¤¹à¤¤
à¤Łà¤¬ à¤¦
à¤° à¤²à¤¨
à¤¤ à¥Ļà¤¤
à¤Ŀ à¤¦
Ġà¤ħà¤ļ à¤²à¤ª
Ġà¤Ĩà¤Ī à¤Īà¤ı
Ġà¤Ŀ à¤°à¤¬
à¤ħ à¤®à¤¨
Ġà¤¬à¤° à¤¹à¤°à¤µ
Ġà¤¿ à¤¿à¤¿
Ġà¤ĩà¤¥ à¤°à¤¨
à¤¨ à¤Ĩ
Ġà¤ı à¤ªà¤ķ
à¤Ŀ à¤Ĺ
à¤ıà¤®à¤ıà¤¸ à¤ıà¤®à¤Ī
Ġà¤ļà¤ķà¤° à¤Ń
Ġà¤Ķ à¤¢
Ġà¤Ķà¤° à¤²
à¤ĸ à¤¬à¤¦
Ġà¤ķà¤¹ à¤°à¤µ
à¤µà¤° à¤²à¤¹à¤°
Ġà¤· à¤£à¤¯
à¤ĺà¤µ à¤Ĺà¤¢
Ġà¤ıà¤²à¤ı à¤ıà¤®
Ġà¤ķà¤° à¤®à¤¹
à¥ľ à¤¹
Ġà¤¹à¤µ à¤¶
à¤¨ à¤Ĩà¤ªà¤ķ
Ġà¤ī à¤²à¤°
à¤Ī à¤ªà¤²
à¤¬à¤¨ à¤ª
Ġà¤²à¤Ł à¤ªà¤Ł
Ġà¤²à¤°à¤ľ à¤ķà¤°
Ġà¤¸ à¤µà¤²
Ġà¤² à¤¦à¤µ
Ġà¤ī à¤°à¤£
Ġà¤Ł à¤¹à¤°
à¤¢ à¤®
Ġà¤Ĩà¤Ī à¤ıà¤ļà¤¸
Ġà¤Īà¤¯à¤° à¤ª
à¤ı à¤µà¤°
à¤¤à¤® à¤ªà¤²
Ġà¥Ĥ à¤
Ġà¥Ĥà¤ ¾
Ġà¤ĺ à¤ª
Ġà¤Ī à¤ıà¤¸à¤ıà¤«
Ġà¤ıà¤¨ à¤ıà¤¸à¤ª
Ġà¤ķà¤Ł à¤Ł
à¤ı à¤ħà¤ªà¤¨
à¥Ŀ à¤ķà¤ķà¤°
à¤ĩà¤² à¤Ĺ
Ġà¤§à¤¨ à¤Ĺ
Ġà¤Ĺà¤²à¤¤ à¥ŀà¤¹à¤®
à¤Īà¤¸à¤¬ à¤ħà¤§
Ġà¤ķ à¤¸à¤¦
Ġà¤µ à¤§à¤¶
Ġà¤¤ à¤«à¤¤
Ġà¤ĺ à¤ļ
Ġà¤¬à¤¢ à¤ķ
à¤®à¤ķ à¤Ľà¤²
Ġà¤ľà¤¨ à¤ľà¤¨
à¤°à¤µ à¤¦à¤¨
Ġà¤ħà¤® à¤¹
Ġà¤µà¤¨ à¤¬
à¤¸à¤ķà¤° à¤¨
à¤¯à¤¶ à¤¹à¤°
Ġà¤¨à¤®à¤ķ à¤¹à¤°
Ġà¤ļà¤®à¤¨ à¤Ĺ
Ġà¤ľ à¤Ĭà¤¨
Ġà¤Ĺ à¤Łà¤¨
Ġà¤ĵ à¤ĩà¤¸à¤¨
à¤¶à¤¤ à¤¯
à¤²à¤¦ à¤¹à¤²
à¤®à¤Ń à¤ľà¤¨
à¤ª à¤¦à¤ķ
à¥Ī à¤¼à¤Ĥ
Ġà¤ıà¤¸ à¤Ĩà¤°à¤ı
à¤īà¤¥ à¤ª
Ġà¤ªà¤¸à¤° à¤²
à¤ĸ à¤¯à¤ķ
Ġà¤« à¤Ī
à¤¦à¤¬ à¤¡
à¤ħà¤ª à¤¹à¤°à¤£
à¤ıà¤¸à¤ıà¤« à¤¡
à¤· à¤ĸ
Ġà¤ªà¤° à¤µà¤¶
Ġà¤¸à¤² à¤²
à¤¯à¤µ à¤¯
à¤°à¤ļ à¤°à¤¨
à¥ĺ à¤¬
Ġà¤īà¤ªà¤¨ à¤¦
à¤¬ à¤ªà¤°
à¤· à¤¨à¤Ĺ
Ġà¤¯ à¤Łà¤¨
à¤ķà¤° à¤Ĺà¥Ŀ
Ġà¤§ à¤¸à¤ķ
Ġà¤¬à¤² à¤Ĺ
à¤¨à¤ª à¤°à¤ķ
Ġà¤ıà¤ļ à¤ıà¤ıà¤¸
Ġà¤Ĩà¤ī à¤¡
à¤Ł à¤ĩà¤¸
à¤°à¤¹ à¤¨à¤¨
Ġà¤Ĺà¤Ĭ à¤ĺ
Ġà¤ħà¤ķ à¤®
à¤ľà¤¸ à¤ľ
Ġà¤Ĩà¤ĩ à¤Īà¤¡
Ġà¤¤ à¤Ĩ
Ġà¤Ĺ à¤Ńà¤°
à¤¤à¤¨ à¤ĸ
à¤ľà¤° à¤«
Ġà¤§à¤¨ à¤Ĺà¤¢
Ġà¤¹à¤®à¤¸ à¤Ń
à¤·à¤µ à¤®à¤¨
à¤ķ à¤ħà¤µ
à¤¶ à¤®à¤ķ
Ġà¤¤ à¤³
à¤§ à¤ı
Ġà¤ı à¤¤à¤¯
Ġà¤ĳà¤« à¤±
à¤£à¤ª à¤¦à¤ķ
Ġà¤īà¤« à¤«
Ġà¤ķà¤ķà¤° à¤¹
à¤ı à¤·à¤¨
à¤·à¤£ à¤¨
Ġà¤Ĩà¤¤ à¤ª
à¤ħ à¤µà¤¤
à¤ıà¤« à¤¨
à¤īà¤¨ à¤µà¤°
Ġà¤¦à¤°à¤¬ à¤¦à¤°
Ġà¤¸ à¤ıà¤ķ
à¤ľ à¤ĭà¤·
Ġà¤ªà¤° à¤¶à¤¨
Ġà¤ıà¤¨ à¤Ĩà¤Īà¤Ĩà¤°
à¤Ĺà¤¨ à¤«
Ġà¤ı à¤ıà¤®à¤Ĩà¤Ī
Ġà¤¬à¤¹ à¤¶
Ġà¤Ĩà¤° à¤Ĩà¤Īà¤Ł
Ġà¤ľà¤¨ à¤°à¤¥
à¤¯à¤¯ à¤¯à¤¯
à¤¸ à¤ħà¤¤
à¤® à¤ªà¤°à¤¸
à¤¬ à¤ĸà¤°
à¤ı à¤¨à¤°
Ġà¤ħà¤² à¤ľà¤ľ
Ġà¤ĵà¤° à¤Ĺ
Ġà¥Ľ à¤¹à¤®à¤¤
à¤¶à¤¸ à¤Ń
à¤¯ à¤¢
à¤Ĩ à¤ĺ
Ġà¤ıà¤² à¤Ĩà¤Ī
à¤µà¤°à¤£ à¤ª
Ġà¤ªà¥Ŀ à¤ķ
Ġà¤Ĩà¤ī à¤²
à¤® à¤Ĩà¤ª
à¤°à¤£ à¤¶
à¥ģà¥į à¤Ĥ
à¤ķ à¤µà¤¨
à¤µ à¤īà¤¤
à¤¦ à¤²à¤¨
à¤Ł à¤¸à¤ª
Ġà¤Ķà¤° à¤Ń
à¤¨ à¤ĵà¤Ĺ
Ġà¤¦ à¤·à¤ķ
Ġà¤ĸ à¤®à¤£
Ġà¤Ĩà¤° à¤ĵà¤µ
à¤µà¤¸ à¤«
Ġà¤ıà¤¡ à¤ĳà¤¨
Ġà¤ħà¤Ł à¤ĸ
Ġà¤Ĩà¤Īà¤ı à¤²à¤¬
Ġà¤ĩ à¤°à¤¨
à¤ĩ à¤·
Ġà¤®à¤¹ à¤°à¤¬
Ġà¤ķà¤² à¤ªà¤¨
à¤¶à¤° à¤¥
à¤¨ à¥ŀ
à¤¸ à¤ķà¤°à¤£
Ġà¤Ł à¤¸à¤°
à¤µà¤¨ à¤¶à¤ķ
à¤ķà¤¨ à¤¦
Ġà¤¬à¤° à¤Ī
à¤ıà¤« à¤¯
Ġà¥§à¥© à¥ª
Ġà¤¥ à¤Ĺà¤¨
à¤« à¤ıà¤ķ
Ġà¤ĺà¤Ł à¤¬à¤¢
Ġà¤Ĺà¤ľ à¤µà¤¤
Ġà¤ĵà¤ıà¤¸ à¤ıà¤ķ
Ġà¤ķ à¤ľà¤µ
à¤² à¤Ĩ
Ġà¤ľ à¤ļà¤¤
Ġà¤ıà¤ķ à¤¦à¤¨
Ġà¤Ľ à¤¨à¤ķ
Ġà¤ªà¤¨ à¤ļà¤ķ
Ġà¥§à¥¬ à¥ª
Ġà¤¬ à¤Łà¤ķ
à¥Ĥ à¥¢
à¤ŀ à¤ķà¤°
à¤Ĺà¤¤ à¤µ
Ġà¤īà¤ľ à¥ľà¤¤
Ġà¥¨à¥¦ à¥®
à¤¸ à¤¬à¤¨
Ġà¤¬ à¤¤à¤¨
Ġà¤ī à¤¶à¤ķ
Ġà¤ªà¤ķ à¤Ļ
Ġà¤¦à¤® à¤¡
à¤²à¤ª à¤¥
à¤Ľà¤¡ à¤©
Ġà¤ıà¤®à¤ıà¤« à¤ª
Ġà¤¤ à¤±à¤«
Ġà¤ĩ à¤®à¤¸
Ġà¤¹à¤ľ à¤µ
à¤²à¤Ŀ à¤°
Ġà¤Ĩà¤Īà¤ıà¤¸ à¤ľ
Ġà¥¨à¥¯ à¥«
à¤Ĺà¤ľà¤¨ à¤¨
à¤¨ à¤ĺà¤¨
à¤®à¤ľ à¤¤à¤¨
à¤¹à¥ľ à¤ªà¤¨
à¤Ĩà¤Ĩ à¤Ĩ
à¤Ĺà¤²à¤® à¤¹à¤²
à¤¨ à¤ĵ
à¤¸à¤°à¤£ à¤ķà¤°
à¤ĵà¤Ī à¤ıà¤«à¤ıà¤²
à¤°à¤ķ à¤¹
à¤Ĩà¤° à¤ıà¤¸à¤Ī
à¤ª à¤°à¤£
Ġà¤Ń à¤¦à¤µ
Ġà¤ĩ à¤¯à¤¤
à¤Ń à¤¨à¤Ĺà¤°
à¤ªà¤ı à¤ķ
à¤°à¤ľ à¤¦
Ġà¤ıà¤®à¤ıà¤« à¤ı
Ġà¤ıà¤ļà¤ıà¤¸ à¤ıà¤²à¤¸
à¤Ł à¤£à¤ķà¤°
à¤ī à¤¬à¤°
Ġà¤¬à¤° à¤Ĺà¥Ŀ
Ġà¤ıà¤¨ à¤Ĩà¤Īà¤ıà¤«
Ġà¤ªà¤°à¤® à¤ªà¤°
à¤Ń à¤²à¤ķ
à¤¹à¤° à¤¥
Ġà¤īà¤Ń à¤¡
à¥ĩà¥ĩà¤Ĥ à¤Ĥ
à¤° à¤ī
à¤¯ à¤Ķà¤°
Ġà¤¹ à¤Ĺà¤¨
Ġà¤¹ à¤·à¤°
à¤Ł à¤ħà¤ªà¤¨
à¤ıà¤« à¤ıà¤¨à¤ıà¤®
Ġà¤ıà¤° à¤¡
Ġà¤Ĩà¤ĩ à¤ĵà¤¸
à¤³ à¤¯
à¤¨ à¤¡à¤°
à¤· à¤ªà¤¤
Ġà¤ı à¤ĵà¤¸
Ġà¤ĵà¤µà¤° à¤Ĺ
Ġà¤ĩà¤¶ à¤¹
à¤ľà¤ķà¤° à¤¨
Ġà¤¤ à¤¤à¤ķ
Ġà¤® à¥ľà¤µ
Ġà¤ħ à¤Īà¤²
à¤°à¤£ à¤®à¤²
Ġà¤¨à¤µ à¤§à¤¨
Ġà¤µà¤¨ à¤ĸ
Ġà¤ıà¤« à¤ıà¤¸à¤Ł
à¤Łà¤« à¤°
Ġà¤ħà¥Ľ à¤¹
à¤ı à¥Ľ
à¤§ à¤Łà¤¨
à¤¼à¥ĩ à¥ĩà¤Ĥ
Ġà¤ĩà¤¤ à¤²
Ġà¤ķ à¤ĩà¤¨
Ġà¤ı à¤Ĩà¤°à¤¡
à¤ľà¤¨ à¤§à¤°
Ġà¤ĵ à¤§
à¤¤à¤® à¤ļ
Ġà¤¬à¥ľ à¤¹à¤¨
à¤²à¤¸ à¤Ń
Ġà¤ıà¤¸à¤ıà¤ļ à¤ı
à¤¡à¤ĩà¤¨ à¤«
à¥Ī à¥°
Ġà¤ħà¤¨ à¤ķà¤®
Ġà¤ľà¤° à¤Ĺ
Ġà¤¸à¤Ł à¤Ł
Ġà¤ĩà¤£ à¤°
à¤²à¤² à¤ĩ
Ġà¤¬à¤°à¤Ĺ à¤¦à¤µ
Ġà¤ķ à¤ķà¤¨
à¤¦ à¤¸à¤µ
Ġà¤¨ à¤Łà¤µ
Ġà¤ľà¤® à¤¦
Ġà¤ıà¤« à¤ıà¤¸à¤ĵ
Ġà¤ľà¥ľ à¤µ
à¤ıà¤®à¤ıà¤® à¤ıà¤«
à¤Ĺ à¤¶à¤ķ
à¤Ī à¥ŀ
Ġà¤ħà¤¬ à¤ĸ
à¤ıà¤® à¤ıà¤¸à¤ıà¤¸
à¤°à¤Ń à¤Ł
à¥« à¥¨
Ġà¥§à¥ª à¥¬
à¤¤ à¤ķà¤¸
à¤¯ à¤½
Ġà¤¹ à¤ķà¤°
Ġà¤¤ à¥ŀà¤°
à¤§ à¤ªà¤ķ
à¤°à¤®à¤£ à¤ķà¤°
Ġà¤ıà¤¨à¤ĵ à¤ıà¤ı
à¤¡ à¥Ł
à¤Ĩ à¥ŀ
Ġà¤Ĩà¤Ī à¤ıà¤¨à¤Ł
à¤¬à¤¦ à¤¦
Ġà¤Ĩà¤Ń à¤°à¤£
Ġà¤Ĩà¤Ĭ à¤Łà¤¸
à¤· à¤¯à¤¸
Ġà¥§à¥ª à¥§
à¤ķà¤¶à¤¤ à¤¤à¤®
à¤ıà¤¸ à¤Īà¤¸
Ġà¤ıà¤® à¤Īà¤¸
Ġà¤ıà¤« à¤Ĩà¤Īà¤¸
Ġà¤¨à¤¯à¤¨ à¤ª
Ġà¤µà¤¨à¤® à¤£
à¤¬ à¤¨à¤¸à¤®à¤²
à¤·à¤ķ à¤Ĺ
Ġà¤ıà¤¨ à¤ıà¤«à¤ª
Ġà¥ŀ à¤ľ
Ġà¤²à¤ķà¥ľ à¤¬à¤Ĺ
à¤Ĩà¤µ à¤Ī
Ġà¤® à¤Ĩà¤¨
Ġà¤Ĩ à¤¶à¤²
Ġà¤ħà¤® à¤Ŀ
Ġà¤ıà¤¨ à¤ıà¤²à¤¡
à¤°à¤ª à¤¡
Ġà¤Ĩà¤ĩ à¤¸à¤¨
Ġà¤®à¤Ĺ à¤ľà¤®
à¤ı à¤ıà¤Ł
à¤ªà¤¨ à¤¨
Ġà¤¸à¤® à¤°à¤¨
Ġà¤Ł à¤¨à¤°
Ġà¤¯à¤¹ à¤¯
Ġà¤¸à¤¹ à¤ķà¤²
Ġà¤¨à¤µ à¤²à¤¨
Ġà¤ļà¤ķà¤° à¤ĺ
Ġà¤µ à¤Ī
Ġà¤² à¤²à¤¹
à¤¨à¤ķ à¤¸
à¤ħ à¤µà¤¶
Ġà¤Ńà¤°à¤¤ à¤¶
Ġà¤Ľà¤² à¤ĸ
Ġà¥©à¥¦ à¥ª
à¤° à¤ĩà¤²
Ġà¤ķà¤° à¤ĸ
Ġà¤ı à¤ıà¤Ĩà¤°
à¤¶ à¤¦à¤¤
à¤¥ à¤¥
à¤¨à¤¸ à¤¹
Ġà¤ªà¤°à¤® à¤Ĺà¤¤
Ġà¤ħà¤¹ à¤¬
Ġà¤¤ à¤µà¤¨
Ġà¤ı à¤Ŀ
Ġà¤ıà¤¸ à¤Ĩà¤°à¤Ĩà¤Ī
à¤°à¤µà¤ļà¤¨ à¤ķà¤°
à¤Ľ à¤Ĺ
à¤°à¤µ à¤Ł
à¤ªà¤¤ à¤ª
à¤ħ à¤°à¤¸
à¤ıà¤² à¤ĵà¤ıà¤¸
à¤¹à¤¸ à¤µ
Ġà¤¬à¥ļ à¤¦
à¤ĸ à¤ħà¤¬
Ġà¤¸à¤« à¤¹
Ġà¤¨à¤Ī à¤¬
Ġà¥ŀ à¤°à¤¹
Ġà¤īà¤Ń à¤¯à¤¨
à¤¦ à¤ĩ
à¥ĩà¤Ĥ à¤¼
à¤¬ à¤¨à¤¨
Ġà¤ĩ à¤ľà¤¨
à¤§ à¤°à¤¹
Ġà¤ĵ à¤®à¤¤
Ġà¤ħà¤¸ à¥ŀà¤²à¤¤
Ġà¤¸à¤¤ à¤ķà¤°
à¤¯ à¤¯à¤¸
Ġà¤µ à¤¨à¤¨
à¤ļ à¤¯à¤ķ
Ġà¤ļ à¤ī
à¤ķà¤² à¤Ĺ
Ġà¤ĳà¤¬ à¤ľ
à¤° à¤ĺà¤Ł
Ġà¤Ĩ à¤¢à¤¤
Ġà¤ī à¥Ŀ
à¤Łà¤° à¤ĳà¤ªà¤°
Ġà¤§ à¤®à¤¤
Ġà¤ĩà¤¨ à¤ıà¤ķ
à¤Łà¤¨ à¤¯
à¤¹à¤¤ à¤²
Ġà¤ħà¤ª à¤ļà¤¯
à¤²à¤ķ à¤ķ
Ġà¤«à¤° à¤Ĺ
à¤Łà¤¸ à¤Ĳà¤ª
Ġà¤°à¤Ł à¤Ĺà¤°
à¤« à¤ĩà¤¨à¤²
à¤ł à¤®à¤¨
à¤°à¤® à¤ļ
à¤ī à¤¬à¤²
à¤§à¤¨ à¤¶
à¤ķà¤¸ à¤®à¤²
Ġà¤ħà¤ľ à¤¯à¤®
Ġà¤¹à¤¡ à¤¡
Ġà¤ħà¥Ľ à¤®à¤¤
à¤°à¤£ à¤¸à¤Ń
à¤µà¤¸ à¤²
Ġà¤ľà¤² à¤¤à¤°
à¤¤à¤® à¤§
à¤¦à¤® à¤ª
à¤°à¤ľà¤¨ à¤¹
Ġà¤®à¤°à¤¹ à¤¬
Ġà¥¯à¥¯ à¥¯
à¤¶ à¤¹à¤¦
Ġà¤¬à¤¹ à¤¦
à¤°à¤¸ à¤¤à¤Ĺ
à¤Łà¤¨ à¤ª
à¤ħ à¤¨à¤²
à¤ıà¤¨ à¤Ĩà¤Īà¤Ł
Ġà¤ıà¤ļ à¤ıà¤¸à¤Ĩà¤Īà¤Ĩà¤Īà¤¡
Ġà¤Ĩà¤Īà¤ı à¤ª
à¤®à¤¬ à¤Ł
Ġà¤ıà¤Ĩà¤° à¤ıà¤Ĩà¤Ī
Ġà¤Ĩà¤© à¤ķ
Ġà¤¸ à¤§à¤µ
Ġà¤® à¤¸à¤®
Ġà¤ı à¤¸à¤®
Ġà¤¸à¤¡ à¤©
à¤ĩ à¤ħà¤°
Ġà¤¢ à¤¯
à¤°à¤² à¤¡
à¤® à¤¹à¤ķ
Ġà¤¸ à¤°à¤µà¤¤
Ġà¤µ à¤µà¤¶
Ġà¤ļ à¤ªà¤ķ
à¤°à¤¹ à¤¬
à¤¤à¤µ à¤£
Ġà¤İ à¤¶
à¤¯ à¤«à¤¨
Ġà¤µ à¤¶à¤®
Ġà¤ĵ à¤¸à¤°
Ġà¤ħà¤µ à¤¬
Ġà¤®à¥ĺ à¤¸
Ġà¤ıà¤¨à¤ı à¤ıà¤®
Ġà¤® à¤Ĺà¤¦
à¤ľ à¤¬à¤¨
à¥Ĥà¤Ĥ à¤ĥ
Ġà¤¨à¤°à¤® à¤¤
à¤°à¤µ à¤¹à¤®
Ġà¥ĺ à¤¹à¤°
Ġà¥©à¥« à¥ª
à¤¸ à¤ľà¤°
Ġà¤ĸ à¤¬à¤°à¤¤
à¤ľà¤² à¤Ĺ
à¤¸à¤µ à¤®
à¤ªà¤¨ à¤®
Ġà¤īà¤® à¤°à¤Ĺ
Ġà¤ıà¤¨ à¤ĵà¤ª
Ġà¤¹à¤² à¤¸
à¤ħà¤ħ à¤ħà¤ħ
à¤® à¤ªà¤ķ
à¤« à¤ļ
Ġà¤¸à¤¨ à¤Ī
Ġà¤Ńà¤Ł à¤ª
à¤¨ à¤¬à¤¦
à¤Ľ à¤¤à¤°à¤ª
à¥Ļ à¤¸
Ġà¤ļ à¤¹à¤¨
à¤ł à¤·
Ġà¤ĵ à¤Łà¤²
Ġà¤ıà¤¨à¤ıà¤ļ à¤ıà¤²
Ġà¤¨à¤°à¤ªà¤¤ à¤Ĺ
à¤¨ à¤¸à¤²
Ġà¤¦ à¤Īà¤¯
Ġà¤ļà¤° à¤Ĺ
à¤¸à¤¤ à¤¤
Ġà¤ķ à¤Ŀ
à¤¦ à¤¹à¤Ł
à¤Ī à¤Ķà¤°
à¤ł à¥ľ
Ġà¤¬à¤¹ à¤µ
à¤² à¤¦à¤®
Ġà¤¸ à¤Ŀ
Ġà¤ī à¤°à¤¸
Ġà¤¬à¥Ŀ à¤ķ
à¤ĸà¤° à¤Ĺ
à¤Ł à¤ĸà¤¸
Ġà¤ı à¤ıà¤ıà¤¸
à¤ªà¤¤ à¤®
à¤¨à¤µ à¤Ĺà¤Ľ
Ġà¤Ĺà¤² à¤«à¤¡
Ġà¤«à¤¤ à¤¹à¤ª
Ġà¤Ĺà¤Łà¤ķ à¤¨
Ġà¥¬ à¥«à¥¦
à¤³ à¤¨
à¤Ĩà¤Ĩ à¤ħ
à¤Ĺ à¤¯à¤¤
à¤ĩ à¤ªà¤°à¤µ
à¤®à¤² à¤®
Ġà¤ıà¤¸ à¤Ĩà¤Īà¤¡
Ġà¤¨à¤° à¤¹à¤°à¤ª
à¤© à¤µ
Ġà¤ıà¤ıà¤« à¤ıà¤¸à¤ª
Ġà¤Ĩà¤Ĩ à¤ħà¤¹à¤¹
à¤® à¤ħà¤¦
à¤ľ à¤°à¤¦
à¤ĸ à¤®à¤ª
Ġà¤ĸ à¤¬à¤°à¤ķ
à¤µà¤¸ à¤®à¤°
à¤®à¤° à¤°
Ġà¤ªà¤¶ à¤®
à¤ĳ à¤¨à¤°
Ġà¤ıà¤ķà¤² à¤Ł
Ġà¥ļ à¤¦
Ġà¤Īà¤ĵ à¤ıà¤«
à¤¯ à¤ħà¤ķ
Ġà¤¹ à¤Łà¤°
Ġà¤ª à¤¬à¤²
Ġà¤ªà¤° à¤®à¤¦
à¥Ľ à¤ĸ
Ġà¤ıà¤® à¤Ĩà¤ĩ
à¤² à¤ľà¤®
Ġà¤ľ à¤¸à¤¸
à¤Ĺà¤¤ à¤¸
Ġà¤Ī à¤ıà¤¸à¤Ĩà¤°
à¤²à¤ªà¤° à¤Ĺà¤¨
Ġà¤Ĩà¤Īà¤ĵ à¤ıà¤²
Ġà¤µ à¤ªà¤¨
Ġà¤¬à¤¹ à¤¬à¤²
à¤¸à¤² à¤¡
Ġà¤Ŀ à¤Ŀ
Ġà¤°à¤µ à¤¯
à¤¬à¤¤ à¤¦
à¤¸ à¤¢
à¤¤ à¤¹à¤ķà¤®
à¤¸à¤® à¤§
Ġà¤ļà¤Ł à¤Ł
Ġà¤¶à¤°à¤¦ à¤ķ
Ġà¤¨ à¤¥à¤µ
à¤· à¤°à¤¸
à¤· à¤ĺ
Ġà¤¯ à¤¶à¤ķ
à¤ĩà¤² à¤¹
Ġà¤¸à¤®à¤¸ à¤¯
Ġà¥¨à¥® à¥¦
à¤ıà¤®à¤ıà¤® à¤µ
à¤¶ à¤ľà¤¨à¤ķ
Ġà¤īà¤¨ à¤ĸà¤°
à¤µà¤¨ à¤¦à¤°
à¤·à¤£ à¤¤à¤®
à¤®à¤Ń à¤µà¤¨
à¤¹ à¤³
à¤¤ à¤¸à¤¨
à¤£ à¤°à¤ķ
Ġà¤ħà¤¬ à¤¤
à¤µà¤¤ à¤ľ
à¤¦à¤® à¤Ī
Ġà¤ıà¤« à¤ıà¤¸à¤Ĩà¤Ī
à¤°à¤ļ à¤¶
Ġà¤ıà¤®à¤ĵ à¤ıà¤«
Ġà¤¨ à¤Ľà¤¤
Ġà¤Ĩà¤Ĺ à¤ı
à¤¤à¥Ļ à¤¬
à¤¸ à¤Łà¤²
à¤® à¤¬à¤ķ
Ġà¤® à¤¡à¤ķ
Ġà¥¨à¥¦ à¥¨à¥§
à¥® à¥«
à¤ıà¤¸à¤ıà¤® à¤¬
à¤² à¤ªà¤²
à¤°à¤µ à¤ł
Ġà¤Ĺà¤ı à¤²
Ġà¤Ĩà¤Ī à¤Īà¤Ł
Ġà¤ħà¤¸ à¤µà¤°
à¤°à¤¹ à¤®à¤¨
à¤¬à¤Ī à¤®
à¤Ĩà¤° à¤ıà¤ıà¤¸
Ġà¤¹à¤² à¤®
à¤°à¤¥ à¤ª
Ġà¤Ĩà¤Īà¤ı à¤ıà¤®
à¤ıà¤«à¤ĵ à¤Ī
Ġà¤¤à¥ľ à¤ªà¤ķà¤°
Ġà¤¹ à¤¦à¤¸
Ġà¤¤ à¤²à¤°
Ġà¤Ĩà¤° à¤Ĩà¤°à¤ıà¤¸
Ġà¤ľà¤¨ à¤®à¤¨
à¤°à¤« à¤¨à¤Ĺà¤°
Ġà¤®à¥Ľ à¤ķ
à¤· à¤ł
à¤Łà¤¬ à¤¯
Ġà¤° à¤ł
Ġà¤¸à¤ķ à¤¹
Ġà¤¸à¤ķ à¤¥
à¤¯à¤µ à¤¥
à¤ħà¤² à¤ª
à¤ķ à¤¨à¤®
à¤¤ à¤¦à¤¶
à¤ı à¤ĩ
à¤ĩ à¤ħà¤ª
à¤µà¤¸ à¤Ń
à¤¸à¤¨ à¤®à¤ıà¤ķ
à¤¹à¤¨ à¤¬
à¤¡à¤¨ à¤Ĺà¤°
à¤² à¤ł
à¤ĩ à¤¥à¤°
Ġà¤Ľ à¤Łà¤ķ
Ġà¤¸à¤®à¤¯ à¤¸à¤®à¤¯
Ġà¤ĵ à¤Īà¤²
Ġà¤Ĩà¤Ī à¤¸à¤²
Ġà¤¸à¤®à¤Ŀ à¤®
Ġà¤¸à¤®à¤Ŀ à¤¯
à¤ªà¤ķ à¤ľ
Ġà¤ħà¤ľ à¤¯à¤ķ
à¤ıà¤®à¤Ĩà¤Ī à¤ıà¤²à¤ı
Ġà¤ıà¤¨à¤Ĩà¤Īà¤Ĩà¤Ī à¤ıà¤«
Ġà¤® à¤¤à¤°
Ġà¤ıà¤µà¤° à¤¨
à¤¤ à¤Ĩ
à¤¼ à¤ģ
à¤Ľ à¤Ń
Ġà¤ıà¤® à¤Ĩà¤°à¤ĵ
Ġà¤Ĩà¤® à¤ľ
Ġà¤¦à¤ħ à¤°à¤¸à¤²
à¤² à¤ĩà¤¸
à¤µà¤¤ à¤¯
à¥į à¤ĥ
à¥Ģ à¤¿à¤Ĥ
à¤¯ à¤ħà¤¨
Ġà¤¸ à¤ı
Ġà¤ķà¤ª à¤Ļ
Ġà¤ªà¤ļ à¤®
Ġà¤ĵà¤ĸ à¤²à¤ķ
à¤ļ à¤Ľ
à¤µà¤¨ à¤¬
Ġà¤ĵ à¤°à¤µ
Ġà¤ªà¤¢ à¤²
Ġà¤¹à¤¡ à¤ªà¤¨
à¤¾à¥ħ à¥ħ
Ġà¤§à¤ķ à¤§à¤ķ
à¤³ à¤¸
Ġà¤ıà¤¤ à¤¦à¤°
Ġà¤ķ à¤±
Ġà¤ª à¤Ľà¤²
Ġà¤ī à¤¦à¤°à¤ª
à¤· à¤¹à¤¸
à¤Ń à¤ªà¤°
Ġà¤¹à¤® à¤¨à¤µ
à¤ī à¥ľà¤¨
à¤¯à¤¨ à¤ªà¤°
Ġà¤Ī à¤Ĩà¤°à¤ĵ
Ġà¤®à¤¨à¤¬ à¥Ŀ
à¤ Ħ
à¤µ à¤¹à¤¸
à¤ı à¤¯à¤°à¤²
à¤Ń à¤²à¤ª
à¤ĩ à¤ıà¤ķ
Ġà¤ªà¤¹ à¤µ
à¤¯à¤° à¤ķà¤°
Ġà¤ľà¤¨ à¤ħà¤Ń
Ġà¤ıà¤® à¤ĵà¤ıà¤¸
Ġà¤¢ à¤¨
à¥Ł à¤°
à¤¡ à¤ıà¤²
Ġà¤®à¤¨ à¤ļà¤¨
à¤Ĩà¤Ī à¤ĵà¤¸
à¤Ĥ à¥Ģà¤Ĥ
à¤Ĺ à¤ķà¤²
à¤¡ à¤Ĺà¤¨
à¤µà¤µ à¤µ
à¤ª à¤°à¤ķà¤¤
à¥Īà¤Ĥ à¥Ī
Ġà¤®à¤¶ à¤¹à¤¦
à¤Ķ à¤¸à¤¤
à¤® à¤®à¤°
à¤Ł à¥Ľ
à¤¶ à¤Ĺà¤¢
Ġà¤ī à¤§à¤µ
à¤°à¤ľ à¤ľ
Ġà¤ħà¤ĸ à¤®
Ġà¤ļà¤Ł à¤ķà¤¤
à¤¨ à¤ī
Ġà¤¹ à¤¹à¤°
à¤Ī à¤īà¤¤
Ġà¤ļ à¤ŀ
Ġà¤¥ à¤Ī
Ġà¤Ĩà¤° à¤ıà¤®à¤¸
Ġà¤ħà¤® à¤²à¤¨
à¤īà¤° à¤Ī
Ġà¤ĵà¤Ŀ à¤°
Ġà¥§à¥ª à¥¨
Ġà¤¨à¤°à¤ªà¤¤ à¤¸
Ġà¤ľ à¥Ļ
Ġà¤¦ à¥ľ
à¤§ à¤¨à¤¤à¤®
Ġà¤īà¤¸ à¤¹
Ġà¤Ĭ à¤§à¤°
Ġà¤ıà¤ıà¤ļ à¤ı
Ġà¤µà¤· à¤Ł
Ġà¤° à¤²à¤µ
Ġà¤Ĺ à¤°à¤Ń
à¤µà¤ļ à¤°à¤¨
Ġà¤ħà¤¯ à¤¥
Ġà¤Ľà¤² à¤¥
Ġà¤Ľ à¤ªà¤ķ
Ġà¤ħà¤² à¤²
à¤®à¤¬ à¤°à¤¦
à¤Ĩà¤Īà¤ı à¤¨à¤¸
Ġà¤ĺà¥ľ à¤¸
Ġà¤Ń à¤ľà¤¨à¤ķ
à¤§ à¤ĵ
à¤¹à¤° à¤ļà¤¨
à¤ľà¤¤ à¤¬
Ġà¤īà¤§ à¥ľ
à¤¹ à¤£à¤µ
à¤°à¤ķ à¤ļà¤°
Ġà¤¦à¤° à¤¹à¤¸à¤²
Ġà¤Ī à¤¸à¤²
à¤Ĳ à¤ľ
Ġà¤īà¥ľ à¤¨à¤¤à¤¶
Ġà¤ĺà¤° à¤Ĺ
Ġà¤īà¤® à¤°à¤ķ
à¤¯à¤¶ à¤¸
à¥ĩà¥ĩ à¥ĩà¤Ĥ
à¤¼à¤¼ à¤¼à¤¼
Ġà¤ľ à¤¤à¤ķ
à¥ľ à¤§
à¤²à¤¤ à¤«à¤¹à¤®
Ġà¤ħà¤Ń à¤¯à¤®
Ġà¤¹à¤² à¤ª
Ġà¥§à¥« à¥¬
Ġà¤·à¤¡ à¤ľ
Ġà¤®à¥ĺ à¤¬à¤°
à¤°à¤ķ à¤®à¤¶
à¤ıà¤® à¤ıà¤«à¤¸
Ġà¤®à¤¦ à¤®à¤¹
Ġà¤ªà¤Ł à¤ĸ
Ġà¤Ĺà¤°à¤® à¤ª
Ġà¤ļ à¤µà¤²
à¤ħ à¤¨à¤µ
à¤ĩà¤¸ à¤ªà¤°
à¤² à¤²à¤¨
Ġà¤® à¤ķà¤¨
Ġà¤ª à¤ªà¤¦
à¤· à¤¹à¤°à¤£
à¤ĩ à¤¬à¤¨
à¤ľà¤¸ à¤µ
à¤Ĩà¤° à¤Ĩà¤Īà¤ıà¤¸
à¥« à¥ª
à¥Ģ à¥ĭà¤Ĥ
à¤µ à¤Ĺà¤®
à¤ªà¤° à¤ªà¤ľ
à¤°à¤¨ à¤ļ
Ġà¤ıà¤¨ à¤Īà¤Ł
Ġà¤ıà¤ļ à¤ıà¤¸à¤¡
à¤«à¤² à¤¦
Ġà¤īà¤¡ à¤¨à¤¤à¤¶
Ġà¤¬à¤ķ à¤ļ
à¤ļà¤® à¤¡
Ġà¤¦à¤¹à¤¶à¤¤ à¤ľà¤¦
à¤ıà¤®à¤ĵ à¤¯
Ġà¤Ĩà¤°à¤Ī à¤ıà¤¸à¤Ł
à¤° à¤īà¤¦à¤¯à¤ª
Ġà¤° à¤Łà¤ķà¤°
Ġà¤Ł à¤¶
Ġà¤ħà¤²à¤Ĺ à¤¨
à¤ĩà¤ª à¤«
Ġà¤Ĩà¤ĩ à¤ıà¤¸à¤¬
Ġà¥§à¥¬ à¥¬
à¤®à¤¸ à¤ĸ
Ġà¤ľà¤¨à¤®à¤¤ à¤¸
Ġà¤® à¤¡à¤²
à¤¡ à¤¨à¤µ
Ġà¤ĵ à¤¤à¤¹
Ġà¤īà¤® à¤®
Ġà¤ıà¤¨ à¤ıà¤ļà¤¡
Ġà¤ªà¤¬ à¤¯
¾ à¤¼à¥ĩ
à¤ķ à¤¢
à¤ķ à¤ĺ
à¤ ¾à¤¼à¥ĩ
à¤¦ à¤Ĩ
Ġà¤¬ à¤¯à¤°
Ġà¤² à¤µà¤Ł
à¤Ń à¤°à¤®
à¤ķà¤° à¤¡
Ġà¤ħà¤¨ à¤ķà¤Ł
à¤µà¤° à¤§
à¤ĩà¤² à¤ķà¤ĩ
Ġà¥§à¥« à¥¨
à¤® à¤¦à¤°à¤¬
Ġà¤Ĺ à¤ľà¤Ĺ
Ġà¤Ĩà¤ª à¤¸à¤¬
à¤ī à¤¦à¤¦
Ġà¤Ĩà¤Īà¤ıà¤« à¤ıà¤ķ
Ġà¤ħà¤ªà¤¨ à¤¹
Ġà¤ĺ à¤ĺà¤°
Ġà¤¸à¤¹ à¤¯à¤ķ
Ġà¤ĵ à¤ĩà¤²
à¤Ĩà¤Ī à¤ıà¤¨à¤ıà¤ķ
à¤½ à¤Ĺ
Ġà¤® à¤Ĭà¤¦
à¤Ĺ à¤ĵ
Ġà¤° à¤ľà¤Ĺ
à¤°à¤¤ à¤¹
à¤Ĩà¤ľ à¤®à¤Ĺà¥Ŀ
Ġà¤ħà¤¨à¤Ł à¤ļ
Ġà¤Ķà¤° à¤¤à¤¨
Ġà¤Ŀ à¤ķà¤¨
Ġà¤ıà¤² à¤ıà¤®à¤ľ
Ġà¤Ńà¤°à¤£ à¤ª
à¤ķ à¤§à¤¨
Ġà¤® à¤®à¤°
à¤¶ à¤µà¤ļ
Ġà¤ī à¤ī
à¤ĸ à¤°à¤ª
à¤£ à¤µà¤²
à¤¹à¤° à¤¶
à¤®à¤¨ à¤¯
Ġà¤®à¤² à¤¦à¤¹
Ġà¤ıà¤ļ à¤ıà¤¨à¤Ĩà¤Ī
à¤¯ à¤ħà¤ª
Ġà¤¸ à¤¶à¤¤
Ġà¤¯ à¤Ĺà¤£
Ġà¤ªà¤° à¤µà¤¨
à¤ł à¤¬à¤¦
Ġà¤ĵ à¤°à¤£
à¤°à¤¯ à¤ļ
à¤ľà¤¯ à¤¸à¤Ń
à¤ıà¤« à¤¹
Ġà¤ıà¤¸à¤ıà¤® à¤ıà¤«
Ġà¤ľ à¤¯à¤²à¤ķ
Ġà¤Ń à¤ļà¤ķ
Ġà¤ĸ à¤ķà¤¨
à¤¤à¤° à¤ķà¤°
Ġà¤ķà¤Ī à¤¬
Ġà¤¨ à¤ļà¤²
Ġà¤ľ à¤ªà¤²
à¤Ī à¤¸à¤®
à¤Ī à¤ĸà¤¦
Ġà¤ıà¤« à¤ıà¤ļà¤¡
à¤®à¤¬ à¤ļà¤¨
Ġà¤ķ à¤¸à¤²
Ġà¤° à¤¶à¤®
Ġà¤¯ à¤°à¤µà¤¡
Ġà¤ĩà¤¨ à¤°à¤¸
à¤ĸà¤¨ à¤ļ
à¤µà¤ķ à¤µ
à¤¹à¤² à¤¦
à¤µà¤® à¤§
Ġà¤µ à¤Ĩ
à¤¶ à¤ĳà¤īà¤Ł
à¤ı à¤¶à¤¨à¤²
à¤¡ à¤²à¤¨
à¤¡ à¤ıà¤¨
Ġà¤Ķà¤° à¤¶
à¤Ĺà¤² à¤Ł
Ġà¤ĩà¤¤ à¤ľ
à¤ķ à¤ĳà¤īà¤Ł
Ġà¤µ à¤ĩà¤¸à¤¨
Ġà¤¶à¤° à¤²
Ġà¤¢ à¤²à¤ķà¤°
Ġà¤ĳà¤¬ à¤ľà¤°
Ġà¤«à¤°à¤¹ à¤¦
à¤ļà¤ª à¤¦à¤¸
Ġà¤° à¤Ľà¤ª
à¤Łà¤° à¤¦
à¤ĺ à¤ĺ
à¤Ĺà¤² à¤ªà¤Ł
Ġà¤Ĩà¤Ĺ à¤¨à¤µ
Ġà¤Ĩà¤¶ à¤®
à¥Ĳà¥Ĳà¥Ĳà¥Ĳ à¥Ĳà¥Ĳà¥Ĳà¥Ĳ
Ġà¤ķà¤® à¤²à¤®
à¤°à¤¹ à¤¶
Ġà¤īà¤¡à¤© à¤¦à¤¸
Ġà¤ª à¤Ĺà¤®
à¤¬ à¤¸à¤®
à¤Ī à¤¯à¤°
Ġà¤Īà¤¶ à¤¦
à¤ĳ à¥ŀ
à¤¨ à¤¯à¤¸
à¤¯ à¤ĩà¤¤
Ġà¤¶ à¤µà¤°
à¤°à¤¸ à¤µà¤ķ
Ġà¤ħà¤Ń à¤µ
à¤¬à¤¹ à¤²
à¤ª à¤¥à¤¨
à¥ĭà¤Ĥ à¤¿
à¤Ĩ à¤ĸà¤²
à¤¸à¤¨ à¤Ł
Ġà¤°à¤¸ à¤¬
Ġà¤¶à¤°à¤£ à¤ľ
Ġà¤ħ à¤ĺà¤°
Ġà¤² à¤¯à¤ķ
à¤¶ à¤¯à¤®
Ġà¤ı à¤ľà¤¨
Ġà¤ĺ à¤°à¤¦
à¤µà¤¤ à¤µ
Ġà¤²à¤²à¤¥à¤¨ à¤¹à¤µà¤²
Ġà¤Ĩà¤Ī à¤ıà¤¨à¤Ĩà¤°
à¤²à¤¬ à¤ľ
Ġà¤ªà¤Ł à¤ªà¥ľ
à¤¤ à¤Ńà¤¦
Ġà¤Ĩ à¤ħà¤¦
à¤¨à¤® à¤¦
Ġà¤Ńà¤Ł à¤ķà¤°
Ġà¤Ĺ à¤ªà¤°à¤¸
Ġà¤ĩ à¤°à¤¸
Ġà¤īà¤® à¤Ł
à¤¦à¤® à¤Ĺ
à¤Ĺà¤¨ à¤ª
Ġà¤ıà¤² à¤ıà¤®à¤ıà¤¸
Ġà¤ħà¤ľà¤¯ à¤Ĺà¥Ŀ
à¤ıà¤®à¤Ĩà¤Ī à¤ıà¤¸
Ġà¤¨à¤µà¤² à¤Ĺà¥Ŀ
Ġà¥Ŀ à¤²
Ġà¤ĩà¤ķà¤¸ à¤ł
à¤¸ à¤µà¤¸
Ġà¤Ĩ à¤Ĺà¤²à¤Ĺ
Ġà¤ķà¤° à¤ĩà¤¤
Ġà¤Ī à¤ıà¤®à¤¡
Ġà¤ľà¤¯ à¤ķà¤°à¤¨
Ġà¤· à¥ľ
Ġà¥§à¥®à¥¯ à¥©
Ġà¤§à¤§ à¤ķà¤¨
à¤¨ à¤Ĺà¤¡
Ġà¤Ĩ à¥ŀà¤°
Ġà¤¶ à¤°à¤µ
Ġà¤ıà¤¡ à¤Ĺ
Ġà¤ıà¤¨à¤Ĩà¤Ī à¤ĵ
Ġà¤¸à¤¬ à¤¯
à¤¦à¤¨ à¤¯
à¤¨à¤¤ à¤¯
Ġà¤ħà¤ª à¤¥
Ġà¤¬à¤° à¤ł
à¤¬à¤° à¤ľ
à¤®à¤² à¤¬
à¤ıà¤ļ à¤ıà¤¸à¤¬
à¤Īà¤ĺà¤° à¤Ł
Ġà¥©à¥® à¥¦
Ġà¤«à¤°à¤¸ à¤Ĺ
Ġà¤² à¤²à¤¤
à¤ı à¤¥à¤²
à¤§ à¤µà¤¤
Ġà¤ħà¤§ à¤¸
Ġà¤ĵà¤ªà¤¨ à¤ľ
Ġà¤ıà¤®à¤ıà¤² à¤Ĩà¤°à¤ıà¤¸
à¤¤ à¤§à¤°
Ġà¤¡ à¤¤
Ġà¤ħà¤¨ à¤°à¤¸
Ġà¤ľà¤¨ à¤¬à¤²
Ġà¤ķà¤¬ à¤ľ
à¤ıà¤² à¤ıà¤¸à¤ıà¤¸
Ġà¤¾ à¥ĭ
Ġà¤ı à¤ĵà¤ı
à¤Ĺà¤° à¤¥
Ġà¤īà¤ª à¤ļà¤°
à¤®à¤ķ à¤¡
Ġà¤ħà¤ĸ à¤¡
à¤¤à¤² à¤¦
Ġà¤«à¤²à¤ķ à¤¥à¤¨
Ġà¤¸ à¤Ĺà¥ľ
Ġà¤ı à¤ıà¤¸à¤ķ
à¤¹à¤ķ à¤®à¤ª
Ġà¤ıà¤« à¤Ĩà¤°à¤ıà¤¸
Ġà¤Ĺà¤Ĺà¤¨ à¤ľ
à¤ı à¤Ĩà¤Īà¤Ł
Ġà¤Ń à¤ĵ
à¤§ à¤µà¤ķ
Ġà¤Ĩà¤¯ à¤ıà¤¸
Ġà¤¦à¤° à¤²
Ġà¤ķà¤ª à¤¯
à¤Ĩà¤ľ à¤¤à¤ķ
Ġà¤ª à¤¬à¤¨
Ġà¤ªà¤° à¤®à¤Ĺ
à¤¤à¤° à¤¸à¤°à¤ķ
à¤Ĩ à¤°à¤®
à¤ĩà¤¸ à¤¬
à¥« à¥©
Ġà¤¶à¤°à¤¦ à¤ļà¤¨
Ġà¥¨à¥¦à¥Ń à¥¬
à¤¸ à¤ħà¤§
Ġà¤ªà¤° à¤¡
Ġà¤ļ à¤®à¤²
à¤ķà¤° à¤«
Ġà¤Ĩà¤ª à¤ľ
à¤°à¤® à¤Ĺà¤¢
Ġà¤ıà¤¸ à¤Īà¤ª
à¤¯à¤¸ à¤¹
Ġà¤½ à¤½
à¤² à¤µà¤°à¤ķà¤°
à¤Ŀ à¤¹
à¤ĩà¤² à¤²
Ġà¤ħà¤¡ à¤ľà¤¸
à¤¨ à¤²à¤¨
à¤¬ à¤¬à¤¨
Ġà¤ĸ à¤¬à¤°à¤®
Ġà¤°à¤¹ à¤Ī
à¤ī à¤ªà¤¦
à¤µà¤² à¤«
à¤ħ à¤Ńà¤¯
Ġà¤ıà¤¨ à¤ıà¤ıà¤²
Ġà¤¤à¤¤ à¤¸
à¥Ń à¥®
Ġà¤ıà¤®à¤Ĩà¤Ī à¤¬
à¤¬à¤¹à¤¨ à¤Ł
à¤° à¤°à¤¹à¤®
à¤µ à¤¦à¤¶
à¤¥ à¤°à¤ķ
à¤®à¤¨ à¤«
Ġà¤ĵ à¤°à¤¹
Ġà¤ľà¤¯ à¤Ĺà¥Ŀ
Ġà¤ıà¤® à¤Īà¤ı
à¤ıà¤¨ à¤Ĩà¤°à¤Ĩà¤Ī
Ġà¤ªà¤°à¤® à¤Ńà¤ķ
à¤ĩ à¤ıà¤¨
Ġà¤Ńà¤° à¤Ĺ
Ġà¤ıà¤¸ à¤ıà¤®à¤ıà¤²
Ġà¤Ĺà¤° à¤¨
à¥¯ à¥¬
Ġà¤²à¤ļà¤ķ à¤¦
à¤¡ à¤ķà¤²
à¤¤à¤° à¤°à¤·
à¤¯à¤¨ à¤¸à¤®à¤²
à¤¯à¤¤ à¤ķà¤¤
Ġà¤Ĩà¤Ī à¤¡à¤²
Ġà¤ł à¤īà¤°
Ġà¤ıà¤¸ à¤ıà¤¨à¤ıà¤¸
Ġà¤¯à¤¦ à¤µ
Ġà¤ķà¤ł à¤µ
à¤®à¤£ à¤Ĺà¥Ŀ
Ġà¤®à¤¥ à¤ķà¤°
à¤µ à¤µà¤¸
Ġà¤¬à¤¡ à¤¤
Ġà¤ħà¤µ à¤Ł
à¤²à¤µ à¤¤à¤¨
Ġà¥§à¥© à¥¦à¥¦
à¤¨ à¤¦à¤¨
à¤Ĺà¤¨ à¤¬à¤¦
Ġà¤«à¥ľ à¤ķà¤¤
à¤¦à¤µà¤Ī à¤¨à¤Ĺà¤°
Ġà¤ħà¤¸ à¤¸
à¤ĩà¤² à¤µ
à¤ıà¤« à¤ıà¤¸à¤¸
Ġà¤ªà¤°à¤® à¤¶à¤ķ
à¤¥à¤ľ à¤Ĺà¤¤
à¤µà¤° à¤¥
Ġà¤īà¤¦à¤° à¤¶
à¤¶ à¤°à¤¹
Ġà¤Ĩ à¤Ļ
Ġà¤ļ à¤¨à¤ªà¤Ł
Ġà¤ıà¤ķ à¤µà¤°
Ġà¤Ĩà¤° à¤Ĩà¤Īà¤ª
Ġà¤ħà¤ª à¤ª
à¤µà¤ķ à¤®
à¤¥à¤® à¤¯
Ġà¤¬ à¤ķà¤¨à¤°
à¤¼à¥ĩ à¤¼
Ġà¤ıà¤¨ à¤ıà¤«à¤¡
Ġà¤«à¤² à¤¶
à¤Łà¤¸ à¤Ĺ
à¤ªà¤Łà¤¨ à¤µ
Ġà¤¤à¥ĺ à¤µ
à¤ķ à¤¸à¤²
Ġà¤° à¤¥à¤¨
Ġà¤ļ à¤·
Ġà¤Ł à¤°à¤²
Ġà¤¤à¤° à¤Ĺ
Ġà¤ıà¤¸ à¤Ĳ
Ġà¤ıà¤² à¤Ĩà¤°à¤ĵ
à¤© à¤¤
Ġà¤ĸà¤Łà¤ķ à¤¡
à¤¸ à¤¹à¤®
Ġà¤¸ à¤²à¤°
à¤¸à¤° à¤ľ
à¤ıà¤® à¤ıà¤¸à¤¸
Ġà¤ıà¤¸ à¤Ĩà¤Īà¤ı
Ġà¤°à¤¸ à¤¹
à¤µà¤£ à¤°
Ġà¤®à¤Ĭà¤¦ à¤°à¤µ
à¤¨ à¤ıà¤²
à¤¸ à¤ªà¤ķ
Ġà¤ª à¤¨à¤¦
Ġà¤Ĺ à¤Ľ
à¥Į à¤ĥ
Ġà¤īà¤¤ à¤ªà¤¤
Ġà¤ĵ à¥Ŀà¤¤
à¤®à¤ķ à¤ª
à¤ıà¤¸à¤ıà¤® à¤ı
à¤¹ à¤Łà¤²
à¤ı à¤®à¤¨
à¤Ń à¤°à¤ª
Ġà¤ķà¤® à¤ħà¤ķ
à¤ļà¤° à¤«
Ġà¤¹à¤ķ à¤ĩ
Ġà¤ļà¤¹à¤² à¤ªà¤¹à¤²
à¤¨ à¤ħà¤ªà¤¨
à¤Ł à¤ªà¤¦
à¤§ à¤°à¤ķ
Ġà¤¸à¤¬ à¤ħà¤°
à¤·à¤£ à¤¹
Ġà¤®à¤¦ à¤°à¤¸à¤¨
à¤¨ à¤ĳà¤°
Ġà¤Ł à¤¦
Ġà¤µà¤° à¤ļ
Ġà¤¸à¤ļ à¤µ
à¤¯ à¤§à¤¨
Ġà¤Ķ à¤®
Ġà¤Ĩà¤¯ à¤¡à¤²
Ġà¤ħà¤ª à¤ĺ
Ġà¤¨à¤µ à¤¸à¤°
Ġà¤ıà¤¨ à¤ıà¤«à¤ıà¤¸
Ġà¤°à¤¸ à¤¯
Ġà¤ħà¤®à¤° à¤Ĺà¤¢
Ġà¤¹à¤ķ à¤¬à¤ķ
Ġà¤Ĩà¤°à¤ı à¤ıà¤¨à¤¬
Ġà¤¦ à¤°à¤¤
Ġà¤¤ à¤¶à¤¤
à¤ĩ à¤Ŀ
à¤°à¤£ à¤²
Ġà¤ħà¥ĺ à¤²
à¤¸ à¤ıà¤²à¤Ĩà¤°
à¤® à¤®à¤¸
à¤ª à¤¶à¤°
Ġà¤¨ à¤ļà¤µ
Ġà¤ªà¤° à¤§à¤°
à¤¥ à¤®à¤¨
à¤°à¤® à¤Ń
Ġà¤®à¤¨ à¤Ĺà¤µ
Ġà¥ĺ à¤¤à¤²
Ġà¤ĩà¤Ł à¤¹à¤°
Ġà¤¬ à¤Ĭà¤Ĩ
Ġà¤¹à¤° à¤ļà¤¨
Ġà¥§à¥Ń à¥¦à¥¦
Ġà¤ıà¤«à¤ıà¤« à¤ıà¤®
Ġà¤¸ à¤·
à¤Ł à¤ħà¤µ
Ġà¤Ĩà¤Ī à¤ıà¤«à¤Ł
à¤ħ à¤²à¤°
Ġà¤ħà¤®à¤¨ à¤ªà¤¸
Ġà¥ł à¤Ĺ
Ġà¤® à¤ļà¤ķ
à¤¶ à¤°à¤«
Ġà¤Ĩà¤Ī à¤Ĩà¤°à¤Ł
à¤²à¤° à¤ª
à¤¶à¤ķ à¤¦
Ġà¤®à¤£ à¤µ
Ġà¤Ńà¤Ĺà¤¦ à¤¤
à¤¤ à¤ļà¤¨
à¤¤ à¤«à¤²
à¤Ł à¤īà¤¤
Ġà¤Ń à¤¯à¤µà¤¶
à¤· à¤¦à¤ķ
Ġà¤ıà¤« à¤Ĩà¤°à¤ı
Ġà¤ıà¤ļ à¤ĵ
à¤ıà¤¸à¤ı à¤Ĩà¤°
Ġà¤Ĺà¥Ŀ à¤®
Ġà¤© à¤¹
à¤° à¤Ĩà¤ª
à¤¤ à¤¤à¤ķ
Ġà¤¯ à¤µà¤¤
à¤Ī à¤ķà¤Ł
Ġà¤¶ à¤ªà¤¯
à¤Ĩà¤ĩ à¤ıà¤®à¤ıà¤¸
Ġà¥§à¥¯à¥¦ à¥§
Ġà¤Ĩà¤Ĩà¤Ĩ à¤Ĩà¤Ĩà¤Ĩà¤Ĩ
à¤¸ à¤¬à¤¹
à¤µ à¤ĩà¤¤
à¤°à¤¤ à¤ľ
à¤¨à¤ķ à¤ķ
Ġà¤ķà¤¦ à¤°à¤¦
Ġà¥Ń à¥¨à¥¦
Ġà¥¨à¥¨ à¥§
Ġà¤¦ à¤ľà¤²
à¤¡ à¤¨à¤®
à¤ĸ à¤ªà¤°
à¤ľà¤¨ à¤«
Ġà¤ħà¤² à¤®à¤¬à¤°à¤¦
à¤¹à¤¤ à¤¤
à¤ħ à¤ªà¤¸
à¤½ à¤µ
Ġà¤Ńà¤Łà¤ķ à¤Ł
Ġà¤Ĩà¤ī à¤Łà¤ķ
Ġà¤°à¤¹à¤² à¤ĩ
Ġà¤Ĩà¤ĩà¤ľ à¤ķ
Ġà¤²à¤ī à¤ķà¤¤
à¤° à¤ıà¤¬
Ġà¤ķ à¤¨à¤®
Ġà¤¬à¤¡ à¤ª
à¤ļà¤° à¤ľ
Ġà¤ıà¤² à¤¬à¤°
Ġà¤ļà¥Ŀ à¤µ
Ġà¥¨à¥¬ à¥¦
Ġà¤¤ à¤ĩà¤¸
à¤ļ à¤¸à¤®
Ġà¤Ĩà¤Ī à¤ĵà¤¬
Ġà¤¨à¤Ĺ à¥ľ
à¤Ĺ à¤ħà¤¨
à¤ı à¤¯à¤°à¤¸
Ġà¤Ĳ à¤ªà¤¸
Ġà¤¨à¤Ĺà¤° à¤®
à¤®à¤¯ à¤¶
Ġà¥§à¥« à¥ª
à¤Ńà¤°à¤¤ à¤ª
Ġà¤ħà¤®à¤°à¤ķ à¤¥
Ġà¤° à¤Ľ
à¤ļ à¤ķà¤ª
Ġà¤ĺ à¤¨à¤¨
à¤Łà¤° à¤¶à¤°
Ġà¤Ĳ à¤¯à¤°
Ġà¤Ĩà¤Ī à¤¦
à¤§à¤¨ à¤¦
à¤ıà¤« à¤Ĩà¤ĩ
Ġà¤ľà¤¯ à¤ľ
à¤¯à¤ľà¤¨à¤ķ à¤ıà¤¶
Ġà¤µà¤¤à¤¨ à¤ªà¤°à¤¸
à¤¸ à¤īà¤¦
Ġà¤ħ à¤¡à¤¸
Ġà¤¬à¤¨ à¤¦
Ġà¤Ŀ à¤ķà¤°
Ġà¤¸à¤ķ à¤¬
Ġà¤ħà¤¸ à¤®à¤²
à¤± à¤¤
Ġà¤ľà¤¯à¤¦ à¤¯
à¤ķ à¤ĵ
à¤¸ à¤¶à¤¨
à¤Ĥ à¤ģ
à¤ª à¤ĩ
à¤µ à¤µà¤¨
Ġà¤¬ à¤ĺà¤µ
à¥ľ à¤ľ
à¤ªà¤² à¤µà¤²
à¤° à¤¯à¤°
à¤Ĩ à¤¬à¤¨
à¤²à¤¤ à¤¯
Ġà¥Ļ à¤ľ
Ġà¤¸à¤¹à¤ª à¤Ĭ
Ġà¥ªà¥ª à¥Ń
Ġà¤ıà¤«à¤ıà¤¸ à¤ıà¤ļ
à¤¸ à¤ıà¤ļ
Ġà¤¸ à¤ľà¤¯
Ġà¤ª à¥Ľ
à¤Ĺ à¤ľà¤°
Ġà¤Ń à¤¹à¤°
Ġà¤¡ à¥Ł
Ġà¤ıà¤¸ à¤Ĩà¤Īà¤Ĩà¤°
Ġà¤Ĭ à¤¤à¤°
Ġà¤Łà¤® à¤Ł
Ġà¥® à¥¦à¥¦à¥¦
Ġà¤ıà¤ļà¤ıà¤®à¤ıà¤¸ à¤Ĩà¤Ī
à¤¦ à¤¢
à¤¦ à¤²à¤ķ
Ġà¤¯ à¤ļà¤¡
à¤Ī à¤Łà¤¨
Ġà¤®à¤ľ à¤Ĺ
à¤µà¤°à¤£ à¤ķ
Ġà¤¬ à¤ĺà¤°
à¤¬ à¤ĺ
à¤ī à¤¦à¤¯
à¤Ĩà¤Ī à¤ıà¤¸à¤ı
Ġà¥¨à¥¨ à¥«
à¤® à¤¯à¤¨
Ġà¤° à¤Ŀ
à¤§ à¤Ľ
Ġà¤Ĩà¤¦ à¤¶
Ġà¤ħà¤Ĺ à¤¦
Ġà¤ļà¤¯à¤¨ à¤ª
Ġà¤¸ à¤Ĺà¤°à¤®
Ġà¤° à¤¸à¤¤
à¤ı à¤ķà¤¸
à¤¡ à¤Łà¤°
Ġà¤ī à¤¬à¤¨
à¤¯à¤® à¤ĸà¤¬à¤°
Ġà¤ĵ à¤Ĺà¤°
Ġà¤Ĩà¤Ī à¤ıà¤ķ
Ġà¤ıà¤¸ à¤Īà¤ıà¤¸
à¤ĥà¤ĥ à¤ĥà¤ĥ
à¤¤ à¤¯à¤¤
Ġà¤ª à¤«à¤°
à¤Ł à¤£à¤®
à¤¬ à¤Ĺà¤¦
Ġà¤¥ à¤Ł
Ġà¤ĵà¤µà¤° à¤µà¤°
à¤ļà¤¡ à¥Ļ
Ġà¤¤ à¤Ĺà¤¤
Ġà¤¤ à¤Ĺà¤£
à¤ł à¤Ł
à¤®à¤ķ à¤¸à¤¦
Ġà¤Ńà¤Ĺ à¤¬
à¤¹ à¤Ĺà¤°
à¤ª à¤ħà¤°
Ġà¤« à¤¨à¤²
Ġà¤¡ à¤ªà¤Łà¤¤
à¤°à¤¦ à¤µ
Ġà¤ķà¤® à¤¦
Ġà¤ķà¤® à¤²à¤°
Ġà¤ıà¤ļ à¤Ĩà¤°à¤ıà¤®
Ġà¤ĳà¥ŀ à¤²
Ġà¤¯à¤¶ à¤¶
Ġà¤ıà¤¸à¤ıà¤¨ à¤ıà¤¸à¤¸
Ġà¤ı à¤ıà¤ļà¤¡
Ġà¤¶ à¤ªà¤¤
Ġà¤ıà¤ķ à¤Ń
Ġà¤Ĺà¤° à¤ĸ
Ġà¤®à¤¦ à¤Ń
Ġà¤ıà¤² à¤ıà¤¸à¤ı
à¤§à¤¶ à¤¹à¤°
Ġà¤ĵà¤¹ à¤¹
à¤° à¤°à¤¯
à¤¬ à¥Ŀà¤¤
Ġà¤Ń à¤®à¤°
Ġà¤ªà¤° à¤ľà¤¨
à¤ĸ à¤µà¤°
à¤ģ à¤ģ
à¤ī à¤¶
Ġà¤Ī à¤ıà¤®à¤ĵ
Ġà¤Ī à¤ıà¤®à¤¬
à¤¨à¤µ à¤¹
à¤ıà¤« à¤Ĩà¤Īà¤Ĩà¤°
à¤° à¤Ľà¤¤
à¤¸ à¤īà¤¤
à¤§ à¤Ł
Ġà¤ıà¤¨ à¤Ĩà¤Īà¤ıà¤«à¤ıà¤«
Ġà¤ħà¤Ľ à¤°
Ġà¤¸à¥ŀ à¤¦à¤°
Ġà¤ıà¤¨à¤ıà¤ļ à¤ı
Ġà¤«à¤ľà¤² à¤Ĺ
à¤µ à¤Ļ
à¤®à¤¦ à¤ľ
à¤·à¤ķ à¤µ
à¤ıà¤ļ à¤ıà¤¨
Ġà¤§à¥ľ à¤§à¥ľ
Ġà¤ħ à¤ıà¤²
à¤ļ à¤¸à¤®à¤Ŀ
Ġà¤Ĩà¤ª à¤¤à¤¨
Ġà¤Ĳ à¤²à¤ķ
Ġà¤ł à¤®
Ġà¤ıà¤¸ à¤ıà¤¨à¤ª
Ġà¤¹à¤¦ à¤¤à¤ķ
Ġà¤ıà¤®à¤ıà¤® à¤ıà¤®
Ġà¤ªà¤Łà¤² à¤µ
à¤į à¤®
Ġà¤ıà¤¸à¤Ĩà¤Ī à¤¯
Ġà¤ļà¤°à¤¨ à¤¦
Ġà¤ªà¤Łà¤ªà¥ľ à¤Ĺ
Ġà¤ĩ à¤ħà¤°
à¤· à¤Ĺà¤¢
à¤°à¤¤ à¤¬à¤²
Ġà¤ķà¤¹ à¤ĩ
à¤Ŀ à¤Ĺà¤¡
Ġà¤ĵ à¤¤à¤¯
Ġà¤°à¤£ à¤ļ
à¤° à¤ħà¤¬
à¥ĭ à¥Ģ
Ġà¤ħà¤² à¤¯
Ġà¤ħà¤µ à¤ĩà¤¯
à¤Ĺ à¤Ĺà¤°
à¤§ à¤ļà¤°
Ġà¤Ķà¤° à¤Ł
Ġà¤ı à¤Ĩà¤ĩà¤ıà¤®
à¤°à¤¶ à¤®à¤¨
Ġà¤®à¤¸ à¤ķà¤²
Ġà¥©à¥© à¥Ń
à¤Ľ à¤²à¤¨
à¤ł à¤ļ
Ġà¤Ľ à¤ķà¤¡
Ġà¤ľà¤¨ à¤°à¤ķ
Ġà¤ªà¤Ł à¤¹
Ġà¤ĸà¥ľ à¤¸
Ġà¤ļà¤¹ à¤ļ
Ġà¥§à¥®à¥® à¥«
» à¤
Ġà¤ªà¤° à¤Ńà¤¨
Ġà¤« à¤Ĺà¤¨
Ġà¤¦à¤° à¤ħ
Ġà¤ıà¤¨ à¤ıà¤¸à¤Ł
Ġà¤¹à¤¤ à¤Ń
»à¤ ¾
à¤² à¤µà¤¨à¤¶
à¤¡ à¤īà¤¤
Ġà¤¸à¤° à¤°
Ġà¤ıà¤®à¤ıà¤² à¤ıà¤¸
à¤® à¤¬à¤¦
Ġà¤¸ à¤°à¤µà¤£
à¤¦ à¤ªà¤¦
à¤Ĺ à¤¬à¤¡
Ġà¤®à¤¸ à¤ĸ
à¤Ĩà¤° à¤¡à¤¬
à¤²à¤ķà¤° à¤¨
Ġà¤¶à¤¶ à¤¶à¤¶
Ġà¤¸à¤® à¤µà¤¶à¤°à¤£
à¤ªà¤° à¤ĩ
à¤¡à¤¨ à¤¬à¤°
Ġà¤ĩà¤ļ à¤²à¤ķà¤°
à¤ĳ à¤®
à¤£à¤ķà¤° à¤¨à¤¸à¤°
à¤² à¤¹à¤²
à¤ı à¤ªà¤°
Ġà¤ĩ à¤¡à¤¸
à¤ķà¤° à¤½
Ġà¤²à¤¡ à¤µ
Ġà¤¶à¤¤ à¤¶
Ġà¤¦à¤°à¤µ à¤ľ
à¤Ķ à¤ķ
à¤ķ à¤®à¤Ĺ
Ġà¤® à¤¬à¤¨
Ġà¤Ķà¤° à¤ıà¤ķ
à¤ĵ à¤ıà¤¸à¤Ī
à¤¸à¤¨ à¤¶
Ġà¤¶à¤¹à¤° à¤¨
Ġà¤Ĩà¤µà¤¶ à¤ķà¤¤
à¤·à¤¯ à¤ľ
Ġà¤¨à¤® à¤Ń
Ġà¤ĵà¤µà¤° à¤¶
Ġà¤¬à¤ļà¤¤ à¤ķà¤°
à¤²à¤ĸà¤¨à¤Ĭ à¤ªà¤Łà¤¨
Ġà¤Ĺ à¤®à¤¯
à¤ĸ à¤ħà¤ľà¤®
Ġà¤ħà¤¨ à¤¸à¤°
à¤®à¤ķ à¤£
Ġà¥ŀ à¤¨à¤ķ
Ġà¤ļà¤¯à¤¨ à¤µ
Ġà¤· à¤Łà¤ķ
à¤ª à¤ŀ
Ġà¤¹ à¤¸à¤²à¤°
Ġà¤° à¤ļà¤²
Ġà¤ı à¤ıà¤«à¤ıà¤¸
Ġà¤ĸ à¤ªà¤¨
à¤Ĺà¤° à¤ķà¤°
à¤¨à¤¨ à¤¦
Ġà¤Ĩà¤® à¤¸à¤¹à¤®à¤¤
à¤°à¤ļ à¤¤
à¤¡à¤® à¤ľ
Ġà¤ıà¤¹ à¤®à¤¦
Ġà¤®à¤ķà¤¡ à¤ľ
Ġà¤ı à¤ıà¤Ł
Ġà¤ħà¤° à¤¬à¤¸
Ġà¤ıà¤® à¤ıà¤®à¤Ĩà¤Ī
Ġà¤¹à¤² à¤·à¤·
Ġà¤ħà¤ĺ à¤Ł
Ġà¤Ĳ à¤·
à¤¸à¤¸ à¤¬
Ġà¤¦à¤¦ à¤Ī
Ġà¤ľà¤Ī à¤¸à¤¨
à¤Ĥ à¥ĭ
à¤ļ à¤½
à¤· à¤¤à¤µ
à¤¥ à¤°à¤ļà¤Ł
Ġà¤Ĩà¤¯ à¤¨à¤Ł
à¤ĺ à¤¯
Ġà¤Ĭ à¤ªà¤°à¤ķ
à¥ŀ à¥ŀ
à¤«à¤° à¤Ł
à¤¤à¤°à¤£ à¤ķ
Ġà¤ļà¤ķà¤° à¤ª
à¤¿ à¥Ī
à¤¬ à¤Ĺà¤²
à¥ĥ à¥Ģà¤Ĥ
à¤°à¤¸ à¤Ĺ
Ġà¤ł à¤łà¤°
Ġà¤ªà¤¦ à¤®à¤¨
à¤ľà¤¸ à¤¥
à¤°à¤¹à¤£ à¤ķà¤°
Ġà¤ľà¤ł à¤°à¤¶
à¤² à¤²à¤ķ
à¤¹à¤° à¤¡
à¤·à¤£ à¤ĩà¤¸
à¤ķà¤² à¤ķà¤¤
Ġà¤¯à¤¦ à¤ª
à¤¨à¤µ à¤¦à¤¨
à¤²à¤µ à¤¡
à¤¬à¤Ī à¤¨
Ġà¥ŀ à¤µ
Ġà¤ªà¤µà¤¨ à¤ķ
Ġà¤¸à¤µà¤° à¤¨
à¤ħà¤ķ à¤¸à¤°
Ġà¤ıà¤ıà¤ļ à¤Ĩà¤°
Ġà¤¸à¤²à¤¤ à¤¨à¤¤
à¤Ŀ à¥ľ
à¤Ĭ à¤¶
Ġà¤¨à¤ľ à¤°à¤¦
à¤Ĳ à¤¡
Ġà¤ľà¤¯à¤¦ à¤¤
à¥į à¥Į
Ġà¤¬ à¤°à¤¶
à¤Ł à¤µà¤¨
Ġà¤¦ à¤ĸà¤¤
Ġà¤Ľ à¤ľà¤ķ
à¤°à¤¸ à¤Ļ
Ġà¤Ĩà¤µ à¤¯
à¤¹à¤¨ à¤ķà¤°
à¤¥à¤µ à¤¯à¤µà¤¸
Ġà¤Ĩà¤®à¤ľà¤¨ à¤®
à¤¸ à¤łà¤µ
à¤¯à¤° à¤ĩà¤Ł
Ġà¤Ĳ à¤ķà¤¤
à¤ħ à¤Ī
à¤ħ à¤¨à¤®
Ġà¥¨à¥¦ à¥ª
Ġà¤¹ à¤¸à¤ª
Ġà¤ľ à¤°à¤¸
à¤°à¤® à¤°à¤Ĺ
Ġà¤¬à¤¹ à¤¸à¤¤
à¤Ĺà¤µà¤¤ à¤ª
Ġà¤ıà¤®à¤ıà¤¸ à¤¯
Ġà¤® à¥Ļà¤²
Ġà¤¯à¤¹ à¤¤
à¤ł à¤Ī
à¤¯à¤ķ à¤¥à¤¨
Ġà¤īà¤ª à¤ĸà¤¨
à¤¬à¤° à¤¥
Ġà¤ĳ à¤¶
à¤ĩà¤Ł à¤Ł
Ġà¤¹à¤² à¥ŀà¤¨
Ġà¤ıà¤« à¤ıà¤ļ
Ġà¤Ĩà¤ĩ à¤ĵà¤ıà¤¸
Ġà¥©à¥¦ à¥¨
à¤® à¤®à¤£
à¤£ à¤ªà¤¨
à¤¸à¤¨ à¤Ĺ
à¤®à¤£ à¤Ŀ
à¤µà¤¦ à¤®à¤¨
Ġà¤ľà¤ķà¤¡ à¤¨
Ġà¤ī à¤°à¤ķ
à¤ĩ à¤²à¤¬à¤¡
Ġà¤ľà¤² à¤§à¤°
à¥¯ à¥§
Ġà¤¸à¤¤à¤¨ à¤µ
Ġà¤¸à¤®à¤µ à¤¯à¤¸
Ġà¤² à¤ªà¤¸
Ġà¤ĵ à¤¯à¤²
à¤·à¤£ à¤ľà¤¬
à¤²à¤¯ à¤ľ
Ġà¤Ŀ à¤²à¤¤
à¤°à¤ĸ à¤¡
à¤¯à¤£ à¤ļ
à¤Ĺà¤®à¤¨ à¤Ĺà¤°
Ġà¤ĩà¥ĺ à¤¦
à¤² à¤Ĩà¤°
à¤Ī à¤§
Ġà¤¸à¤¤ à¤¹à¤¤
à¤¹à¤² à¤®
Ġà¥¨à¥¦à¥Ń à¥¦
Ġà¤Ĩà¤°à¤ıà¤¸à¤ıà¤« à¤ıà¤¸à¤Ĩà¤°
ê £
à¤Ĺ à¤Ĺà¤¤
à¤ļ à¤¤à¤ķ
à¤ł à¤ªà¤°
à¤ıà¤¸ à¤ıà¤®à¤ıà¤¸
Ġà¤Ī à¤ıà¤ª
Ġà¤īà¤® à¤°à¤ª
Ġà¤ķà¤Ł à¤¹
Ġà¤Ĺà¤² à¤µà¤¨
à¤¶à¤µ à¤ļà¤¨
à¤Ļ à¤®
Ġà¤Ĩà¤¢ à¤³à¤¤
Ġà¤¯à¤®à¤Ĺ à¤£
à¤¡ à¤ıà¤¶
Ġà¤ĩ à¤¯à¤¨
Ġà¤ĩ à¤¦à¤¨
à¤£ à¤µà¤¨
à¤¤à¤¨ à¤ıà¤¶
Ġà¤¬à¤¢ à¤ļà¤¢
Ġà¤ıà¤¸ à¤ıà¤®à¤ľ
à¤£à¤ķ à¤ļ
à¤½ à¤¶
Ġà¥§à¥Ń à¥¬
Ġà¤ŀ à¤¤
Ġà¤Ł à¤Łà¤²
Ġà¤ħà¤² à¤ķà¤¤
à¤²à¤¯ à¤¦
à¤ħ à¤µà¤²
à¤²à¤¸ à¤¹
Ġà¤¦à¤¹ à¤¸à¤¤
à¤¡à¤¹à¤° à¤¨
à¤ķ à¤īà¤ª
Ġà¤° à¤¦à¤¤
à¤ļ à¤ĩ
Ġà¤¹à¤® à¤ķà¤¦à¤®
à¤²à¤® à¤¯
à¤¤à¤¤ à¤¤
à¤¹ à¤®à¤ķ
à¤¯ à¤²à¤¬
à¤¤à¤¨ à¤ªà¤°
Ġà¤ĵ à¤¹à¤¸
à¤ĩà¤Ł à¤¶
Ġà¤¬à¤ķ à¤Ŀà¤ķ
Ġà¤ľà¤¬à¤° à¤¸
à¤«à¤¡ à¤£à¤µ
à¤ıà¤²à¤ıà¤« à¤Ĩà¤ĩ
Ġà¥©à¥© à¥¦
à¤¹ à¤¦à¤µ
à¤¦ à¥ļ
Ġà¤ª à¤²à¤ķà¤°
Ġà¤¬ à¤Łà¤°à¤®
à¤¶ à¤µà¤¸
à¤ı à¤ĩà¤¸
Ġà¤¨à¤¹ à¤¯
Ġà¤¸à¤¤ à¤¬à¤°à¤µ
Ġà¤ķà¤¬ à¤¨
Ġà¤Ľà¤¤ à¤²
à¤ĩà¤¬à¤° à¤ľ
Ġà¤«à¤¡ à¤©à¤µ
à¤¸ à¤Ńà¤°
à¤ł à¤ħ
Ġà¤ķà¤¨ à¤Ł
Ġà¤®à¤¶ à¤°à¤ĸ
à¤µà¤§ à¤¤
Ġà¤Ĳà¤¶ à¤µà¤°
Ġà¤ķà¤ĩ à¤ıà¤ķ
à¤ķà¤®à¤² à¤ļà¤°à¤£
à¤¸ à¤ħà¤®
Ġà¤¹à¤° à¤Ń
à¤¦à¤° à¤ĺà¤°
Ġà¤Ī à¤¸à¤®
Ġà¤ıà¤ª à¤Ł
Ġà¤ªà¤¥ à¤ķà¤°
à¤¡ à¤ıà¤ļà¤¡
Ġà¤ħà¤° à¤ĸ
Ġà¤¸à¤² à¤¹à¤ľ
à¤²à¤® à¤Ĺà¤°
Ġà¤°à¤£ à¤®à¤²
Ġà¤Ńà¤Ł à¤¹à¤Ł
Ġà¤¸à¤¹à¤® à¤ķà¤°
Ġà¤¹ à¤ļà¤ķ
à¤¦ à¤Ĺà¤¤
à¤ı à¤¯à¤¹
Ġà¤Ĺà¤¯ à¤²
Ġà¤®à¤¹ à¤µà¤ª
à¤¸à¤® à¤¬
Ġà¤ħà¤ª à¤Łà¤¨
à¥ŀ à¤°à¤¨à¤Ĺà¤°
Ġà¤ıà¤Ĩà¤Īà¤Ĩà¤° à¤ıà¤«
à¤ľ à¤§à¤¨à¤µ
à¤Ī à¤¨à¤¸
Ġà¤Ĭ à¤¸à¤ķ
Ġà¤¤à¤® à¤¹
à¤¥à¤² à¤¹à¤®
à¤¶à¤ª à¤°à¤ķ
à¤© à¤¨
à¤¸ à¤¯à¤¨
à¤¸ à¤¯à¤¤
à¤® à¤ĵ
à¤Ĺ à¤ļà¤¨
à¤Ĩà¤Ī à¤Īà¤Ł
à¥Ľ à¤Ł
à¤¨à¤® à¤®
Ġà¤ĩà¤® à¤®
à¤®à¤¶ à¤¹à¤°
Ġà¤Īà¤ĵ à¤£
à¤Ĩà¤ĩà¤Ł à¤®
à¤² à¤ªà¤¦
à¤Ĺ à¥ŀ
Ġà¤Ĩ à¥Ŀ
à¤ļ à¤ĺà¤°
Ġà¤ĩ à¤Łà¤¸
Ġà¤ªà¤° à¤Ł
Ġà¤ĺ à¤®à¤ķ
Ġà¤ĺ à¤Łà¤²
Ġà¤Ĳ à¤ķà¤¡
Ġà¤Ĩà¤Ī à¤Ĺ
à¥Ŀ à¤¬
Ġà¥¨à¥¦ à¥©à¥¦
Ġà¤ıà¤Ī à¤Ĩà¤°à¤¬
à¤ķ à¤¡à¤°
Ġà¤ª à¤³
à¤ļ à¤ı
Ġà¤ı à¤¯à¤ª
à¤Ī à¤ľà¤®
à¤°à¤® à¤ľà¤°
Ġà¤Ī à¤ıà¤²à¤ıà¤«
à¥¦ à¥ª
Ġà¤Ľà¤ķ à¤ķà¤°
Ġà¤Ĩà¤Īà¤ıà¤® à¤ıà¤ļà¤ĵ
Ġà¤ıà¤¸à¤Ĩà¤° à¤ıà¤ļ
Ġà¤¹ à¤µà¤²
à¤¯à¤® à¤¬
Ġà¤¬à¤¡ à¤ĸà¤²
Ġà¤ħà¤µà¤¸à¤° à¤ªà¤°
Ġà¤¥ à¤¨à¤¹
Ġà¤ľà¤² à¤®à¤¯
Ġà¥§à¥¯à¥¦ à¥¨
à¤¹ à¤ĩ
à¤Ĩ à¤°à¤«
Ġà¤ľà¤² à¤Ŀ
Ġà¤¸à¤² à¤ľ
Ġà¤ıà¤¨ à¤Ĩà¤ĩ
Ġà¤īà¤² à¤²
Ġà¤²à¤µ à¤¡
Ġà¤¬à¤°à¤® à¤¸
à¤° à¤Ĩà¤¦
Ġà¤¹ à¤¥à¤µ
à¤ı à¤²à¤¨
à¤ı à¤ªà¤²
Ġà¤Ī à¤¯à¤°à¤²
Ġà¤ķà¤² à¤¦
Ġà¤ıà¤¸ à¤Ĩà¤°à¤¬
à¤¸à¤¦ à¤ķ
à¥« à¥«à¥¦
à¤¯à¤¤à¤¨ à¤Ĺà¤°
Ġà¤Ĩà¤ĩ à¤¤à¤¬
à¤ķ à¤µà¤²
à¥Ĥ à¥ĩ
Ġà¤Ĺ à¤°à¤¸
Ġà¤° à¤Ĺà¤°
Ġà¤®à¤¨ à¤¯
à¤Ĺà¤² à¤ļ
à¥Ŀ à¤ķà¤¨
à¤²à¤° à¤Ł
Ġà¤ıà¤Ĩà¤ĩà¤ıà¤® à¤Ĩà¤ĩà¤ıà¤®
à¤ª à¤¯à¤¨
à¤µ à¤ıà¤®
Ġà¤µ à¤ł
à¤Ī à¤°à¤¸
Ġà¤¸à¤¬ à¤§
Ġà¤ªà¤¤ à¤¸
Ġà¤Ī à¤¨à¤ķ
Ġà¤Ĩà¤Ĺ à¤¹
à¤µà¤ķ à¤Ĺà¤£
à¤¦à¤® à¤ķà¤²
à¤ľà¤® à¤ª
à¥© à¥«à¥¦
Ġà¥§à¥® à¥®à¥¦
Ġà¥¨à¥Ń à¥¦
Ġà¤ı à¤ıà¤µ
Ġà¤µà¤¹ à¤¤
à¤ķà¤°à¤£ à¤īà¤¤
à¤¨à¤¯ à¤¹
à¤· à¤µà¤¦
à¤²à¤¤ à¤¸
Ġà¤ľà¤¬ à¤¨
Ġà¤Ĩà¤Ī à¤Ĩà¤°à¤ª
Ġà¤ıà¤ļ à¤ıà¤²à¤ı
à¤Ĳ à¤®
à¥Ń à¥©
à¤© à¤¯
Ġà¤ħà¤² à¤¹à¤®
Ġà¤¨à¤µ à¤Ł
Ġà¤®à¤Ī à¤¶à¤¤
Ġà¤Ĩà¤Īà¤ıà¤® à¤Ī
Ġà¤¹à¥Ľà¤°à¤¤ à¤Ĺ
à¤¨ à¤µà¤²à¤ķà¤°
à¥Ī à¥ħ
Ġà¤ı à¤°à¤ļ
à¤Łà¤² à¤¡
Ġà¤Ĩà¤¸à¤ª à¤¡
Ġà¤¨à¤ĩ à¤¹à¤°
à¤¨ à¤Ĩà¤Īà¤ª
à¤²à¤¨ à¤Ĺà¤¤
à¤¶à¤² à¤Ĺà¥Ŀ
Ġà¥§à¥¬ à¥©
Ġà¤ī à¤ľà¤µ
Ġà¤Ľ à¤ªà¤²
Ġà¤¸à¤Ń à¤¨
Ġà¤ıà¤¸ à¤ıà¤Ĩà¤Ī
Ġà¥¨à¥§ à¥¨à¥¨
Ġà¤¸à¤²à¤ķ à¤¨à¤ª
à¤¸ à¤ĩà¤¸
Ġà¤® à¤°à¤¯
Ġà¤ĩ à¥ľ
à¤ĸ à¤¤à¤®
Ġà¤Ĺà¥Ŀ à¤ª
Ġà¤¨à¤ĩ à¤ĸà¤¨
Ġà¤ķ à¤ķà¤µ
à¤¸ à¤·
à¤ı à¤ħ
Ġà¤¸à¤® à¤°à¤ª
Ġà¤¯à¤¹ à¤¸
à¤ľà¤¨ à¤ķà¤ª
à¤µà¤² à¤ĸ
à¤¶à¤® à¤§
à¤¨à¤Ĺ à¤°à¤ķ
Ġà¤ªà¤°à¤« à¤®
Ġà¤Ńà¤ľà¤¨ à¤¸
Ġà¥§à¥® à¥ª
à¤Īà¤Īà¤Ī à¤ĩ
à¤¨ à¤ıà¤¬
à¤¡ à¤ķà¤¤
à¤ĩà¤¨ à¤¦
Ġà¤ħà¤° à¤¨à¤µ
à¤®à¤ķ à¤Ł
Ġà¤Īà¤Ĺà¤² à¤Łà¤¨
Ġà¤¸ à¤Ĺà¤¨
à¤Ĺ à¤Ĺà¤¢
Ġà¤ī à¤«à¤°
à¤ĸ à¤ľà¤®
à¥ľ à¤Ĺà¤¢
Ġà¤ľà¤¨ à¤ķà¤ľ
Ġà¤ħà¤ª à¤¬
à¤®à¤¦ à¤Ńà¤Ĺà¤µà¤¦
Ġà¤Ĩà¤ķ à¤¶
Ġà¤ħà¤¹à¤®à¤¦ à¤¬
Ġà¤īà¤¬à¤² à¤ķà¤°
à¤µ à¤¦à¤¸
à¤ĸ à¤Ĩà¤Īà¤ª
à¤ł à¤ķà¤¤
Ġà¤ĵ à¤ī
à¤¦à¤¨ à¤Ł
à¤°à¤¨ à¤µà¤Ń
Ġà¤ĸà¤¬à¤° à¤¹
à¥Ń à¥¨
Ġà¥ľ à¤°
à¤® à¤¸à¤²
à¤¤ à¤¯à¤¨
à¤² à¤ĩà¤¨
à¤ĵ à¤¡à¤°
Ġà¤Ĺà¤Ī à¤¹
à¤ī à¤ªà¤ľ
à¤µà¤² à¤ļ
à¤¯à¤ª à¤²
Ġà¤Ĩà¤® à¤°à¤¸
à¤¸à¤¤ à¤Ĺ
à¤Ķ à¤°à¤ķ
à¤ĩà¤ªà¤° à¤¥à¤°
à¤¡ à¥Ľ
Ġà¤¤ à¤Ĺà¤®
Ġà¤ĩ à¤°à¤ª
à¤ł à¤²à¤Ń
Ġà¤ıà¤² à¤ĩ
à¤¯à¤ķà¤° à¤¤
à¤¶à¤® à¤¬
Ġà¤°à¤®à¤¨ à¤ľ
à¤¯ à¤ıà¤ķ
à¤¦ à¤®à¤¦
Ġà¤ª à¤ķà¤²
à¤¶ à¤²à¤¯
à¤ĸ à¤°à¤¹
Ġà¤¸à¤°à¤ķ à¤£
Ġà¤Ĩà¤ĩ à¤¯à¤°
à¤¶ à¤ħ
à¤§ à¤Ĩ
à¤Ī à¤ıà¤Ĺ
Ġà¤¡ à¤ĭ
à¤ĩ à¤Ĺà¤¨
à¤¶à¤¨ à¤¡
à¤¹à¤¤ à¤Ī
à¤¨à¤¨ à¤¹
à¤ĩà¤¬à¤° à¤¯
Ġà¤²à¤µ à¤Ĺ
à¥Ĥà¥Ĥ à¥Ĥà¥Ĥ
à¤¦ à¤¹à¤®
Ġà¤® à¤ħà¤¨
Ġà¤ľ à¤ľà¤¸
Ġà¤Ń à¤ķà¤¤
Ġà¤« à¤Ĺà¤²
Ġà¤Ĳ à¤¨à¤°
à¤¶à¤² à¤¸
à¤ªà¤£ à¤ľ
Ġà¤®à¤² à¤¬à¤°
Ġà¤Ĩà¤¦à¤® à¤ľ
à¤ıà¤ļ à¤Ĩà¤Īà¤µ
Ġà¤¨ à¤¬à¤ķ
à¤ĺ à¤¨à¤ª
Ġà¤Ī à¤¸à¤°à¤¦
Ġà¤ľà¤² à¤¸à¤¨
à¤¯à¤² à¤ĸ
à¤Łà¤ķ à¤Łà¤µ
à¤Ĭ à¤¹
Ġà¤ıà¤ļ à¤Ĩà¤Īà¤ľ
Ġà¤Ńà¤Ĺ à¤£
Ġà¤¨à¤« à¤¸
Ġà¤¸ à¤ħà¤¦
Ġà¤° à¤ķà¤¸
à¤¡ à¤Ķà¤°
à¤Ĩ à¤ĩà¤²
à¤ĵ à¤ıà¤ļà¤¸
Ġà¤Ĩà¤° à¤Ń
à¤®à¤² à¤Ī
Ġà¤ķà¤Ī à¤¥
à¤ĩà¤² à¤¡
Ġà¤ĳà¤¯à¤² à¤«
à¤Ĩà¤Īà¤ıà¤¸ à¤ıà¤²
à¤¸ à¤µà¤ķ
à¤¹ à¤¯à¤µ
Ġà¤Ĺ à¤Ŀ
Ġà¤ı à¤·à¤£
à¤£ à¤¹à¤°
Ġà¤¸à¤ķ à¤¡
à¤ľà¤Ĺ à¤¦à¤²à¤ª
Ġà¤Ńà¤¯ à¤¯
Ġà¤ĥ à¤ĥ
à¤° à¤Ĩà¤ľ
Ġà¤ĵ à¤®à¤¶
Ġà¤ħà¤ķ à¤¹
à¤¦à¤¤ à¤ª
à¥Ń à¥¯
à¤¦ à¤²à¤¤
Ġà¤« à¤¶
Ġà¤« à¤īà¤ľ
Ġà¤ħà¤¨ à¤¤à¤°
à¤§à¤¨ à¤§
Ġà¤¨à¤µ à¤¦à¤®
Ġà¤¦à¤¸ à¤Ĺ
à¤¼à¥į à¤
à¥® à¥©
à¤¯à¤¸à¤¨ à¤®
à¥ļà¤° à¥Ľ
à¤¼à¥įà¤ ¾
à¤ķ à¤ħà¤§
à¤¶ à¤ĩ
à¤¶ à¤ķà¤¸
à¤Ŀ à¤ķà¤¨
à¤Ĺà¤² à¤ıà¤®
Ġà¤Ĩà¤Ī à¤ıà¤®à¤Ĩà¤Ī
Ġà¤ľà¤® à¤¸
Ġà¤ıà¤® à¤ĵà¤¸
Ġà¤¯ à¤°à¤ķ
Ġà¤ĺ à¤¹à¤°
Ġà¤ķà¤Ł à¤Łà¤°à¤ª
Ġà¥¨à¥« à¥¨
à¤ıà¤Ī à¤Ĩà¤°
Ġà¤ıà¤®à¤ıà¤ļ à¤ľ
Ġà¤¸ à¤¸à¤ķ
à¤¦ à¤²à¤¯
à¤¬ à¤ļà¤¤
à¤¶ à¤ķà¤¤
à¤°à¤ķ à¤¶à¤¨
à¤°à¤® à¤Ĺà¥Ŀ
à¤ħ à¤«à¤°
Ġà¤ħà¤¤ à¤²à¤¨
Ġà¤®à¤£ à¤ª
à¤° à¤ħà¤¤
Ġà¤² à¤ĸà¤¤
Ġà¤ªà¤°à¤® à¤®
Ġà¤īà¤¨à¤¸ à¤ł
Ġà¤¹à¤°à¤¦ à¤¤
à¤Ł à¤®à¤²à¤ª
Ġà¤ĩ à¤ĵà¤¸
Ġà¤ıà¤ħ à¤°à¤ķ
à¤ı à¤ıà¤¸à¤ıà¤¸
Ġà¤°à¤¹ à¤¨à¤¸
à¤Ĭ à¤¡à¤¸
à¤ıà¤¸à¤ı à¤ıà¤®
Ġà¥§à¥Ń à¥§
à¤¸ à¤Ĺà¤¤
à¤ĵ à¤ªà¤°
à¤¯à¤® à¤§
Ġà¤ķà¤² à¤¹à¤ª
à¤ħ à¤ī
à¥¨à¥¦à¥¦ à¥§
à¤¤ à¤ľà¤°
Ġà¤ı à¤ıà¤®à¤ıà¤¸
Ġà¤¬à¤¨ à¤«
Ġà¤īà¤¤ à¤Ī
à¤°à¤¸ à¤¡
Ġà¤¸à¤° à¤¡
à¤ĺ à¤¬
Ġà¤ľà¤Ĺ à¤¤à¤¨
à¤Ĭ à¤ĵ
à¤¶à¤² à¤²
Ġà¤ıà¤² à¤ıà¤«à¤Ĩà¤Ī
Ġà¤¬à¤ľà¤° à¤¡
Ġà¤¬à¤¦à¤¹ à¥Ľà¤®
à¤ıà¤®à¤ı à¤ıà¤ļ
Ġà¥§à¥¯à¥¦ à¥ª
à¤ķ à¤µà¤¤
à¤² à¤¹à¤¤
Ġà¤¨ à¤Łà¤ķ
Ġà¤īà¤¨ à¤ĸ
à¤ªà¤° à¤Ĺà¤°
Ġà¤ıà¤¸ à¤ıà¤¨à¤ıà¤²
Ġà¤Ĺà¤ł à¤µ
Ġà¤«à¤¤ à¤¹à¤¨à¤Ĺà¤°
Ġà¥§à¥« à¥¦à¥¦à¥¦
à¤°à¤Ī à¤Ĺ
Ġà¥§à¥®à¥¯ à¥Ń
à¤² à¤Ĩà¤®
Ġà¤Ł à¤°à¤µ
Ġà¤ķà¤® à¤²à¤µ
à¤¨à¤² à¤¡
Ġà¤°à¤ĺ à¤µ
à¤¨ à¤ªà¤²
à¤² à¤ħà¤²
Ġà¤ı à¤Ń
Ġà¤ı à¤ľà¤²
à¤¥ à¤¸à¤®
à¤°à¤ķ à¤ļ
à¤ħ à¤ĺ
à¤°à¤§ à¤µà¤²
à¤µà¤ķ à¤¥
à¤¹ à¤ī
Ġà¤¬ à¤ĩà¤²
à¤ĵ à¤ĩà¤¸
à¤°à¤® à¤·
à¤µà¤°à¤£ à¤®
Ġà¤īà¤¡ à¤µ
à¥¯ à¥¦à¥¦
à¥įà¥į à¤¿
Ġà¤ª à¤Ŀ
à¤¶ à¤Ĺà¤¨
Ġà¤¤ à¤Ĩà¤°
Ġà¤ħà¤µ à¤ķà¤²
Ġà¤¬à¤¦ à¤īà¤¨à¤µ
à¤ľà¤ª à¤Ł
Ġà¤¨à¤µ à¤ªà¤¦
Ġà¤ħà¤¦ à¤¹
Ġà¤ıà¤ľ à¤¬à¤¸
Ġà¤ıà¤®à¤ı à¤ıà¤¸
Ġà¥§à¥¬ à¥§
à¤° à¥Ŀ
à¤¤ à¤ī
à¤ª à¤ľà¤¨
à¤ľà¤° à¤ĺ
Ġà¤ķà¤² à¤ªà¤ķ
Ġà¤Ĩà¤¸ à¤ķà¤°à¤£
à¤·à¤¤ à¤¤
Ġà¤ıà¤ļ à¤ıà¤¨à¤¬
à¤¤à¤ķà¤° à¤¤
à¤¦ à¤²à¤µ
Ġà¤® à¤«à¤¤
Ġà¤Ĩ à¤®à¤ķ
à¤ĸ à¤¸à¤®
Ġà¤ĸ à¤ļà¤°
à¥Į à¤¿
à¤ļà¤¨ à¤¬
à¤ķà¤¨ à¤¶
Ġà¤ıà¤² à¤ıà¤¸à¤Ī
Ġà¤ķà¤ł à¤¬
Ġà¤¡à¤ĭ à¤Ľ
à¤¨ à¤¥à¤¨
à¤¤ à¤¶à¤ķ
à¤Ĺ à¤®à¤µ
à¤ľ à¤Łà¤²
à¤¬ à¤¹à¤¤
Ġà¤Ĺ à¤²à¤®
Ġà¤ħà¤® à¤¡
à¤¦à¤¨ à¤·
à¥¦ à¥©
à¤°à¤¬ à¤ļ
à¤ıà¤¨à¤ı à¤ıà¤¸
à¥įà¤¾ à¥ĭà¤Ĥ
Ġà¤ħ à¤ĩà¤¤
à¤¶ à¤ıà¤ķ
à¤ĵ à¥Ŀ
à¤®à¤² à¤ļ
Ġà¥§à¥® à¥¨
à¤ª à¤Ńà¤µà¤¨
à¤¶ à¤°à¤¨
Ġà¤ĺ à¤¨à¤µà¤Ł
à¤ĵ à¤ıà¤ļ
Ġà¤ĵ à¤Ĩà¤Īà¤ıà¤²
à¤ķà¤¸ à¤¬
Ġà¤ľà¤¹ à¤µ
Ġà¤¬à¤° à¤Īà¤ª
Ġà¤¨à¤µ à¤¹à¤Ł
à¤¥à¤® à¤¸
Ġà¥ļ à¤ľ
Ġà¤§à¤¡ à¥ĺà¤¨
Ġà¤¨à¥ŀ à¤¸
à¤ĭà¤ĭ à¤ĭà¤ĭ
Ġà¤¨ à¤ī
Ġà¤¨ à¤¶à¤°
à¤¸à¤° à¤«
à¤°à¤¦ à¤¶à¤¨
Ġà¤ķà¤® à¤ķ
à¤°à¤µ à¤¸à¤¨
Ġà¤¦à¤° à¤ªà¤¨
à¤ķà¤¸ à¤ª
à¥« à¥®à¥¦
Ġà¤§ à¤¸à¤ķà¤¨
Ġà¤¸à¤¬ à¤µà¤°
Ġà¤Ī à¤¡à¤°
à¤¯à¤¬ à¤ľ
Ġà¤īà¤¬ à¤ļ
à¤ľà¤¯à¤ª à¤¥
Ġà¤® à¤¸à¤®à¤°
Ġà¤ķà¤° à¤Ł
Ġà¤ı à¤ıà¤²à¤¸
à¤ĸ à¤Ŀ
Ġà¤Ī à¤ıà¤¸à¤ıà¤¸
Ġà¤®à¤¤ à¤¬
à¤Ĥà¤Ĥ à¤Ĥà¤Ĥ
à¤® à¤®à¤²
Ġà¤Ĩ à¤¸à¤²
Ġà¤ĺ à¤¤
Ġà¤ĵ à¤Ĩà¤Īà¤ıà¤¸
Ġà¤¨à¤µ à¤ļà¤¯à¤¨
Ġà¤ıà¤®à¤ĵ à¤ıà¤²
à¤Ĺ à¤½
à¤Ł à¤¯à¤¹
à¥Ĥ à¥ĥ
à¤¬ à¤°à¤ķà¤²
à¤°à¤ķ à¤ªà¤¡
à¤ŀ à¤ľ
à¤°à¤¨ à¤ĸ
Ġà¤ħà¤¦ à¤ķ
à¤²à¤ª à¤Łà¤¨à¤®
à¤ĩà¤¶ à¤°à¤¤
Ġà¤¬à¤°à¤¨ à¤¬
à¤¬ à¤Ĺà¤¢
Ġà¤ı à¤ıà¤²à¤ı
Ġà¤ĩà¤² à¤µ
Ġà¤ıà¤¨ à¤ıà¤ı
à¤ıà¤ķ à¤®
à¤¤à¤ķà¤° à¤ĺ
Ġà¥©à¥« à¥¦à¥¦
à¥ĩà¤Ĥ à¤¿
Ġà¤Ķ à¤¸à¤°
Ġà¤¯ à¤¨à¤®
à¤Ĺà¤¤ à¤²
Ġà¤Ĺà¤° à¤ľà¤ķà¤°
Ġà¤ķà¤¤ à¤¯
Ġà¤¥à¤ķ à¤¹
à¤°à¤ķà¤°à¤£ à¤®
à¤° à¤Ĺà¤µ
à¤° à¤Īà¤¸
à¥Ĥ à¥įà¤Ĥ
à¤¬ à¤¤à¤ķ
à¤ł à¤²à¤µ
à¤ļà¤° à¤ļ
Ġà¤°à¤ľ à¤¬à¤¹
Ġà¤· à¤¹
Ġà¤¹ à¤ĸ
à¤ĸ à¤¦à¤¤
Ġà¤Ĩà¤ª à¤¸à¤®
Ġà¤¸à¤² à¤ı
Ġà¤ıà¤¨ à¤Ĩà¤°à¤ı
à¤Ķ à¤°à¤¸
Ġà¤ª à¤²à¤°
Ġà¤¬ à¥ĺà¤°
Ġà¤ľ à¤¦à¤Ĺ
Ġà¤¹à¤® à¤¶
à¤¤à¤¨ à¤ļ
Ġà¤°à¤¨ à¤ħà¤ª
Ġà¤¨à¤® à¤¶
à¥ĩà¥ĩà¥ĩà¥ĩà¥ĩà¥ĩà¥ĩà¥ĩ à¥ĩà¥ĩà¥ĩà¥ĩà¥ĩà¥ĩà¥ĩà¥ĩ
à¤ķ à¤ªà¤ķ
Ġà¤¸ à¤ħà¤¨
Ġà¤¹ à¤³
Ġà¤¬ à¥ļà¤²
à¥Į à¥ħ
à¤¢ à¥ĺ
Ġà¤ķà¤® à¤īà¤®
à¤°à¤® à¤Ł
à¤ĸà¤¨ à¤®
à¤ħ à¤¸à¤¹
à¤°à¤ª à¤£
Ġà¤¸à¤ª à¤¹
Ġà¤ĩà¤¤ à¤¹
Ġà¤¨à¤ķ à¤ļà¤¢
à¥ļ à¤¡
Ġà¤§à¤°à¤® à¤¦
Ġà¤Ľà¤²à¤ķ à¤ªà¤Ł
à¤ķà¤Ĩ à¤Ĭà¤Ł
à¤ķ à¤īà¤¤
à¤¸ à¤¶à¤¸
à¤Ī à¤®à¤²
à¤Ĩ à¤ªà¤¤
Ġà¤īà¤ª à¤¹à¤¤
Ġà¤¬à¤¹ à¤²à¤¤
Ġà¤ĵ à¤Łà¤¸
Ġà¤Ĩà¤Ī à¤ıà¤²à¤ª
Ġà¤¤à¤² à¤®
Ġà¤ıà¤®à¤ı à¤ıà¤«
à¤ıà¤¨à¤ıà¤¸ à¤¡
à¤«à¤«à¤«à¤« à¤«à¤«à¤«à¤«
à¤¨ à¤ĩà¤¨
Ġà¤² à¤¸à¤¦
Ġà¤² à¤Ńà¤Ĺ
Ġà¤§ à¤°à¤¹
à¤ıà¤® à¤ıà¤Ł
à¤°à¤¬ à¤¦à¤¨
Ġà¤¦à¤® à¤ªà¤°
Ġà¤® à¥Ŀà¤¤
Ġà¤µ à¤¦à¤¤
à¤¡ à¤¥
à¤¡ à¤¬à¤¸
à¤§ à¤¨à¤²
à¥Īà¤Ĥ à¥ĩ
Ġà¤¸à¤® à¤ļà¤¤
Ġà¤Ĩà¤ª à¤µ
à¤Ĩ à¤¬à¤ľ
à¤¸à¤¦ à¤®
Ġà¤ıà¤¨ à¤Īà¤ı
à¥°à¥° à¥°
à¤Ł à¤Ĩ
Ġà¥ Ħ
Ġà¤²à¤¡ à¤Ńà¤¡
à¤¡à¤² à¤²
Ġà¤®à¤¸ à¤¤
Ġà¥§à¥¬ à¥¨
Ġà¤§à¤°à¤® à¤ľ
à¤ıà¤²à¤ı à¤²à¤¬
à¤¦ à¤ī
à¤¤à¤¨ à¤ĺà¤°
Ġà¤ħà¤ª à¥Ŀ
à¤¶à¤ķ à¤®
Ġà¤ıà¤Ĩà¤Ī à¤ıà¤¸à¤Ĩà¤Ī
Ġà¥¨à¥« à¥¦à¥¦à¥¦
Ġà¥«à¥¦à¥¦ à¥¦à¥¦
Ġà¤°à¤¹à¤¨à¤¸ à¤¹à¤¨
à¤¨ à¤ĩà¤¯
Ġà¤® à¤¶à¤¨
Ġà¤² à¤²à¤®à¤Ł
à¤¡ à¤µà¤¨
Ġà¤¤ à¤¤à¤®
Ġà¤ī à¤Ĺà¤®
à¤ĵ à¤¥
à¤¢ à¤ª
à¤°à¤¨ à¤ľ
Ġà¤ªà¤Ł à¤®à¤¦
Ġà¤ħà¤¹ à¤ī
Ġà¤ĵà¤ªà¤¨ à¤ıà¤¸à¤ıà¤¸à¤ıà¤²
à¤ķ à¤ĩà¤¸
à¤µ à¤¬à¤¹
Ġà¤¤ à¤¨à¤¦
Ġà¤¯ à¤µà¤¶
Ġà¤ķà¤² à¤®à¤¨
à¤Ĩà¤Ī à¤ıà¤®à¤ª
à¤ħ à¥ŀ
Ġà¤ĸà¤¡ à¤Ĺà¤ª
à¤Ĳ à¤ªà¤²
Ġà¤Ĩà¤ĩ à¤ıà¤¨à¤ıà¤ķ
à¤½ à¤ķ
Ġà¤Ńà¤Ĺà¤µà¤¤ à¤¶à¤°à¤£
Ġà¤²à¥ŀ à¥ľ
Ġà¤ı à¤ıà¤¡
Ġà¤Ĺà¤¯ à¤ī
Ġà¤ķà¤² à¤·
Ġà¤ıà¤¸ à¤ıà¤«à¤Ł
à¤¶à¤² à¤¦
à¤®à¤¸ à¤²à¤¨
Ġà¤ħà¤ªà¤¹à¤°à¤£ à¤ķ
à¤µà¤ķà¤° à¤¨
à¥Īà¥Īà¥Īà¥Īà¥Īà¥Īà¥Īà¥Īà¥Īà¥Īà¥Īà¥Īà¥Īà¥Īà¥Īà¥Ī à¥Īà¥Īà¥Īà¥Īà¥Īà¥Īà¥Īà¥Īà¥Īà¥Īà¥Īà¥Īà¥Īà¥Īà¥Īà¥Ī
à¤² à¤ĩà¤¤
Ġà¤Ĳ à¤Ī
Ġà¤°à¤ĸ à¤¡
Ġà¤¬à¤° à¤·
Ġà¤ķà¤¨ à¤¯
à¤§à¤µ à¤Ĺ
à¤¯à¤¡ à¤¬
à¤Īà¤Ī à¤ıà¤¸
à¤Ĺ à¤®à¤ļ
Ġà¤ı à¤Ĩà¤°à¤ıà¤¸
Ġà¤Ī à¤ıà¤®à¤ª
Ġà¤ıà¤¨ à¤ıà¤¨à¤Ĩà¤Ī
à¤°à¤² à¤¸
à¤ľà¤¦ à¤£
Ġà¤Ĺà¤¨ à¤¶
à¤®à¤ľ à¤Ĺà¤¤
Ġà¤¦à¤¶à¤°à¤¥ à¤ľ
à¤¦à¤¯à¤¤ à¤²
Ġà¤¡ à¤Łà¤¨
à¤µà¤¨ à¤Ń
à¤²à¤ķ à¤¹
Ġà¤ıà¤® à¤ıà¤¨à¤ıà¤¨
à¤ķà¤ª à¤Łà¤¤
Ġà¤®à¤ļ à¤ħà¤µ
à¤¶à¤¯ à¤Ĺ
Ġà¤ªà¤¥ à¤¸
à¤± à¤ķ
Ġà¤ħà¤¨à¤¶à¤¨ à¤°à¤¤
Ġà¥§à¥®à¥® à¥¯
Ġà¥Ľà¤² à¥Ľà¤²
Ġà¤µ à¤Ļ
Ġà¤¤ à¤®à¤¤
Ġà¤¹à¤° à¤ķà¤°
Ġà¤®à¤¨ à¤µà¤°
Ġà¥ĺ à¤®
Ġà¤²à¤Ĺ à¤¥
Ġà¤§ à¤ĩà¤²
à¤ī à¤¤à¤¨
Ġà¤®à¤° à¤«
à¤ļà¤² à¤§
Ġà¤Ĩà¤īà¤Ł à¤µ
à¥® à¥¬
à¤ıà¤¸à¤Ĩà¤Ī à¤ľ
Ġà¤ħà¤ĩà¤² à¤ĩ
Ġà¤ķà¥ľà¤ķà¥ľ à¤¡
à¤² à¤®à¤ļ
à¤¬ à¤¬à¤²
Ġà¤¤ à¤¶à¤¹
Ġà¤Ķ à¤¹à¤¦
à¤Ĩà¤Ī à¤ıà¤¨à¤ıà¤¸
Ġà¤Ĺà¤° à¤ļ
Ġà¤ħà¤ĸ à¤¤à¤°
à¤¯à¤¬ à¤ľà¤Ł
Ġà¤²à¤¤ à¤ªà¤¥
Ġà¤Ĺà¥Ŀ à¤¬
Ġà¤ıà¤µà¤° à¤²
Ġà¤¹à¤ī à¤µà¤¨
à¤² à¤Ĺà¤®
à¤Ĺ à¤®à¤ķ
à¤¬ à¤Łà¤¤
Ġà¤ı à¤ıà¤«à¤ı
Ġà¤ıà¤ķ à¤ł
à¤¯à¤® à¤¯à¤¤
Ġà¤Ĩà¤Ī à¤Īà¤Ī
Ġà¤ħà¤µ à¤ķà¤²à¤¨
Ġà¤Ĺà¤° à¤Ĺ
à¤«à¤² à¤Ĺà¤°
Ġà¤¨à¥Ľà¤° à¤ħà¤¨
Ġà¤ıà¤¸à¤ıà¤¸ à¤ıà¤¨
Ġà¤ıà¤¸à¤ı à¤²à¤µ
à¥į à¥ħ
à¤Łà¤° à¤ļà¤¨
à¤Ŀ à¤°à¤¨
à¤ī à¤Łà¤¨
à¤¸à¤® à¤Ŀà¤¨
à¤®à¤¦ à¤Ńà¤Ĺà¤µà¤¦à¤Ĺ
à¤¯à¤ª à¤£
Ġà¤¨à¤ı à¤¨à¤ı
Ġà¤²à¤ĸà¤¨ à¤¦
Ġà¤Ńà¤Ĺà¤¤ à¤ľ
à¤¹à¤¯ à¤·
à¥ģ à¥ĭ
à¤¬ à¤ľà¤¨
à¤¬ à¤Ĺà¥ľ
à¤§ à¤¯à¤°
à¤¬à¤° à¤«
à¤ķà¤°à¤£ à¤¶
Ġà¤ıà¤² à¤ıà¤®à¤µ
Ġà¥Ľ à¤¬à¤°à¤¨
Ġà¤® à¤Ĺà¤µ
à¤¬ à¤¨à¤®
à¤¶ à¤¯à¤ķ
à¤¡ à¤ĺ
à¤ļ à¤¡à¤°
Ġà¤ı à¤¦à¤²
à¤¥ à¤²à¤°
Ġà¤¸à¤¬ à¤²à¤ª
à¤¬à¤° à¤ĸ
à¤°à¤µ à¤ļà¤¨à¤ķ
à¤ĺ à¤¹
Ġà¤ħà¤ķ à¤¡à¤¨
Ġà¤Ĭ à¤¡
à¤¯à¤£ à¤Ĺà¥Ŀ
Ġà¤¬à¤ķ à¤¬
Ġà¤ıà¤¨à¤Ĩà¤Ī à¤¬
à¤® à¤ŀ
à¤² à¤¸à¤ª
Ġà¤° à¤ľà¤²
Ġà¤Ń à¤¸à¤®
à¤· à¤Ĺà¤£
Ġà¤¤à¤² à¤ªà¥ľ
Ġà¤ıà¤« à¤Ĩà¤Īà¤ľ
à¤§à¤¤ à¤¤
à¤ķà¤® à¤¬
Ġà¥¨à¥§ à¥«
à¤ħà¤¨à¤µ à¤°à¤¤
à¤ķ à¤ľà¤®
à¤® à¤¥à¤²
à¤¦ à¤ħà¤²
Ġà¤² à¤¸à¤²à¤¸
Ġà¤° à¤Ĺà¤£
à¤ı à¤ħà¤°
à¤ı à¤ıà¤ª
Ġà¤Ī à¤ķà¤Ł
à¤Łà¤² à¤ª
à¥¨à¥¦ à¥§
Ġà¤Ĩà¤°à¤Ī à¤Ĩà¤Īà¤Ł
Ġà¤ķ à¤¶à¤¨
Ġà¤® à¤ķà¤²
Ġà¤¨ à¤ªà¤¨
Ġà¤ľ à¤Īà¤¬
à¥Ĥ à¥ī
à¤ģ à¤
Ġà¤ıà¤¸ à¤ıà¤¨à¤¡
à¤§à¤µ à¤Ł
Ġà¤®à¤² à¤ı
à¤ĩà¤µ à¤®
Ġà¤ľà¤¤ à¤Ī
à¤ģà¤ ¾
à¤¨ à¤Ĺà¤®
à¤® à¤¦à¤µ
à¤ı à¤ľà¤µ
Ġà¤ªà¤° à¤®à¤¤
à¤« à¤¥
Ġà¤ıà¤ķ à¤ķà¤°
Ġà¤§à¤° à¤²
Ġà¤ķà¤¨ à¤¹
Ġà¤Ĺà¤² à¤ĺ
Ġà¥ļ à¤ľà¤¬
Ġà¤Ńà¤¦ à¤°à¤µ
Ġà¤®à¤Ĺ à¤¦à¤²
Ġà¤ıà¤¸à¤Ĩà¤° à¤ľ
Ġà¤ľà¤ĩà¤¤ à¤ĩ
à¤ļ à¤¤à¤°à¤£
Ġà¤ªà¤° à¤ķà¤Ł
à¤°à¤¨ à¤®à¤²
Ġà¤ľà¤Ĺ à¤§
à¤ķà¤Ł à¤ļà¤²
à¤ıà¤« à¤ıà¤ıà¤¸
à¤¯à¤ªà¤° à¤Ł
Ġà¤ľà¤¨ à¤Ĩà¤¨
Ġà¤ħà¤® à¤¹à¤Ł
Ġà¤Ĩà¤Ī à¤ıà¤²à¤ıà¤¸
Ġà¥§à¥Ń à¥¨
à¤¾à¤¿ à¥Ģ
Ġà¥¦à¥¦ à¥§
Ġà¤Ĩ à¤Łà¤°
Ġà¤ı à¤°à¤¦
à¤ĩ à¤°à¤®
Ġà¤¸à¤¹ à¤«à¤¸à¤²
Ġà¤¦à¤° à¤ħà¤¸à¤°
Ġà¤¦à¤² à¤ª
à¤ľà¤¯à¤¦ à¤¤
Ġà¤ķ à¤Łà¤ķà¤Ł
à¤¨ à¤ħà¤¬
Ġà¤ľ à¤ªà¤®
à¤£ à¤¯à¤ķà¤°
Ġà¤¸à¤® à¤¸à¤®
à¤Ĩ à¤µà¤°
Ġà¤ĵ à¤ıà¤¸à¤¬
Ġà¤Ĭ à¤ī
à¤ĩà¤¸ à¤Ł
à¥Ł à¤²
Ġà¤¨à¥ĺ à¤¦
Ġà¤ī à¤£à¤¨
Ġà¤ı à¤ıà¤¸à¤¯
Ġà¤« à¤Ĺà¤¤
à¤Ĩ à¤łà¤µ
à¤Ĩà¤Ī à¤ıà¤ļ
à¤¯à¤ª à¤µà¤°
à¤°à¤ª à¤ļ
à¤ĩà¤® à¤¬
Ġà¤¶à¤¹ à¤µ
à¥« à¥§à¥¦
Ġà¤į à¤£
à¤ĸ à¤°à¤ķ
Ġà¤ħà¤§ à¤ķà¤ª
Ġà¤Ĩà¤° à¤ıà¤«à¤ĵ
Ġà¥§à¥® à¥©
à¤« à¤°à¤¸
Ġà¤¨à¤¹ à¤°à¤ª
Ġà¤¸à¤¹ à¤ľà¤ª
Ġà¤®à¤ľ à¤ķ
Ġà¤ıà¤® à¤ıà¤Ł
Ġà¤į à¤¡
à¤¤ à¤¬à¤¨
à¤¦ à¤ľà¤¨
à¤¥ à¤¨à¤ķ
Ġà¤Ľ à¤¤à¤µ
Ġà¤µà¤¹ à¤¦à¤¤
à¤Ĺà¤° à¤¡
Ġà¤Ĩà¤¯ à¤µ
Ġà¤ļà¤² à¤¦
à¤¸à¤¨ à¤¸à¤¨
à¤¨à¤¸ à¤ļ
Ġà¤¦à¤¸ à¤Ī
Ġà¤¹à¤¸ à¤®à¤¤
Ġà¤ħà¤®à¤° à¤¸à¤°
Ġà¤Ĩà¤Īà¤Ĩà¤° à¤ıà¤«à¤¸
Ġà¥ªà¥® à¥¦
Ġà¤® à¤«à¤°
à¤Ł à¤ħà¤®
Ġà¤ı à¤ĩà¤¸
à¤¤à¤¨ à¤ħà¤¦
à¤²à¤¯ à¤¹
à¤¯à¤µà¤¸ à¤¥
Ġà¤Ĩà¤® à¤¦à¤°
à¤¨à¤¬ à¤ļ
à¤¹ à¤¬à¤¹
à¤¤ à¤ŀ
Ġà¤Ĺ à¤®à¤¤
Ġà¤« à¤Īà¤®
Ġà¤Ĩà¤ľ à¤ļ
à¤ıà¤® à¤ıà¤®à¤¸
à¤Ĩà¤° à¤Ĩà¤°à¤Ĩà¤Ī
Ġà¤¦à¤¹ à¤Ĺà¤µ
à¤ĩà¤ªà¤° à¤«
Ġà¥¨à¥§ à¥§
Ġà¤Ĩà¤°à¤ıà¤² à¤ıà¤¸
Ġà¤® à¤¤à¤ķ
Ġà¤Ĺ à¤ªà¤¤
à¤· à¤®à¤ķ
à¤Ī à¤ľà¤¬à¤°à¤¦à¤¸
à¤¸à¤¦ à¤µ
Ġà¤¹à¤² à¤¥
à¥« à¥¯
à¤ıà¤¸à¤ı à¤ıà¤¸
Ġà¤ľà¤ª à¤ķà¤°
à¤¶ à¤¤à¤®
Ġà¤Ķà¤° à¤¬à¤ľà¤Ł
Ġà¤ªà¤° à¤ıà¤ķ
Ġà¤§ à¤Ĺ
à¤¹à¤° à¤«
à¤ķà¤² à¤ĸà¤¨à¤Ĭ
Ġà¤ªà¤¦ à¤Ĺ
Ġà¤Ĩà¤ı à¤¨
à¤¤ à¤ħà¤¦
Ġà¤ħà¤¨ à¤¸à¤¬
Ġà¤Ĩà¤Ī à¤ĵà¤ıà¤®
à¤ħ à¤°à¤¹
à¤¹ à¤ł
à¤ª à¤Ļ
à¤ľ à¤Ļ
à¤ļ à¤¹à¤¤
Ġà¤ĸ à¤°à¤¤à¤¨
Ġà¤¸à¤® à¤°à¤¹
à¤ł à¤Ĺà¤¢
à¤®à¤ķ à¤¸
Ġà¤Ĭ à¤¨à¤ķ
Ġà¤¬à¤¸ à¤ķà¤°
à¤¨à¤µà¤° à¤¨
Ġà¥©à¥¦ à¥Ń
à¤° à¤ħà¤Ń
à¤¶ à¤ı
à¤ł à¥Łà¤ķ
Ġà¤ķà¤ª à¤¬
Ġà¤ıà¤¸à¤ıà¤² à¤ı
à¤¤ à¤ªà¤Ł
à¤µ à¤ĭà¤·
à¤ļ à¤ªà¤¡
Ġà¤¡ à¤¢
à¤ģ à¤Ĥ
à¤ī à¤ļà¤¯
Ġà¤Ĩà¤µ à¤Ĺà¤®à¤¨
Ġà¤¸à¤ķ à¤ĩ
Ġà¤¸à¤« à¤µ
Ġà¤®à¤¦ à¤¸
Ġà¤īà¤² à¤ľ
à¤ıà¤¨ à¤Īà¤Ł
Ġà¤°à¤ľ à¤Ĭ
Ġà¤°à¤¤à¤¨ à¤¦
Ġà¤¬à¤¹à¤¸à¤¤ à¤²à¤¬
à¤ı à¤ıà¤®à¤ª
à¤· à¤ķà¤¸
Ġà¤ķà¤¹ à¤¸
à¤Ĺà¤² à¤¶
Ġà¤ħà¤° à¤¡
à¤¬à¤² à¤¦
Ġà¤®à¤² à¤ĸà¤®
Ġà¤ĵà¤µà¤° à¤ıà¤ľ
Ġà¤ķà¤¡ à¤ķà¤¡
Ġà¤īà¤ĸ à¥ľà¤¤
Ġà¤ıà¤¸à¤ıà¤¸ à¤µ
à¤īà¤ī à¤ī
Ġà¥§à¥®à¥« à¥®
à¤ª à¤¬à¤¹
Ġà¤Ł à¤ļà¤¡
Ġà¤¡ à¤µà¤²
Ġà¤ľà¤¨ à¤§
à¤²à¤° à¤ĸ
à¤¦à¤µ à¤¶
Ġà¤²à¤® à¤¡
Ġà¤ĺà¤¨ à¤«
Ġà¥§à¥§ à¥¦à¥¦à¥¦
Ġà¤ªà¤°à¤µà¤° à¤Ł
Ġà¤ħà¤°à¤¸ à¤¦
à¥ ±
Ġà¤ķ à¤¸à¤ª
Ġà¤¶ à¤®à¤¤
Ġà¤ĺ à¤ĺ
Ġà¤®à¤¨ à¤ĺà¤¡
à¤¦à¤° à¤īà¤¤
à¤ıà¤® à¤Ĩà¤ĩ
Ġà¤ħà¤®à¤¨ à¤ľ
Ġà¤¬à¤¬à¤² à¤Ĺà¤®
à¤ĭ à¤ļ
à¤¸ à¤¤à¤®
à¤ľ à¤¸à¤¸
Ġà¤µ à¤¤à¤ķ
Ġà¤² à¤ĵ
Ġà¤ľà¤° à¤ĸ
à¤Ĭ à¤¸à¤«
à¤ªà¤Ł à¤Ł
à¤®à¤¬ à¤¦à¤¨
Ġà¤Ĩà¤°à¤ıà¤« à¤Ĩà¤Ī
à¤Ĩà¤¦ à¤°à¤£
Ġà¤¦ à¤²à¤¤
à¤· à¤¤à¤®
Ġà¤¡ à¤¯à¤¨
à¤Ĺà¤° à¤¸à¤°
Ġà¤ĵ à¤Łà¤°
Ġà¤ħà¤° à¤ľà¤°
à¤¨à¤¨ à¤¨
Ġà¤Ĩà¤ķ à¤£
Ġà¤ıà¤² à¤ĵà¤ıà¤¸
Ġà¤ķà¤µ à¤ļà¤®
à¥® à¥¨
Ġà¤© à¤¹à¤°
à¤¨ à¤Łà¤ķ
à¤ļ à¤°à¤Ń
à¤£ à¤¯à¤¸
à¤ľà¤¨ à¤Ń
à¤¶à¤² à¤µ
Ġà¤ľà¤Ĺà¤¤ à¤ľà¤¨à¤¨
Ġà¤ıà¤Ĩà¤Ī à¤Īà¤Īà¤Ī
Ġà¤¶à¤« à¤ķ
à¤° à¤Ĺà¤¡
Ġà¤¨ à¤Ĳ
Ġà¤² à¤ľà¤µ
Ġà¤¤ à¤ľà¤°à¤¬
Ġà¤ķà¤° à¤ī
Ġà¤ı à¤ıà¤ļà¤ª
à¤°à¤ķ à¤Łà¤¤
à¤Ĩà¤Ī à¤ıà¤¨à¤ľ
à¤ıà¤« à¤ıà¤ļ
Ġà¤²à¤¦ à¤ķà¤°
Ġà¤°à¤Ĺ à¤¡à¤¨
Ġà¤ıà¤¨à¤ıà¤ļà¤ıà¤¸ à¤Ĩà¤°à¤¸
à¤° à¤ĭà¤·
Ġà¤µ à¤²à¤µ
à¤¢ à¤Ĭ
Ġà¤īà¤ª à¤ķà¤¥
Ġà¤ħà¤² à¤¦
Ġà¤Ĩà¤Ī à¤ıà¤¸à¤Ī
Ġà¤ľà¤¡ à¤©
Ġà¤¦à¤®à¤¨ à¤ª
à¤ķ à¤Ĺà¤®à¤¨
à¤¹ à¤¬à¤¨
Ġà¤¤ à¤µà¤ļ
Ġà¤Ķ à¤·à¤¦
Ġà¤ıà¤ķ à¤°à¤®
Ġà¤ľà¤¨ à¤¦à¤¬
à¤·à¤£ à¤Ĺ
Ġà¤¨à¤° à¤ľ
Ġà¤ļà¤ķ à¤¦
à¤¸à¤¬ à¤¦
Ġà¤®à¤¦à¤¨à¤® à¤¹à¤²
Ġà¤Ĩ à¤½à¤½
Ġà¤Ń à¤±
Ġà¤¶ à¤±
à¤ĸ à¤°à¤¬
à¤£ à¤ħ
Ġà¤ĸ à¤ĩà¤²
à¤¸à¤¨ à¤ªà¤°
Ġà¤Ī à¤¸à¤¸
à¤ķà¤¡ à¤°à¤®
Ġà¤ħà¤ľ à¤¯à¤°
Ġà¤®à¤Ī à¤¡
Ġà¤ħà¤¹à¤®à¤¦ à¤ľà¤Ī
Ġà¤Ĩà¤ĩ à¤ıà¤¸à¤ıà¤®
Ġà¤ħà¤«à¤ľà¤² à¤Ĺà¤¢
à¥įà¥Ĥ à¤
Ġà¥§à¥®à¥¯ à¥¦
Ġà¤ķà¤¹à¤²à¤ķ à¤ĩ
à¥įà¥Ĥà¤ ¾
Ġà¤µ à¤·à¤¯
Ġà¤īà¤¨ à¤°
Ġà¤īà¤ª à¤°à¤²
Ġà¤Ĩà¤° à¤Īà¤Ł
Ġà¤Ĩà¤° à¤Ĩà¤Īà¤ıà¤¸
à¤²à¤¬ à¤Ĺà¤¢
Ġà¤²à¤¡ à¤ĸ
Ġà¤İ à¤²
Ġà¤«à¤« à¤ķà¤ķà¤°
à¤ķ à¤ĳà¤°
à¤² à¤«à¤²
à¤¯ à¤ļà¤¨
à¤§ à¤¬à¤²
Ġà¤¸à¤¹ à¤¸à¤®
à¤¯à¤¨ à¤ĺà¤°
à¤¸à¤¨ à¤Ń
à¤ªà¤ķ à¤µ
Ġà¤Ĩà¤¶ à¤ļà¤°
Ġà¤ĭ à¤·à¤¯
[...]
